{
  "version": "1.0",
  "truncation": null,
  "padding": null,
  "added_tokens": [
    {
      "id": 0,
      "content": "<pad>",
      "single_word": false,
      "lstrip": false,
      "rstrip": false,
      "normalized": false,
      "special": true
    },
    {
      "id": 1,
      "content": "<unk>",
      "single_word": false,
      "lstrip": false,
      "rstrip": false,
      "normalized": false,
      "special": true
    },
    {
      "id": 2,
      "content": "<bos>",
      "single_word": false,
      "lstrip": false,
      "rstrip": false,
      "normalized": false,
      "special": true
    },
    {
      "id": 3,
      "content": "<eos>",
      "single_word": false,
      "lstrip": false,
      "rstrip": false,
      "normalized": false,
      "special": true
    },
    {
      "id": 4,
      "content": "<mask>",
      "single_word": false,
      "lstrip": false,
      "rstrip": false,
      "normalized": false,
      "special": true
    }
  ],
  "normalizer": {
    "type": "NFKC"
  },
  "pre_tokenizer": {
    "type": "ByteLevel",
    "add_prefix_space": false,
    "trim_offsets": true,
    "use_regex": true
  },
  "post_processor": {
    "type": "TemplateProcessing",
    "single": [
      {
        "SpecialToken": {
          "id": "<bos>",
          "type_id": 0
        }
      },
      {
        "Sequence": {
          "id": "A",
          "type_id": 0
        }
      },
      {
        "SpecialToken": {
          "id": "<eos>",
          "type_id": 0
        }
      }
    ],
    "pair": [
      {
        "Sequence": {
          "id": "A",
          "type_id": 0
        }
      },
      {
        "Sequence": {
          "id": "B",
          "type_id": 1
        }
      }
    ],
    "special_tokens": {
      "<bos>": {
        "id": "<bos>",
        "ids": [
          2
        ],
        "tokens": [
          "<bos>"
        ]
      },
      "<eos>": {
        "id": "<eos>",
        "ids": [
          3
        ],
        "tokens": [
          "<eos>"
        ]
      }
    }
  },
  "decoder": {
    "type": "ByteLevel",
    "add_prefix_space": true,
    "trim_offsets": true,
    "use_regex": true
  },
  "model": {
    "type": "BPE",
    "dropout": null,
    "unk_token": "<unk>",
    "continuing_subword_prefix": null,
    "end_of_word_suffix": null,
    "fuse_unk": false,
    "byte_fallback": false,
    "ignore_merges": false,
    "vocab": {
      "<pad>": 0,
      "<unk>": 1,
      "<bos>": 2,
      "<eos>": 3,
      "<mask>": 4,
      "!": 5,
      "\"": 6,
      "#": 7,
      "$": 8,
      "%": 9,
      "'": 10,
      "(": 11,
      ")": 12,
      "*": 13,
      "+": 14,
      ",": 15,
      "-": 16,
      ".": 17,
      "/": 18,
      "0": 19,
      "1": 20,
      "2": 21,
      "3": 22,
      "4": 23,
      "5": 24,
      "6": 25,
      "7": 26,
      "8": 27,
      "9": 28,
      ":": 29,
      "<": 30,
      "?": 31,
      "A": 32,
      "B": 33,
      "C": 34,
      "D": 35,
      "E": 36,
      "F": 37,
      "G": 38,
      "H": 39,
      "I": 40,
      "J": 41,
      "K": 42,
      "L": 43,
      "M": 44,
      "N": 45,
      "O": 46,
      "P": 47,
      "Q": 48,
      "R": 49,
      "S": 50,
      "T": 51,
      "U": 52,
      "V": 53,
      "W": 54,
      "Y": 55,
      "Z": 56,
      "[": 57,
      "]": 58,
      "a": 59,
      "b": 60,
      "c": 61,
      "d": 62,
      "e": 63,
      "f": 64,
      "g": 65,
      "h": 66,
      "i": 67,
      "j": 68,
      "k": 69,
      "l": 70,
      "m": 71,
      "n": 72,
      "o": 73,
      "p": 74,
      "q": 75,
      "r": 76,
      "s": 77,
      "t": 78,
      "u": 79,
      "v": 80,
      "w": 81,
      "x": 82,
      "y": 83,
      "z": 84,
      "â": 85,
      "ð": 86,
      "Ċ": 87,
      "Ġ": 88,
      "Ģ": 89,
      "į": 90,
      "ĺ": 91,
      "Ļ": 92,
      "ľ": 93,
      "Ŀ": 94,
      "Ł": 95,
      "Ġt": 96,
      "Ġa": 97,
      "in": 98,
      "he": 99,
      "Ġw": 100,
      "Ġf": 101,
      "Ġs": 102,
      "Ġm": 103,
      "re": 104,
      "Ġb": 105,
      "ing": 106,
      "Ġi": 107,
      "ha": 108,
      "ou": 109,
      "nd": 110,
      "ee": 111,
      "Ġto": 112,
      "er": 113,
      "Ġthe": 114,
      "Ġo": 115,
      "Ġc": 116,
      "or": 117,
      "ed": 118,
      "Ġd": 119,
      "Ġl": 120,
      "as": 121,
      "Ġp": 122,
      "Ġg": 123,
      "on": 124,
      "Ġand": 125,
      "ĠI": 126,
      "ll": 127,
      "Ġfee": 128,
      "Ġfeel": 129,
      "it": 130,
      "om": 131,
      "es": 132,
      "ar": 133,
      "Ġn": 134,
      "Ġmy": 135,
      "is": 136,
      "Ġha": 137,
      "en": 138,
      "hat": 139,
      "Ġh": 140,
      "Ġwas": 141,
      "an": 142,
      "ot": 143,
      "Ġin": 144,
      "et": 145,
      "at": 146,
      "us": 147,
      "ve": 148,
      "ay": 149,
      "Ġthat": 150,
      "Ġof": 151,
      "le": 152,
      "ow": 153,
      "Ġth": 154,
      "Ġhe": 155,
      "Ġfor": 156,
      "Ġbe": 157,
      "Ġy": 158,
      "ly": 159,
      "Ġe": 160,
      "Ġit": 161,
      "ke": 162,
      "gh": 163,
      "Ġme": 164,
      "Ġre": 165,
      "ad": 166,
      "Ġst": 167,
      "al": 168,
      "ri": 169,
      "Ġon": 170,
      "ver": 171,
      "ter": 172,
      "out": 173,
      "id": 174,
      "ent": 175,
      "ch": 176,
      "ut": 177,
      "Ġan": 178,
      "all": 179,
      "Ġli": 180,
      "Ġj": 181,
      "hen": 182,
      "ome": 183,
      "Ġfeeling": 184,
      "ck": 185,
      "im": 186,
      "oo": 187,
      "Ġyou": 188,
      "ir": 189,
      "os": 190,
      "ld": 191,
      "Ġu": 192,
      "am": 193,
      "ce": 194,
      "ion": 195,
      "Ġam": 196,
      "Ġis": 197,
      "Ġdo": 198,
      "ith": 199,
      "ust": 200,
      "Ġk": 201,
      "Ġas": 202,
      "Ġwith": 203,
      "Ġso": 204,
      "Ġwor": 205,
      "Ġwe": 206,
      "Ġhave": 207,
      "ra": 208,
      "one": 209,
      "ght": 210,
      "ally": 211,
      "pp": 212,
      "Ġat": 213,
      "Ġnot": 214,
      "her": 215,
      "ct": 216,
      "ul": 217,
      "Ġsu": 218,
      "Ġget": 219,
      "Ġthis": 220,
      "el": 221,
      "th": 222,
      "Ġal": 223,
      "Ġwh": 224,
      "Ġgo": 225,
      "Ġne": 226,
      "fe": 227,
      "ill": 228,
      "op": 229,
      "Ġwhen": 230,
      "Ġbut": 231,
      "ant": 232,
      "Ġjust": 233,
      "ake": 234,
      "Ġout": 235,
      "Ġab": 236,
      "ear": 237,
      "ro": 238,
      "Ġmo": 239,
      "Ġhad": 240,
      "rom": 241,
      "our": 242,
      "Ġlike": 243,
      "end": 244,
      "st": 245,
      "ĠT": 246,
      "My": 247,
      "day": 248,
      "Ġsome": 249,
      "red": 250,
      "Ġcan": 251,
      "'s": 252,
      "ic": 253,
      "Ġare": 254,
      "Ġba": 255,
      "ous": 256,
      "ould": 257,
      "Ġwork": 258,
      "ound": 259,
      "use": 260,
      "Ġex": 261,
      "ain": 262,
      "ful": 263,
      "Ġfrom": 264,
      "Ġsh": 265,
      "een": 266,
      "ast": 267,
      "art": 268,
      "Ġher": 269,
      "Ġup": 270,
      "ive": 271,
      "nt": 272,
      "ur": 273,
      "Ġall": 274,
      "han": 275,
      "ess": 276,
      "ate": 277,
      "Ġkn": 278,
      "'t": 279,
      "ag": 280,
      "ry": 281,
      "Ġtim": 282,
      "Ġor": 283,
      "Ġdid": 284,
      "Ġlo": 285,
      "Ġyear": 286,
      "ind": 287,
      "Ġfri": 288,
      "res": 289,
      "Ġday": 290,
      "Ġgot": 291,
      "Ġhas": 292,
      "Ġabout": 293,
      "ca": 294,
      "âĢ": 295,
      "ink": 296,
      "Ġde": 297,
      "itt": 298,
      "est": 299,
      "ost": 300,
      "AM": 301,
      "NAM": 302,
      "Ġsp": 303,
      "Ġmake": 304,
      "Ġover": 305,
      "Ġcom": 306,
      "ation": 307,
      "very": 308,
      "Ġwho": 309,
      "Ġknow": 310,
      "NAME": 311,
      "..": 312,
      "ving": 313,
      "way": 314,
      "ĠS": 315,
      "Ġus": 316,
      "eed": 317,
      "ass": 318,
      "Ġhow": 319,
      "Ġany": 320,
      "Ġv": 321,
      "Ġwhat": 322,
      "Ġbeen": 323,
      "Ġthey": 324,
      "Ġneed": 325,
      "Ġreally": 326,
      "ood": 327,
      "ook": 328,
      "Ġfriend": 329,
      "il": 330,
      "Ġ[": 331,
      "Ġshe": 332,
      "Ġby": 333,
      "Ġcar": 334,
      "Ġint": 335,
      "Ġthink": 336,
      "Ġbeca": 337,
      "Ġback": 338,
      "Ġbecause": 339,
      "ble": 340,
      "ew": 341,
      "ight": 342,
      "se": 343,
      "un": 344,
      "Ġsee": 345,
      "Ġcl": 346,
      "ort": 347,
      "ong": 348,
      "ame": 349,
      "Ġtime": 350,
      "mb": 351,
      "mp": 352,
      "qu": 353,
      "ther": 354,
      "Ġr": 355,
      "Ġaf": 356,
      "Ġag": 357,
      "Ġar": 358,
      "Ġwill": 359,
      "Ġbit": 360,
      "Ġif": 361,
      "âĢĻ": 362,
      "ci": 363,
      "so": 364,
      "ty": 365,
      "ĠH": 366,
      "ine": 367,
      "Ġwee": 368,
      "Ġwant": 369,
      "ough": 370,
      "ers": 371,
      "Ġno": 372,
      "Ġhim": 373,
      "own": 374,
      "Ġun": 375,
      "Ġmore": 376,
      "ell": 377,
      "eop": 378,
      "ies": 379,
      "ile": 380,
      "igh": 381,
      "pt": 382,
      "ting": 383,
      "Ġthan": 384,
      "Ġsa": 385,
      "Ġman": 386,
      "ings": 387,
      "Ġthen": 388,
      "Ġother": 389,
      "Ġch": 390,
      "Ġcon": 391,
      "Ġdon": 392,
      "Ġle": 393,
      "Ġlitt": 394,
      "ard": 395,
      "iss": 396,
      "ist": 397,
      "other": 398,
      "etter": 399,
      "ated": 400,
      "ool": 401,
      "ose": 402,
      "elf": 403,
      "eople": 404,
      "Ġlittle": 405,
      "and": 406,
      "ge": 407,
      "ks": 408,
      "per": 409,
      "uck": 410,
      "ĠW": 411,
      "here": 412,
      "Ġfi": 413,
      "Ġbo": 414,
      "ought": 415,
      "Ġtoo": 416,
      "Ġca": 417,
      "orn": 418,
      "Ġpl": 419,
      "Ġpeople": 420,
      "Ġgi": 421,
      "Ġhome": 422,
      "ide": 423,
      "Ġyour": 424,
      "elt": 425,
      "ress": 426,
      "Ġcomp": 427,
      "ff": 428,
      "ft": 429,
      "ie": 430,
      "ick": 431,
      "wn": 432,
      "Ġen": 433,
      "Ġqu": 434,
      "Ġac": 435,
      "Ġwent": 436,
      "Ġwould": 437,
      "Ġmu": 438,
      "Ġmad": 439,
      "Ġbetter": 440,
      "Ġim": 441,
      "Ġthem": 442,
      "ĠIt": 443,
      "Ġnow": 444,
      "Ġhis": 445,
      "ady": 446,
      "Ġstu": 447,
      "Ġstill": 448,
      "Ġjo": 449,
      "irth": 450,
      "thing": 451,
      "Ġgoing": 452,
      "Ġsomeone": 453,
      "Ġinto": 454,
      "Ġafter": 455,
      "Ġagain": 456,
      "irthday": 457,
      "au": 458,
      "hing": 459,
      "ily": 460,
      "ore": 461,
      "Ġvery": 462,
      "Ġaway": 463,
      "Ġwr": 464,
      "Ġfelt": 465,
      "Ġbirthday": 466,
      "Ġco": 467,
      "Ġlast": 468,
      "Ġpr": 469,
      "Ġpre": 470,
      "Ġgr": 471,
      "omet": 472,
      "Ġhapp": 473,
      "Ġhop": 474,
      "Ġoff": 475,
      "Ġbeing": 476,
      "chool": 477,
      "Ġlife": 478,
      "age": 479,
      "Ġdidn": 480,
      "Ġanything": 481,
      "Ġaround": 482,
      "ect": 483,
      "lp": 484,
      "ĠA": 485,
      "ĠB": 486,
      "Ġro": 487,
      "hed": 488,
      "Ġfa": 489,
      "Ġfin": 490,
      "Ġfam": 491,
      "Ġschool": 492,
      "reat": 493,
      "Ġbl": 494,
      "Ġthere": 495,
      "Ġdi": 496,
      "Ġdown": 497,
      "Ġlook": 498,
      "Ġgood": 499,
      "Ġthings": 500,
      "Ġhelp": 501,
      "Ġits": 502,
      "Ġrem": 503,
      "Ġstr": 504,
      "irst": 505,
      "Ġwere": 506,
      "ctu": 507,
      "Ġalso": 508,
      "Ġnew": 509,
      "mber": 510,
      "Ġmade": 511,
      "Ġjob": 512,
      "Ġhope": 513,
      "ak": 514,
      "ait": 515,
      "de": 516,
      "ild": 517,
      "ned": 518,
      "oin": 519,
      "ves": 520,
      "ĠD": 521,
      "Ġri": 522,
      "Ġour": 523,
      "Ġapp": 524,
      "Ġfew": 525,
      "Ġfirst": 526,
      "Ġse": 527,
      "Ġsha": 528,
      "ree": 529,
      "nder": 530,
      "eep": 531,
      "Ġtheir": 532,
      "Ġdis": 533,
      "Ġpa": 534,
      "Ġper": 535,
      "Ġpro": 536,
      "Ġgu": 537,
      "ence": 538,
      "Ġthr": 539,
      "Ġevery": 540,
      "Ġstart": 541,
      "Ġdoing": 542,
      "Ġgetting": 543,
      "Ġlove": 544,
      "Ġyears": 545,
      "...": 546,
      "Ġweek": 547,
      "Ġmuch": 548,
      "Ġfamily": 549,
      "When": 550,
      "able": 551,
      "bor": 552,
      "dy": 553,
      "ely": 554,
      "less": 555,
      "med": 556,
      "ol": 557,
      "self": 558,
      "tty": 559,
      "ven": 560,
      "xt": 561,
      "Ġ3": 562,
      "ĠN": 563,
      "Ġtry": 564,
      "Ġaw": 565,
      "Ġsm": 566,
      "Ġsw": 567,
      "Ġsound": 568,
      "Ġsomet": 569,
      "Ġmiss": 570,
      "rent": 571,
      "Ġown": 572,
      "Ġlot": 573,
      "Ġlet": 574,
      "Ġlong": 575,
      "Ġpain": 576,
      "Ġpart": 577,
      "ited": 578,
      "ark": 579,
      "Ġhere": 580,
      "alk": 581,
      "Ġone": 582,
      "Ġonly": 583,
      "Ġdog": 584,
      "Ġsupp": 585,
      "Ġalway": 586,
      "Ġneigh": 587,
      "Ġable": 588,
      "ĠThe": 589,
      "Ġexc": 590,
      "ĠShe": 591,
      "augh": 592,
      "Ġalways": 593,
      "Ġneighbor": 594,
      "'m": 595,
      "00": 596,
      "You": 597,
      "ach": 598,
      "ace": 599,
      "ember": 600,
      "his": 601,
      "ig": 602,
      "ment": 603,
      "ng": 604,
      "oy": 605,
      "side": 606,
      "ure": 607,
      "ull": 608,
      "ured": 609,
      "ump": 610,
      "ved": 611,
      "when": 612,
      "xi": 613,
      "Ġra": 614,
      "Ġte": 615,
      "Ġtr": 616,
      "Ġtur": 617,
      "Ġactu": 618,
      "Ġway": 619,
      "Ġwhere": 620,
      "Ġwait": 621,
      "Ġfind": 622,
      "Ġsl": 623,
      "Ġsit": 624,
      "Ġsay": 625,
      "Ġsad": 626,
      "Ġmom": 627,
      "Ġmight": 628,
      "Ġbr": 629,
      "Ġtoday": 630,
      "Ġcow": 631,
      "Ġcould": 632,
      "Ġdaugh": 633,
      "Ġlost": 634,
      "Ġput": 635,
      "Ġgra": 636,
      "ite": 637,
      "ished": 638,
      "Ġhand": 639,
      "ens": 640,
      "Ġhu": 641,
      "otion": 642,
      "atch": 643,
      "Ġever": 644,
      "Ġreal": 645,
      "Ġsure": 646,
      "Ġnever": 647,
      "ical": 648,
      "hanks": 649,
      "Ġtimes": 650,
      "Ġdec": 651,
      "ations": 652,
      "assed": 653,
      "Ġfriends": 654,
      "Ġleft": 655,
      "Ġpretty": 656,
      "Ġhappy": 657,
      "Ġremember": 658,
      "Ġsomething": 659,
      "Ġdaughter": 660,
      "!!": 661,
      "It": 662,
      "ac": 663,
      "com": 664,
      "get": 665,
      "ia": 666,
      "iz": 667,
      "ice": 668,
      "ling": 669,
      "ps": 670,
      "pid": 671,
      "ĠO": 672,
      "ĠMy": 673,
      "Ġtri": 674,
      "Ġtake": 675,
      "Ġad": 676,
      "Ġfound": 677,
      "Ġcall": 678,
      "Ġcame": 679,
      "Ġpet": 680,
      "Ġgre": 681,
      "esome": 682,
      "Ġmyself": 683,
      "ish": 684,
      "Ġhaving": 685,
      "Ġhous": 686,
      "ans": 687,
      "Ġthough": 688,
      "Ġthought": 689,
      "Ġread": 690,
      "oss": 691,
      "Ġunder": 692,
      "cept": 693,
      "Ġdoes": 694,
      "Ġask": 695,
      "Ġwell": 696,
      "Ġwear": 697,
      "Ġsuch": 698,
      "fect": 699,
      "ours": 700,
      "Ġshow": 701,
      "ager": 702,
      "Ġdays": 703,
      "Ġused": 704,
      "Ġrun": 705,
      "Ġmany": 706,
      "Ġchild": 707,
      "Ġcont": 708,
      "peri": 709,
      "ressed": 710,
      "Ġcompan": 711,
      "oint": 712,
      "Ġright": 713,
      "Ġguy": 714,
      "Ġexcited": 715,
      "Ġactually": 716,
      "Ġsitu": 717,
      "'ll": 718,
      "HA": 719,
      "This": 720,
      "app": 721,
      "bb": 722,
      "be": 723,
      "ds": 724,
      "em": 725,
      "ere": 726,
      "eci": 727,
      "ker": 728,
      "let": 729,
      "og": 730,
      "ris": 731,
      "rist": 732,
      "ðŁ": 733,
      "ĠF": 734,
      "ĠL": 735,
      "Ġuse": 736,
      "Ġtalk": 737,
      "hel": 738,
      "Ġfuck": 739,
      "Ġself": 740,
      "Ġmat": 741,
      "Ġmone": 742,
      "Ġmost": 743,
      "Ġmorn": 744,
      "ready": 745,
      "Ġbad": 746,
      "Ġbro": 747,
      "Ġbook": 748,
      "Ġbought": 749,
      "eet": 750,
      "Ġold": 751,
      "Ġche": 752,
      "Ġcou": 753,
      "Ġcut": 754,
      "Ġcome": 755,
      "orker": 756,
      "Ġdad": 757,
      "Ġdone": 758,
      "Ġlate": 759,
      "Ġpost": 760,
      "Ġpers": 761,
      "Ġpie": 762,
      "Ġgir": 763,
      "Ġfeels": 764,
      "ester": 765,
      "Ġhot": 766,
      "Ġhur": 767,
      "Ġhigh": 768,
      "used": 769,
      "Ġthose": 770,
      "Ġheard": 771,
      "Ġbeg": 772,
      "Ġstor": 773,
      "ident": 774,
      "ently": 775,
      "Ġanxi": 776,
      "amn": 777,
      "Ġkid": 778,
      "Ġkeep": 779,
      "Ġwithout": 780,
      "Ġsub": 781,
      "Ġalready": 782,
      "Ġwhile": 783,
      "Ġgod": 784,
      "Ġnext": 785,
      "ants": 786,
      "Ġoutside": 787,
      "Ġexperi": 788,
      "Ġshit": 789,
      "Ġshould": 790,
      "ateful": 791,
      "estion": 792,
      "Ġanyone": 793,
      "Ġintere": 794,
      "Ġclose": 795,
      "Ġbitter": 796,
      "ĠHe": 797,
      "Ġwanted": 798,
      "Ġfire": 799,
      "Ġtook": 800,
      "Ġquestion": 801,
      "Ġgrateful": 802,
      "ected": 803,
      "Ġroad": 804,
      "aking": 805,
      "Ġstarted": 806,
      "Ġtrying": 807,
      "Ġsounds": 808,
      "atching": 809,
      "Ġhouse": 810,
      "Ġsituation": 811,
      "ðŁĺ": 812,
      "Ġmatter": 813,
      "Ġmoney": 814,
      "Ġmorning": 815,
      "Ġperson": 816,
      "Ġpiece": 817,
      "Ġgirl": 818,
      "esterday": 819,
      "Ġexperience": 820,
      "Ġinterest": 821,
      "'re": 822,
      "**": 823,
      "Aw": 824,
      "He": 825,
      "To": 826,
      "The": 827,
      "aut": 828,
      "ba": 829,
      "by": 830,
      "cou": 831,
      "cess": 832,
      "eal": 833,
      "ever": 834,
      "fri": 835,
      "ger": 836,
      "ged": 837,
      "gry": 838,
      "hind": 839,
      "hile": 840,
      "ire": 841,
      "ied": 842,
      "ich": 843,
      "ired": 844,
      "ious": 845,
      "iful": 846,
      "iew": 847,
      "ms": 848,
      "mas": 849,
      "most": 850,
      "motion": 851,
      "nal": 852,
      "ness": 853,
      "oke": 854,
      "pa": 855,
      "ple": 856,
      "pris": 857,
      "ron": 858,
      "rit": 859,
      "rpris": 860,
      "ses": 861,
      "te": 862,
      "uc": 863,
      "ug": 864,
      "wo": 865,
      "Ġ5": 866,
      "Ġke": 867,
      "Ġent": 868,
      "Ġtra": 869,
      "ince": 870,
      "Ġwon": 871,
      "Ġfall": 872,
      "Ġfood": 873,
      "Ġfil": 874,
      "Ġfun": 875,
      "Ġsc": 876,
      "Ġsk": 877,
      "Ġsn": 878,
      "Ġseen": 879,
      "Ġsame": 880,
      "Ġside": 881,
      "Ġsince": 882,
      "Ġmon": 883,
      "Ġmis": 884,
      "Ġmay": 885,
      "Ġbra": 886,
      "Ġimp": 887,
      "Ġide": 888,
      "Ġtold": 889,
      "erable": 890,
      "Ġcant": 891,
      "Ġcry": 892,
      "Ġcreat": 893,
      "Ġla": 894,
      "Ġlist": 895,
      "Ġph": 896,
      "Ġpoint": 897,
      "Ġgreat": 898,
      "ity": 899,
      "iting": 900,
      "arly": 901,
      "Ġname": 902,
      "ision": 903,
      "Ġhar": 904,
      "ened": 905,
      "ense": 906,
      "Ġhor": 907,
      "Ġhours": 908,
      "Ġinter": 909,
      "ety": 910,
      "Ġbeaut": 911,
      "Ġbehind": 912,
      "Ġyesterday": 913,
      "Ġel": 914,
      "Ġeven": 915,
      "Ġemotion": 916,
      "Ġready": 917,
      "Ġstre": 918,
      "Ġonce": 919,
      "Ġanother": 920,
      "Ġlive": 921,
      "Ġfeelings": 922,
      "Ġyoung": 923,
      "irt": 924,
      "usting": 925,
      "Ġkind": 926,
      "Ġwords": 927,
      "rap": 928,
      "Ġsurpris": 929,
      "Ġgets": 930,
      "Ġalmost": 931,
      "Ġwhy": 932,
      "Ġwhich": 933,
      "Ġmove": 934,
      "stand": 935,
      "ĠThanks": 936,
      "Ġexp": 937,
      "Ġdead": 938,
      "Ġcoming": 939,
      "Ġvi": 940,
      "Ġvac": 941,
      "Ġneeds": 942,
      "Ġclass": 943,
      "mbar": 944,
      "Ġru": 945,
      "Ġuns": 946,
      "Ġsaw": 947,
      "Ġsafe": 948,
      "Ġmanager": 949,
      "Ġchrist": 950,
      "Ġdont": 951,
      "Ġfix": 952,
      "Ġcaus": 953,
      "Ġplan": 954,
      "Ġplace": 955,
      "Ġgift": 956,
      "Ġcomplet": 957,
      "Ġaccept": 958,
      "Ġwouldn": 959,
      "Ġstupid": 960,
      "Ġagainst": 961,
      "Ġwrong": 962,
      "Ġcoll": 963,
      "Ġgrou": 964,
      "Ġfinally": 965,
      "Ġfinished": 966,
      "Ġdied": 967,
      "Ġstran": 968,
      "Ġhopeful": 969,
      "Ġsex": 970,
      "Ġthrough": 971,
      "Ġparty": 972,
      "Ġsupport": 973,
      "Ġturned": 974,
      "Ġbrother": 975,
      "Ġcoworker": 976,
      "Ġrealiz": 977,
      "Ġunderstand": 978,
      "Ġcompanion": 979,
      "Ġkids": 980,
      "friend": 981,
      "Ġmonth": 982,
      "Ġmiserable": 983,
      "Ġidea": 984,
      "Ġbeautiful": 985,
      "Ġvacation": 986,
      "Ġchristmas": 987,
      "200": 988,
      "Just": 989,
      "Last": 990,
      "RE": 991,
      "Thanks": 992,
      "We": 993,
      "az": 994,
      "ave": 995,
      "act": 996,
      "bt": 997,
      "bit": 998,
      "bly": 999,
      "cer": 1000,
      "cri": 1001,
      "come": 1002,
      "coin": 1003,
      "cident": 1004,
      "cently": 1005,
      "for": 1006,
      "ffe": 1007,
      "fore": 1008,
      "gu": 1009,
      "hic": 1010,
      "iv": 1011,
      "iet": 1012,
      "ife": 1013,
      "ible": 1014,
      "ictu": 1015,
      "lad": 1016,
      "man": 1017,
      "more": 1018,
      "ne": 1019,
      "ning": 1020,
      "not": 1021,
      "noy": 1022,
      "ond": 1023,
      "ove": 1024,
      "opp": 1025,
      "pe": 1026,
      "pen": 1027,
      "part": 1028,
      "ring": 1029,
      "ral": 1030,
      "ram": 1031,
      "sp": 1032,
      "ts": 1033,
      "ted": 1034,
      "ue": 1035,
      "uri": 1036,
      "ually": 1037,
      "vent": 1038,
      "vie": 1039,
      "view": 1040,
      "whel": 1041,
      "ys": 1042,
      "yes": 1043,
      "Ġ,": 1044,
      "Ġ1": 1045,
      "ĠC": 1046,
      "ĠE": 1047,
      "ĠM": 1048,
      "ĠP": 1049,
      "ĠR": 1050,
      "ĠU": 1051,
      "Ġet": 1052,
      "ĠâĢ": 1053,
      "ĠðŁĺ": 1054,
      "Ġtree": 1055,
      "Ġtwo": 1056,
      "Ġapart": 1057,
      "int": 1058,
      "ining": 1059,
      "Ġwin": 1060,
      "Ġwom": 1061,
      "Ġwar": 1062,
      "Ġwalk": 1063,
      "Ġwatching": 1064,
      "Ġwife": 1065,
      "Ġfat": 1066,
      "Ġfore": 1067,
      "Ġsy": 1068,
      "Ġsca": 1069,
      "Ġsens": 1070,
      "Ġmed": 1071,
      "Ġmar": 1072,
      "Ġmaking": 1073,
      "ren": 1074,
      "Ġbu": 1075,
      "Ġbed": 1076,
      "Ġbon": 1077,
      "Ġbal": 1078,
      "Ġbur": 1079,
      "Ġbest": 1080,
      "Ġid": 1081,
      "Ġir": 1082,
      "oud": 1083,
      "Ġtown": 1084,
      "erve": 1085,
      "erious": 1086,
      "Ġthese": 1087,
      "Ġopen": 1088,
      "Ġcle": 1089,
      "Ġcra": 1090,
      "Ġcook": 1091,
      "Ġcool": 1092,
      "Ġcorn": 1093,
      "edy": 1094,
      "Ġdri": 1095,
      "Ġdur": 1096,
      "Ġdist": 1097,
      "Ġdump": 1098,
      "Ġdamn": 1099,
      "Ġlat": 1100,
      "Ġlear": 1101,
      "ase": 1102,
      "ason": 1103,
      "Ġpo": 1104,
      "Ġpay": 1105,
      "Ġprom": 1106,
      "Ġpast": 1107,
      "Ġpres": 1108,
      "Ġpass": 1109,
      "Ġpress": 1110,
      "Ġpark": 1111,
      "Ġpassed": 1112,
      "Ġposs": 1113,
      "Ġpants": 1114,
      "Ġpictu": 1115,
      "Ġgame": 1116,
      "lls": 1117,
      "ital": 1118,
      "esp": 1119,
      "Ġnight": 1120,
      "ise": 1121,
      "ench": 1122,
      "Ġhon": 1123,
      "Ġhit": 1124,
      "ating": 1125,
      "uss": 1126,
      "ayers": 1127,
      "Ġoffe": 1128,
      "owing": 1129,
      "Ġhear": 1130,
      "Ġheart": 1131,
      "Ġform": 1132,
      "Ġbefore": 1133,
      "Ġeff": 1134,
      "Ġeach": 1135,
      "Ġembar": 1136,
      "Ġeyes": 1137,
      "kend": 1138,
      "Ġmean": 1139,
      "Ġrej": 1140,
      "Ġrel": 1141,
      "Ġrep": 1142,
      "Ġangry": 1143,
      "Ġannoy": 1144,
      "Ġjour": 1145,
      "Ġjeal": 1146,
      "osp": 1147,
      "Ġass": 1148,
      "Ġasso": 1149,
      "Ġworld": 1150,
      "Ġworth": 1151,
      "raged": 1152,
      "Ġate": 1153,
      "ular": 1154,
      "Ġalive": 1155,
      "Ġmovie": 1156,
      "ending": 1157,
      "ĠThen": 1158,
      "Ġworking": 1159,
      "Ġexam": 1160,
      "Ġshort": 1161,
      "nting": 1162,
      "ntry": 1163,
      "hank": 1164,
      "Ġknew": 1165,
      "Ġlol": 1166,
      "Ġloving": 1167,
      "âĢĿ": 1168,
      "itted": 1169,
      "Ġspeci": 1170,
      "Ġoverwhel": 1171,
      "Ġwhole": 1172,
      "ĠSo": 1173,
      "Ġhowever": 1174,
      "Ġvis": 1175,
      "Ġneeded": 1176,
      "ightly": 1177,
      "Ġago": 1178,
      "Ġbitcoin": 1179,
      "Ġweeks": 1180,
      "Ġweekend": 1181,
      "Ġconf": 1182,
      "Ġleast": 1183,
      "ards": 1184,
      "Ġbody": 1185,
      "Ġgiving": 1186,
      "Ġgives": 1187,
      "ieve": 1188,
      "Ġquiet": 1189,
      "Ġaccident": 1190,
      "Ġimag": 1191,
      "Ġstuff": 1192,
      "Ġprot": 1193,
      "Ġprepa": 1194,
      "Ġfact": 1195,
      "Ġdiffe": 1196,
      "Ġstrong": 1197,
      "akes": 1198,
      "Ġappre": 1199,
      "Ġshared": 1200,
      "Ġparent": 1201,
      "Ġperfect": 1202,
      "Ġproba": 1203,
      "Ġthrown": 1204,
      "Ġsmell": 1205,
      "Ġdogs": 1206,
      "Ġsuppose": 1207,
      "Ġneighbors": 1208,
      "ign": 1209,
      "ully": 1210,
      "Ġteam": 1211,
      "Ġsleep": 1212,
      "Ġslightly": 1213,
      "Ġsaying": 1214,
      "Ġdecision": 1215,
      "Ġtrip": 1216,
      "Ġcalled": 1217,
      "Ġdoesn": 1218,
      "Ġasked": 1219,
      "Ġcontent": 1220,
      "appy": 1221,
      "Ġselfish": 1222,
      "Ġbroke": 1223,
      "Ġcountry": 1224,
      "Ġlately": 1225,
      "Ġbegan": 1226,
      "Ġanxiety": 1227,
      "Ġentire": 1228,
      "Ġcreative": 1229,
      "Ġstreet": 1230,
      "Ġkinda": 1231,
      "Ġsurprised": 1232,
      "Ġgifts": 1233,
      "Ġcompletely": 1234,
      "Ġaccepted": 1235,
      "Ġmonths": 1236,
      "azing": 1237,
      "ĠâĢľ": 1238,
      "Ġapartment": 1239,
      "Ġwoman": 1240,
      "Ġfather": 1241,
      "Ġmarri": 1242,
      "Ġbonus": 1243,
      "eriously": 1244,
      "Ġduring": 1245,
      "Ġpossible": 1246,
      "Ġoffered": 1247,
      "Ġeffort": 1248,
      "Ġjournal": 1249,
      "Ġjealous": 1250,
      "Ġassoci": 1251,
      "Ġspecial": 1252,
      "Ġprepared": 1253,
      "Ġdifferent": 1254,
      "Ġparents": 1255,
      "Ġprobably": 1256,
      "!âĢĿ": 1257,
      "'d": 1258,
      "01": 1259,
      "201": 1260,
      ":)": 1261,
      "And": 1262,
      "Damn": 1263,
      "Fuck": 1264,
      "Glad": 1265,
      "HE": 1266,
      "Hon": 1267,
      "Had": 1268,
      "IG": 1269,
      "IL": 1270,
      "IN": 1271,
      "If": 1272,
      "OU": 1273,
      "Oh": 1274,
      "One": 1275,
      "OIN": 1276,
      "Sh": 1277,
      "So": 1278,
      "TT": 1279,
      "There": 1280,
      "Thank": 1281,
      "Ver": 1282,
      "Wh": 1283,
      "What": 1284,
      "Wow": 1285,
      "Went": 1286,
      "Ye": 1287,
      "Your": 1288,
      "YOU": 1289,
      "],": 1290,
      "ah": 1291,
      "ack": 1292,
      "arent": 1293,
      "bl": 1294,
      "bo": 1295,
      "br": 1296,
      "bs": 1297,
      "bul": 1298,
      "bell": 1299,
      "bile": 1300,
      "cy": 1301,
      "con": 1302,
      "ces": 1303,
      "cal": 1304,
      "chen": 1305,
      "cher": 1306,
      "chel": 1307,
      "dd": 1308,
      "dent": 1309,
      "ef": 1310,
      "eat": 1311,
      "ead": 1312,
      "ered": 1313,
      "ege": 1314,
      "fter": 1315,
      "ffect": 1316,
      "fied": 1317,
      "fully": 1318,
      "ges": 1319,
      "gling": 1320,
      "hu": 1321,
      "hood": 1322,
      "if": 1323,
      "ip": 1324,
      "ier": 1325,
      "iot": 1326,
      "joy": 1327,
      "ken": 1328,
      "lf": 1329,
      "led": 1330,
      "line": 1331,
      "loy": 1332,
      "lesome": 1333,
      "lieve": 1334,
      "mm": 1335,
      "min": 1336,
      "mor": 1337,
      "mother": 1338,
      "mitted": 1339,
      "ny": 1340,
      "ner": 1341,
      "nter": 1342,
      "oc": 1343,
      "oot": 1344,
      "ored": 1345,
      "onder": 1346,
      "pl": 1347,
      "port": 1348,
      "row": 1349,
      "rass": 1350,
      "rated": 1351,
      "rassed": 1352,
      "ross": 1353,
      "sul": 1354,
      "ten": 1355,
      "that": 1356,
      "tic": 1357,
      "tun": 1358,
      "up": 1359,
      "uit": 1360,
      "ual": 1361,
      "ures": 1362,
      "umb": 1363,
      "uper": 1364,
      "ude": 1365,
      "ubl": 1366,
      "vas": 1367,
      "vast": 1368,
      "while": 1369,
      "ym": 1370,
      "yfriend": 1371,
      "ype": 1372,
      "zy": 1373,
      "Ġ\"": 1374,
      "Ġ$": 1375,
      "Ġ9": 1376,
      "Ġve": 1377,
      "ĠYou": 1378,
      "Ġ**": 1379,
      "ĠYOU": 1380,
      "ĺðŁĺ": 1381,
      "Ġtre": 1382,
      "Ġter": 1383,
      "Ġtro": 1384,
      "Ġtell": 1385,
      "Ġtick": 1386,
      "Ġtaking": 1387,
      "Ġtired": 1388,
      "Ġtype": 1389,
      "Ġach": 1390,
      "inut": 1391,
      "iness": 1392,
      "hether": 1393,
      "Ġwat": 1394,
      "Ġwus": 1395,
      "Ġwall": 1396,
      "Ġwished": 1397,
      "Ġwoke": 1398,
      "Ġwonder": 1399,
      "Ġwhether": 1400,
      "Ġfl": 1401,
      "Ġfre": 1402,
      "Ġfly": 1403,
      "Ġfear": 1404,
      "Ġfive": 1405,
      "Ġfest": 1406,
      "Ġfell": 1407,
      "Ġfans": 1408,
      "Ġsom": 1409,
      "Ġsis": 1410,
      "Ġske": 1411,
      "Ġsent": 1412,
      "Ġsci": 1413,
      "Ġsell": 1414,
      "Ġsick": 1415,
      "Ġsign": 1416,
      "Ġmet": 1417,
      "Ġmind": 1418,
      "Ġmine": 1419,
      "Ġmother": 1420,
      "Ġmark": 1421,
      "Ġmeet": 1422,
      "Ġminut": 1423,
      "rely": 1424,
      "ream": 1425,
      "Ġbor": 1426,
      "Ġbom": 1427,
      "Ġbar": 1428,
      "Ġbri": 1429,
      "Ġball": 1430,
      "Ġbother": 1431,
      "Ġbig": 1432,
      "Ġbump": 1433,
      "Ġbench": 1434,
      "ingle": 1435,
      "Ġill": 1436,
      "Ġive": 1437,
      "haps": 1438,
      "nday": 1439,
      "ndmother": 1440,
      "ering": 1441,
      "erty": 1442,
      "Ġopt": 1443,
      "Ġce": 1444,
      "Ġcre": 1445,
      "Ġcha": 1446,
      "Ġcat": 1447,
      "Ġcop": 1448,
      "Ġcro": 1449,
      "Ġcour": 1450,
      "Ġcatching": 1451,
      "orm": 1452,
      "ors": 1453,
      "oron": 1454,
      "orge": 1455,
      "eday": 1456,
      "Ġdan": 1457,
      "Ġdet": 1458,
      "Ġdro": 1459,
      "Ġdark": 1460,
      "Ġlay": 1461,
      "Ġlone": 1462,
      "Ġlink": 1463,
      "Ġletter": 1464,
      "Ġland": 1465,
      "Ġluck": 1466,
      "Ġlady": 1467,
      "Ġlau": 1468,
      "aster": 1469,
      "asant": 1470,
      "Ġpot": 1471,
      "Ġpri": 1472,
      "Ġpick": 1473,
      "Ġpull": 1474,
      "Ġpump": 1475,
      "Ġgen": 1476,
      "Ġgent": 1477,
      "Ġgone": 1478,
      "Ġgive": 1479,
      "Ġgave": 1480,
      "Ġgorge": 1481,
      "ons": 1482,
      "ĠIS": 1483,
      "Ġfeet": 1484,
      "itive": 1485,
      "itchen": 1486,
      "omach": 1487,
      "ari": 1488,
      "ary": 1489,
      "Ġner": 1490,
      "Ġnone": 1491,
      "Ġnorm": 1492,
      "Ġhall": 1493,
      "Ġhate": 1494,
      "Ġho": 1495,
      "Ġhill": 1496,
      "Ġwasnt": 1497,
      "ane": 1498,
      "ote": 1499,
      "otos": 1500,
      "Ġinc": 1501,
      "Ġinf": 1502,
      "Ġinv": 1503,
      "Ġinst": 1504,
      "Ġinsp": 1505,
      "ath": 1506,
      "ative": 1507,
      "vel": 1508,
      "veling": 1509,
      "aybe": 1510,
      "Ġthing": 1511,
      "Ġthree": 1512,
      "Ġhes": 1513,
      "Ġheal": 1514,
      "Ġforget": 1515,
      "Ġfortun": 1516,
      "Ġbecom": 1517,
      "Ġbelieve": 1518,
      "Ġyet": 1519,
      "Ġeas": 1520,
      "Ġear": 1521,
      "Ġemp": 1522,
      "Ġeffect": 1523,
      "Ġret": 1524,
      "Ġrele": 1525,
      "Ġrefe": 1526,
      "Ġreass": 1527,
      "Ġrecently": 1528,
      "Ġresul": 1529,
      "Ġstand": 1530,
      "Ġstressed": 1531,
      "Ġstomach": 1532,
      "alm": 1533,
      "alent": 1534,
      "right": 1535,
      "rible": 1536,
      "Ġonline": 1537,
      "tery": 1538,
      "uth": 1539,
      "utely": 1540,
      "Ġanim": 1541,
      "alled": 1542,
      "Ġlied": 1543,
      "Ġliving": 1544,
      "Ġlives": 1545,
      "cks": 1546,
      "imb": 1547,
      "imes": 1548,
      "osed": 1549,
      "lding": 1550,
      "Ġunt": 1551,
      "amed": 1552,
      "ceful": 1553,
      "cember": 1554,
      "ionate": 1555,
      "Ġamused": 1556,
      "Ġamazing": 1557,
      "Ġdoor": 1558,
      "Ġdolls": 1559,
      "ustral": 1560,
      "Ġkitchen": 1561,
      "Ġworse": 1562,
      "raid": 1563,
      "rage": 1564,
      "pped": 1565,
      "Ġnotic": 1566,
      "Ġnothing": 1567,
      "eless": 1568,
      "Ġalone": 1569,
      "Ġalright": 1570,
      "Ġgoes": 1571,
      "Ġnecess": 1572,
      "operty": 1573,
      "Ġmod": 1574,
      "Ġmoving": 1575,
      "Ġmoved": 1576,
      "Ġmobile": 1577,
      "Ġmonday": 1578,
      "ended": 1579,
      "ĠThat": 1580,
      "ĠThis": 1581,
      "ĠTHE": 1582,
      "Ġcannot": 1583,
      "Ġcanvas": 1584,
      "Ġbag": 1585,
      "Ġband": 1586,
      "Ġbaby": 1587,
      "Ġbachel": 1588,
      "Ġext": 1589,
      "Ġexcept": 1590,
      "Ġshitt": 1591,
      "Ġshirt": 1592,
      "Ġshopp": 1593,
      "ately": 1594,
      "Ġdidnt": 1595,
      "Ġloves": 1596,
      "Ġloved": 1597,
      "Ġfriday": 1598,
      "Ġdep": 1599,
      "Ġdevast": 1600,
      "itting": 1601,
      "estly": 1602,
      "Ġspot": 1603,
      "Ġspent": 1604,
      "Ġspend": 1605,
      "Ġspace": 1606,
      "Ġwholesome": 1607,
      "ĠSt": 1608,
      "Ġusually": 1609,
      "Ġanymore": 1610,
      "iling": 1611,
      "unch": 1612,
      "Ġseeing": 1613,
      "Ġclimb": 1614,
      "quently": 1615,
      "Ġafraid": 1616,
      "Ġarms": 1617,
      "ciate": 1618,
      "ĠHow": 1619,
      "ĠHappy": 1620,
      "Ġhimself": 1621,
      "Ġunless": 1622,
      "ptical": 1623,
      "Ġthank": 1624,
      "Ġthanks": 1625,
      "Ġsave": 1626,
      "Ġsaid": 1627,
      "Ġothers": 1628,
      "ĠWhen": 1629,
      "ĠWould": 1630,
      "Ġfig": 1631,
      "Ġboat": 1632,
      "Ġboard": 1633,
      "Ġboyfriend": 1634,
      "Ġcare": 1635,
      "Ġcause": 1636,
      "Ġplay": 1637,
      "Ġgiven": 1638,
      "Ġeng": 1639,
      "Ġener": 1640,
      "Ġenough": 1641,
      "Ġencou": 1642,
      "Ġenjoy": 1643,
      "Ġacross": 1644,
      "Ġstubb": 1645,
      "Ġstudent": 1646,
      "Ġwrite": 1647,
      "Ġwriting": 1648,
      "Ġproud": 1649,
      "Ġprayers": 1650,
      "Ġproperty": 1651,
      "Ġhappened": 1652,
      "Ġoffice": 1653,
      "ection": 1654,
      "ĠAm": 1655,
      "ĠBl": 1656,
      "ĠBut": 1657,
      "Ġfaith": 1658,
      "Ġfabul": 1659,
      "Ġblog": 1660,
      "Ġblond": 1661,
      "Ġblamed": 1662,
      "Ġlooks": 1663,
      "Ġgoodby": 1664,
      "Ġhelps": 1665,
      "Ġremain": 1666,
      "Ġstrug": 1667,
      "Ġjobs": 1668,
      "Ġappl": 1669,
      "Ġapparent": 1670,
      "Ġappalled": 1671,
      "Ġseason": 1672,
      "Ġshare": 1673,
      "Ġdisg": 1674,
      "Ġdisapp": 1675,
      "Ġdiscou": 1676,
      "Ġpair": 1677,
      "Ġperfor": 1678,
      "Ġperhaps": 1679,
      "Ġprof": 1680,
      "Ġguess": 1681,
      "Ġeveryone": 1682,
      "olent": 1683,
      "ĠNot": 1684,
      "ĠNow": 1685,
      "Ġawake": 1686,
      "Ġawful": 1687,
      "Ġawesome": 1688,
      "Ġswim": 1689,
      "Ġsweet": 1690,
      "Ġsounded": 1691,
      "Ġmissed": 1692,
      "Ġlottery": 1693,
      "Ġpainful": 1694,
      "Ġparts": 1695,
      "ĠThey": 1696,
      "Ġrarely": 1697,
      "Ġtext": 1698,
      "Ġtruth": 1699,
      "Ġfinding": 1700,
      "Ġbrought": 1701,
      "Ġgrandmother": 1702,
      "Ġgraceful": 1703,
      "Ġhands": 1704,
      "Ġhandled": 1705,
      "Ġhum": 1706,
      "Ġhunting": 1707,
      "Ġdecid": 1708,
      "!!!": 1709,
      "ĠOr": 1710,
      "Ġtried": 1711,
      "Ġpetron": 1712,
      "Ġgreedy": 1713,
      "Ġwearing": 1714,
      "Ġcontact": 1715,
      "HAHA": 1716,
      "bbing": 1717,
      "ecially": 1718,
      "ĠLove": 1719,
      "Ġtalking": 1720,
      "Ġcheating": 1721,
      "Ġcouple": 1722,
      "Ġcute": 1723,
      "Ġhurry": 1724,
      "Ġstory": 1725,
      "Ġstories": 1726,
      "Ġanxious": 1727,
      "Ġgirls": 1728,
      "Ġgirlfriend": 1729,
      "Ġinteresting": 1730,
      "Ġinterested": 1731,
      "Aww": 1732,
      "Awesome": 1733,
      "Today": 1734,
      "ritated": 1735,
      "Ġkey": 1736,
      "Ġtraveling": 1737,
      "Ġfilth": 1738,
      "Ġfunny": 1739,
      "Ġsnake": 1740,
      "Ġmaybe": 1741,
      "Ġbrave": 1742,
      "Ġimpressed": 1743,
      "Ġcrying": 1744,
      "Ġpointless": 1745,
      "Ġhard": 1746,
      "Ġhorses": 1747,
      "Ġhorrible": 1748,
      "Ġinterview": 1749,
      "Ġelse": 1750,
      "Ġelses": 1751,
      "Ġemotions": 1752,
      "Ġemotionally": 1753,
      "Ġyounger": 1754,
      "Ġviolent": 1755,
      "Ġrule": 1756,
      "Ġcausing": 1757,
      "Ġcauses": 1758,
      "Ġcollege": 1759,
      "Ġgroup": 1760,
      "Ġstrange": 1761,
      "Ġstranger": 1762,
      "Ġsupportive": 1763,
      "Ġrealize": 1764,
      "Ġrealized": 1765,
      "hics": 1766,
      "ivity": 1767,
      "urious": 1768,
      "Ġ10": 1769,
      "Ġetc": 1770,
      "Ġwarm": 1771,
      "Ġforever": 1772,
      "Ġsensitive": 1773,
      "Ġbuy": 1774,
      "Ġbalcon": 1775,
      "Ġidiot": 1776,
      "Ġirritated": 1777,
      "Ġcrazy": 1778,
      "Ġcorners": 1779,
      "Ġdistress": 1780,
      "Ġlearned": 1781,
      "Ġpoor": 1782,
      "Ġpromotion": 1783,
      "Ġpassionate": 1784,
      "Ġpicture": 1785,
      "espite": 1786,
      "Ġhonored": 1787,
      "Ġembarrassed": 1788,
      "Ġrela": 1789,
      "Ġannoyed": 1790,
      "ospital": 1791,
      "Ġassured": 1792,
      "Ġworthwhile": 1793,
      "Ġoverwhelmed": 1794,
      "Ġvisit": 1795,
      "Ġconfident": 1796,
      "Ġimagine": 1797,
      "Ġfactor": 1798,
      "Ġappreciate": 1799,
      "Ġmarriage": 1800,
      "Ġassociations": 1801,
      "Honestly": 1802,
      "ILL": 1803,
      "Very": 1804,
      "Yeah": 1805,
      "body": 1806,
      "Ġterri": 1807,
      "Ġticket": 1808,
      "Ġwushu": 1809,
      "Ġwallet": 1810,
      "Ġflying": 1811,
      "Ġfestive": 1812,
      "Ġsomeday": 1813,
      "Ġsister": 1814,
      "Ġskeptical": 1815,
      "Ġscience": 1816,
      "Ġmarket": 1817,
      "Ġbombs": 1818,
      "Ġcourse": 1819,
      "Ġlonely": 1820,
      "Ġlucky": 1821,
      "Ġlaug": 1822,
      "Ġpriv": 1823,
      "Ġpulled": 1824,
      "Ġgener": 1825,
      "Ġgentle": 1826,
      "Ġgorgeous": 1827,
      "Ġinstead": 1828,
      "Ġfortunately": 1829,
      "Ġemploy": 1830,
      "Ġreassured": 1831,
      "Ġuntil": 1832,
      "ustralia": 1833,
      "Ġnoticed": 1834,
      "Ġbachelor": 1835,
      "Ġshitty": 1836,
      "Ġstubborn": 1837,
      "Ġstudents": 1838,
      "Ġfabulous": 1839,
      "Ġblonde": 1840,
      "Ġgoodbye": 1841,
      "Ġstruggling": 1842,
      "Ġapparently": 1843,
      "Ġdisappoint": 1844,
      "Ġdiscouraged": 1845,
      "Ġpetronas": 1846,
      "Ġbalcony": 1847,
      "%?": 1848,
      "'ve": 1849,
      ".\"": 1850,
      "11": 1851,
      "18": 1852,
      "29": 1853,
      "63": 1854,
      "70": 1855,
      ":/": 1856,
      "?!!": 1857,
      "?!âĢĿ": 1858,
      "AS": 1859,
      "AY": 1860,
      "Ab": 1861,
      "Ap": 1862,
      "At": 1863,
      "Ay": 1864,
      "All": 1865,
      "After": 1866,
      "Australia": 1867,
      "BI": 1868,
      "By": 1869,
      "CE": 1870,
      "CK": 1871,
      "CU": 1872,
      "Che": 1873,
      "Cle": 1874,
      "Col": 1875,
      "Don": 1876,
      "Det": 1877,
      "Dir": 1878,
      "Del": 1879,
      "Dem": 1880,
      "Dude": 1881,
      "EN": 1882,
      "ER": 1883,
      "ES": 1884,
      "EV": 1885,
      "El": 1886,
      "Ey": 1887,
      "Every": 1888,
      "Esp": 1889,
      "Fs": 1890,
      "Fin": 1891,
      "Fam": 1892,
      "FBI": 1893,
      "Gen": 1894,
      "Good": 1895,
      "HT": 1896,
      "HY": 1897,
      "His": 1898,
      "Hell": 1899,
      "HHA": 1900,
      "Happy": 1901,
      "IO": 1902,
      "ICE": 1903,
      "Jed": 1904,
      "Kind": 1905,
      "KILL": 1906,
      "LO": 1907,
      "Lor": 1908,
      "Look": 1909,
      "Lol": 1910,
      "Lending": 1911,
      "LIG": 1912,
      "LES": 1913,
      "Mine": 1914,
      "Maybe": 1915,
      "No": 1916,
      "Not": 1917,
      "Now": 1918,
      "Never": 1919,
      "OW": 1920,
      "Of": 1921,
      "Ok": 1922,
      "Om": 1923,
      "Oo": 1924,
      "PT": 1925,
      "Pre": 1926,
      "Per": 1927,
      "Pay": 1928,
      "People": 1929,
      "PEN": 1930,
      "Qu": 1931,
      "Re": 1932,
      "Sk": 1933,
      "Sl": 1934,
      "Sn": 1935,
      "St": 1936,
      "Some": 1937,
      "Somet": 1938,
      "Sack": 1939,
      "Super": 1940,
      "Th": 1941,
      "Tw": 1942,
      "Tro": 1943,
      "Tour": 1944,
      "Two": 1945,
      "TILL": 1946,
      "Ug": 1947,
      "Up": 1948,
      "UCK": 1949,
      "View": 1950,
      "Wait": 1951,
      "WHA": 1952,
      "WHY": 1953,
      "Yes": 1954,
      "Yet": 1955,
      "Yesterday": 1956,
      "Zeal": 1957,
      "]!": 1958,
      "].": 1959,
      "]?": 1960,
      "]...": 1961,
      "af": 1962,
      "ao": 1963,
      "av": 1964,
      "aw": 1965,
      "air": 1966,
      "afe": 1967,
      "ail": 1968,
      "aff": 1969,
      "axi": 1970,
      "aps": 1971,
      "apid": 1972,
      "bi": 1973,
      "bin": 1974,
      "ber": 1975,
      "bon": 1976,
      "bot": 1977,
      "band": 1978,
      "bie": 1979,
      "bage": 1980,
      "bited": 1981,
      "cu": 1982,
      "che": 1983,
      "cha": 1984,
      "ced": 1985,
      "cter": 1986,
      "cent": 1987,
      "cos": 1988,
      "cour": 1989,
      "cur": 1990,
      "cest": 1991,
      "cil": 1992,
      "ched": 1993,
      "ccess": 1994,
      "cuss": 1995,
      "cane": 1996,
      "der": 1997,
      "dit": 1998,
      "dest": 1999,
      "dies": 2000,
      "dge": 2001,
      "dened": 2002,
      "dges": 2003,
      "doot": 2004,
      "ep": 2005,
      "ex": 2006,
      "eving": 2007,
      "eak": 2008,
      "each": 2009,
      "eans": 2010,
      "eys": 2011,
      "ecember": 2012,
      "fy": 2013,
      "fin": 2014,
      "fir": 2015,
      "fel": 2016,
      "find": 2017,
      "fort": 2018,
      "fuck": 2019,
      "free": 2020,
      "fice": 2021,
      "fao": 2022,
      "gg": 2023,
      "gn": 2024,
      "gy": 2025,
      "gly": 2026,
      "gul": 2027,
      "gant": 2028,
      "gic": 2029,
      "give": 2030,
      "gers": 2031,
      "gies": 2032,
      "gage": 2033,
      "gical": 2034,
      "gular": 2035,
      "hi": 2036,
      "ho": 2037,
      "hx": 2038,
      "hin": 2039,
      "hus": 2040,
      "how": 2041,
      "hop": 2042,
      "hould": 2043,
      "hound": 2044,
      "hirt": 2045,
      "hmore": 2046,
      "hotos": 2047,
      "ik": 2048,
      "ias": 2049,
      "ient": 2050,
      "iest": 2051,
      "iated": 2052,
      "iff": 2053,
      "iven": 2054,
      "ixt": 2055,
      "ips": 2056,
      "just": 2057,
      "justing": 2058,
      "juri": 2059,
      "kw": 2060,
      "kin": 2061,
      "kes": 2062,
      "kay": 2063,
      "kind": 2064,
      "kers": 2065,
      "lt": 2066,
      "lu": 2067,
      "lin": 2068,
      "lre": 2069,
      "lee": 2070,
      "ler": 2071,
      "les": 2072,
      "lain": 2073,
      "long": 2074,
      "lady": 2075,
      "leep": 2076,
      "lol": 2077,
      "lish": 2078,
      "lours": 2079,
      "lants": 2080,
      "lcome": 2081,
      "lier": 2082,
      "lutely": 2083,
      "lAy": 2084,
      "ma": 2085,
      "my": 2086,
      "ming": 2087,
      "mad": 2088,
      "miss": 2089,
      "mand": 2090,
      "mely": 2091,
      "mark": 2092,
      "mog": 2093,
      "mense": 2094,
      "mosp": 2095,
      "mons": 2096,
      "mended": 2097,
      "mfao": 2098,
      "na": 2099,
      "net": 2100,
      "nam": 2101,
      "nop": 2102,
      "nical": 2103,
      "nected": 2104,
      "ncy": 2105,
      "nik": 2106,
      "ox": 2107,
      "oll": 2108,
      "ock": 2109,
      "oil": 2110,
      "oxi": 2111,
      "oons": 2112,
      "okay": 2113,
      "ping": 2114,
      "pan": 2115,
      "pelt": 2116,
      "pens": 2117,
      "pical": 2118,
      "pected": 2119,
      "phmore": 2120,
      "qaf": 2121,
      "rc": 2122,
      "rf": 2123,
      "rt": 2124,
      "rad": 2125,
      "rust": 2126,
      "rue": 2127,
      "rase": 2128,
      "rors": 2129,
      "rative": 2130,
      "sa": 2131,
      "sw": 2132,
      "sing": 2133,
      "sha": 2134,
      "sor": 2135,
      "sis": 2136,
      "set": 2137,
      "ster": 2138,
      "sel": 2139,
      "sive": 2140,
      "sur": 2141,
      "seriously": 2142,
      "suit": 2143,
      "shirt": 2144,
      "slee": 2145,
      "tf": 2146,
      "to": 2147,
      "tp": 2148,
      "tle": 2149,
      "tch": 2150,
      "tally": 2151,
      "tain": 2152,
      "torn": 2153,
      "table": 2154,
      "ture": 2155,
      "tlet": 2156,
      "trated": 2157,
      "tiness": 2158,
      "tari": 2159,
      "true": 2160,
      "ttp": 2161,
      "um": 2162,
      "ux": 2163,
      "uet": 2164,
      "uter": 2165,
      "ught": 2166,
      "unt": 2167,
      "uble": 2168,
      "uine": 2169,
      "uven": 2170,
      "upid": 2171,
      "ube": 2172,
      "umm": 2173,
      "vu": 2174,
      "var": 2175,
      "van": 2176,
      "vot": 2177,
      "vid": 2178,
      "vour": 2179,
      "vous": 2180,
      "vine": 2181,
      "vng": 2182,
      "wing": 2183,
      "wor": 2184,
      "wat": 2185,
      "wel": 2186,
      "well": 2187,
      "where": 2188,
      "wait": 2189,
      "weet": 2190,
      "worker": 2191,
      "wards": 2192,
      "xm": 2193,
      "xing": 2194,
      "xed": 2195,
      "you": 2196,
      "yal": 2197,
      "your": 2198,
      "ynt": 2199,
      "yper": 2200,
      "yman": 2201,
      "yhound": 2202,
      "ynet": 2203,
      "ypical": 2204,
      "zes": 2205,
      "zoo": 2206,
      "zards": 2207,
      "Ġ!": 2208,
      "Ġ#": 2209,
      "Ġ(": 2210,
      "Ġ-": 2211,
      "Ġ.": 2212,
      "Ġ/": 2213,
      "Ġ4": 2214,
      "Ġ<": 2215,
      "Ġing": 2216,
      "Ġer": 2217,
      "Ġed": 2218,
      "Ġes": 2219,
      "Ġut": 2220,
      "Ġrom": 2221,
      "Ġest": 2222,
      "Ġ200": 2223,
      "ĠJust": 2224,
      "Ġesp": 2225,
      "Ġ201": 2226,
      "Ġ:)": 2227,
      "ĠVery": 2228,
      "Ġ29": 2229,
      "Ġ63": 2230,
      "Ġ:/": 2231,
      "ĠGen": 2232,
      "ĠJed": 2233,
      "ĠKILL": 2234,
      "ĠQu": 2235,
      "ĠZeal": 2236,
      "Ġqaf": 2237,
      "Ġzoo": 2238,
      "ĠtO": 2239,
      "Ġtv": 2240,
      "Ġtou": 2241,
      "Ġtar": 2242,
      "Ġtear": 2243,
      "Ġteen": 2244,
      "Ġtough": 2245,
      "Ġtreat": 2246,
      "ĠtHe": 2247,
      "Ġtire": 2248,
      "Ġtakes": 2249,
      "Ġtip": 2250,
      "Ġtingle": 2251,
      "Ġtalent": 2252,
      "Ġtsa": 2253,
      "Ġtweet": 2254,
      "Ġain": 2255,
      "Ġaver": 2256,
      "Ġair": 2257,
      "Ġact": 2258,
      "Ġailing": 2259,
      "Ġaunt": 2260,
      "ins": 2261,
      "inations": 2262,
      "inering": 2263,
      "hes": 2264,
      "hell": 2265,
      "hetic": 2266,
      "Ġwre": 2267,
      "Ġwit": 2268,
      "Ġwry": 2269,
      "Ġwind": 2270,
      "Ġweed": 2271,
      "Ġwood": 2272,
      "Ġwist": 2273,
      "Ġwide": 2274,
      "Ġwatch": 2275,
      "Ġwish": 2276,
      "Ġwrap": 2277,
      "Ġwalm": 2278,
      "Ġwtf": 2279,
      "Ġfed": 2280,
      "Ġfar": 2281,
      "Ġfle": 2282,
      "Ġfut": 2283,
      "Ġfant": 2284,
      "Ġfake": 2285,
      "Ġfour": 2286,
      "Ġfres": 2287,
      "Ġfree": 2288,
      "Ġfence": 2289,
      "Ġfull": 2290,
      "Ġfron": 2291,
      "Ġfitted": 2292,
      "Ġfully": 2293,
      "Ġfeat": 2294,
      "Ġfaster": 2295,
      "Ġfotos": 2296,
      "Ġfitting": 2297,
      "Ġfurious": 2298,
      "Ġfoll": 2299,
      "Ġfrust": 2300,
      "Ġsou": 2301,
      "Ġser": 2302,
      "Ġsed": 2303,
      "Ġson": 2304,
      "Ġset": 2305,
      "Ġsat": 2306,
      "Ġsle": 2307,
      "Ġsir": 2308,
      "Ġsam": 2309,
      "Ġsear": 2310,
      "Ġsink": 2311,
      "Ġsort": 2312,
      "Ġsong": 2313,
      "Ġsours": 2314,
      "Ġsense": 2315,
      "Ġseriously": 2316,
      "Ġsingle": 2317,
      "Ġsane": 2318,
      "Ġsitting": 2319,
      "Ġsixt": 2320,
      "Ġsrc": 2321,
      "Ġsvu": 2322,
      "Ġms": 2323,
      "Ġmor": 2324,
      "Ġmot": 2325,
      "Ġmus": 2326,
      "Ġment": 2327,
      "Ġmill": 2328,
      "Ġmic": 2329,
      "Ġmess": 2330,
      "Ġmood": 2331,
      "Ġmil": 2332,
      "Ġmort": 2333,
      "Ġmild": 2334,
      "Ġmatch": 2335,
      "Ġmowing": 2336,
      "Ġmakes": 2337,
      "Ġmxm": 2338,
      "rend": 2339,
      "reas": 2340,
      "remely": 2341,
      "rewing": 2342,
      "Ġbm": 2343,
      "Ġbou": 2344,
      "Ġbas": 2345,
      "Ġban": 2346,
      "Ġbot": 2347,
      "Ġbus": 2348,
      "Ġboo": 2349,
      "Ġbill": 2350,
      "Ġbour": 2351,
      "Ġborn": 2352,
      "Ġboss": 2353,
      "Ġbug": 2354,
      "inging": 2355,
      "ĠiN": 2356,
      "ĠiSn": 2357,
      "Ġign": 2358,
      "has": 2359,
      "hable": 2360,
      "hamed": 2361,
      "hausting": 2362,
      "half": 2363,
      "oust": 2364,
      "oured": 2365,
      "ount": 2366,
      "ouds": 2367,
      "oubt": 2368,
      "ndom": 2369,
      "ndid": 2370,
      "eel": 2371,
      "eem": 2372,
      "Ġton": 2373,
      "Ġtop": 2374,
      "Ġtoget": 2375,
      "Ġtomor": 2376,
      "Ġtoner": 2377,
      "Ġtoler": 2378,
      "Ġtort": 2379,
      "Ġtotally": 2380,
      "Ġtowards": 2381,
      "erk": 2382,
      "erly": 2383,
      "erling": 2384,
      "erted": 2385,
      "Ġtherap": 2386,
      "Ġok": 2387,
      "Ġopp": 2388,
      "Ġoper": 2389,
      "Ġobt": 2390,
      "Ġovar": 2391,
      "Ġchat": 2392,
      "Ġcri": 2393,
      "Ġcir": 2394,
      "Ġcam": 2395,
      "Ġcous": 2396,
      "Ġcart": 2397,
      "Ġchan": 2398,
      "Ġcell": 2399,
      "Ġcia": 2400,
      "Ġcram": 2401,
      "Ġcup": 2402,
      "Ġcoron": 2403,
      "Ġcalm": 2404,
      "Ġcurious": 2405,
      "Ġcrad": 2406,
      "Ġcumm": 2407,
      "orous": 2408,
      "edly": 2409,
      "eddit": 2410,
      "Ġdes": 2411,
      "Ġden": 2412,
      "Ġdent": 2413,
      "Ġdam": 2414,
      "Ġdel": 2415,
      "Ġdil": 2416,
      "Ġdough": 2417,
      "Ġdiss": 2418,
      "Ġdress": 2419,
      "Ġdram": 2420,
      "Ġdumb": 2421,
      "Ġdude": 2422,
      "Ġdream": 2423,
      "Ġdespite": 2424,
      "Ġdwell": 2425,
      "Ġdoubt": 2426,
      "Ġlar": 2427,
      "Ġlen": 2428,
      "Ġlan": 2429,
      "Ġlow": 2430,
      "Ġlad": 2431,
      "Ġlos": 2432,
      "Ġless": 2433,
      "Ġline": 2434,
      "Ġlose": 2435,
      "Ġlaugh": 2436,
      "Ġluc": 2437,
      "Ġloud": 2438,
      "Ġlunch": 2439,
      "ash": 2440,
      "ased": 2441,
      "asures": 2442,
      "Ġpp": 2443,
      "Ġping": 2444,
      "Ġpar": 2445,
      "Ġpen": 2446,
      "Ġpat": 2447,
      "Ġple": 2448,
      "Ġpos": 2449,
      "Ġpop": 2450,
      "Ġpour": 2451,
      "Ġpic": 2452,
      "Ġpur": 2453,
      "Ġpiss": 2454,
      "Ġpoke": 2455,
      "Ġpubl": 2456,
      "ĠpEy": 2457,
      "Ġpeach": 2458,
      "Ġgas": 2459,
      "Ġgon": 2460,
      "Ġgar": 2461,
      "Ġgri": 2462,
      "Ġgid": 2463,
      "Ġgam": 2464,
      "Ġgro": 2465,
      "Ġglad": 2466,
      "Ġgym": 2467,
      "ĠgOo": 2468,
      "Ġgerling": 2469,
      "ĠIT": 2470,
      "ĠIm": 2471,
      "ĠInter": 2472,
      "ller": 2473,
      "llip": 2474,
      "Ġfeelin": 2475,
      "itre": 2476,
      "iter": 2477,
      "ither": 2478,
      "ities": 2479,
      "itely": 2480,
      "itual": 2481,
      "itary": 2482,
      "omg": 2483,
      "omy": 2484,
      "omes": 2485,
      "omiting": 2486,
      "arant": 2487,
      "arily": 2488,
      "armed": 2489,
      "arvel": 2490,
      "Ġnay": 2491,
      "Ġnur": 2492,
      "Ġnost": 2493,
      "Ġnation": 2494,
      "Ġnine": 2495,
      "Ġnice": 2496,
      "Ġnerve": 2497,
      "isk": 2498,
      "ising": 2499,
      "ised": 2500,
      "ishing": 2501,
      "isfied": 2502,
      "Ġhair": 2503,
      "Ġhamp": 2504,
      "Ġhang": 2505,
      "Ġhabit": 2506,
      "Ġhated": 2507,
      "Ġhavent": 2508,
      "Ġhalf": 2509,
      "ening": 2510,
      "enly": 2511,
      "ency": 2512,
      "enari": 2513,
      "Ġhus": 2514,
      "Ġhir": 2515,
      "Ġhour": 2516,
      "Ġhorn": 2517,
      "Ġhomet": 2518,
      "Ġhospital": 2519,
      "ĠhEl": 2520,
      "Ġhttp": 2521,
      "Ġhyper": 2522,
      "Ġhomes": 2523,
      "Ġwash": 2524,
      "ance": 2525,
      "anci": 2526,
      "anne": 2527,
      "ankers": 2528,
      "othe": 2529,
      "otely": 2530,
      "otypical": 2531,
      "Ġinhi": 2532,
      "Ġinjuri": 2533,
      "Ġinsur": 2534,
      "ete": 2535,
      "eted": 2536,
      "ato": 2537,
      "ator": 2538,
      "ates": 2539,
      "atty": 2540,
      "ature": 2541,
      "atia": 2542,
      "atcher": 2543,
      "ators": 2544,
      "atuet": 2545,
      "atisfied": 2546,
      "ushed": 2547,
      "ayle": 2548,
      "Ġoften": 2549,
      "lebr": 2550,
      "lebot": 2551,
      "legant": 2552,
      "lendid": 2553,
      "owed": 2554,
      "Ġthin": 2555,
      "Ġthick": 2556,
      "Ġthreat": 2557,
      "Ġthirst": 2558,
      "Ġhey": 2559,
      "Ġhead": 2560,
      "Ġheck": 2561,
      "Ġheel": 2562,
      "Ġhellip": 2563,
      "Ġforgive": 2564,
      "Ġbead": 2565,
      "Ġbeach": 2566,
      "Ġbecome": 2567,
      "Ġyes": 2568,
      "Ġyay": 2569,
      "Ġyout": 2570,
      "Ġyard": 2571,
      "Ġyuck": 2572,
      "Ġend": 2573,
      "Ġeat": 2574,
      "Ġeid": 2575,
      "Ġeld": 2576,
      "Ġeager": 2577,
      "Ġearly": 2578,
      "Ġevent": 2579,
      "Ġease": 2580,
      "ĠeNo": 2581,
      "Ġeither": 2582,
      "Ġelegant": 2583,
      "Ġitu": 2584,
      "Ġmember": 2585,
      "Ġmeans": 2586,
      "Ġmemor": 2587,
      "Ġmeasures": 2588,
      "Ġrever": 2589,
      "Ġrequ": 2590,
      "Ġrecom": 2591,
      "Ġreview": 2592,
      "Ġreason": 2593,
      "Ġrebell": 2594,
      "Ġredd": 2595,
      "Ġrecent": 2596,
      "Ġregular": 2597,
      "aded": 2598,
      "ades": 2599,
      "adem": 2600,
      "Ġstop": 2601,
      "Ġstate": 2602,
      "Ġstink": 2603,
      "Ġstated": 2604,
      "Ġstress": 2605,
      "Ġstick": 2606,
      "Ġstore": 2607,
      "Ġstopp": 2608,
      "Ġstym": 2609,
      "Ġstaff": 2610,
      "Ġstep": 2611,
      "Ġstiff": 2612,
      "Ġstatuet": 2613,
      "aler": 2614,
      "ality": 2615,
      "alue": 2616,
      "algic": 2617,
      "ria": 2618,
      "rived": 2619,
      "ricane": 2620,
      "Ġons": 2621,
      "vert": 2622,
      "veral": 2623,
      "verbi": 2624,
      "terly": 2625,
      "outher": 2626,
      "ental": 2627,
      "chy": 2628,
      "chond": 2629,
      "chnical": 2630,
      "Ġange": 2631,
      "Ġancest": 2632,
      "Ġansw": 2633,
      "Ġlies": 2634,
      "Ġlily": 2635,
      "Ġlight": 2636,
      "Ġliber": 2637,
      "Ġlifel": 2638,
      "Ġlikes": 2639,
      "Ġjb": 2640,
      "Ġjac": 2641,
      "Ġjeans": 2642,
      "Ġjerk": 2643,
      "Ġjaded": 2644,
      "hensive": 2645,
      "cker": 2646,
      "cked": 2647,
      "imiz": 2648,
      "import": 2649,
      "imental": 2650,
      "oof": 2651,
      "ird": 2652,
      "irly": 2653,
      "irations": 2654,
      "iritual": 2655,
      "osest": 2656,
      "osity": 2657,
      "ĠuS": 2658,
      "Ġugly": 2659,
      "cealer": 2660,
      "ions": 2661,
      "ioned": 2662,
      "Ġamp": 2663,
      "Ġamuse": 2664,
      "Ġamount": 2665,
      "Ġisn": 2666,
      "usted": 2667,
      "Ġking": 2668,
      "Ġkiss": 2669,
      "Ġkick": 2670,
      "Ġkuss": 2671,
      "Ġkayle": 2672,
      "Ġasst": 2673,
      "Ġasper": 2674,
      "Ġaside": 2675,
      "Ġasleep": 2676,
      "Ġashamed": 2677,
      "Ġsoon": 2678,
      "Ġsoci": 2679,
      "Ġsolol": 2680,
      "Ġsophmore": 2681,
      "Ġsoothe": 2682,
      "Ġword": 2683,
      "Ġworn": 2684,
      "Ġworry": 2685,
      "Ġwelding": 2686,
      "Ġwelcome": 2687,
      "Ġweird": 2688,
      "rain": 2689,
      "ract": 2690,
      "racter": 2691,
      "ghth": 2692,
      "ppling": 2693,
      "Ġatmosp": 2694,
      "Ġattorn": 2695,
      "Ġnotice": 2696,
      "ction": 2697,
      "ctate": 2698,
      "ctimiz": 2699,
      "ularly": 2700,
      "Ġsun": 2701,
      "Ġsuper": 2702,
      "Ġsuff": 2703,
      "Ġsuperi": 2704,
      "Ġsudd": 2705,
      "Ġsumm": 2706,
      "Ġsuccess": 2707,
      "thrit": 2708,
      "Ġalba": 2709,
      "Ġalerted": 2710,
      "Ġwhite": 2711,
      "Ġwhining": 2712,
      "Ġgoings": 2713,
      "Ġneck": 2714,
      "Ġneur": 2715,
      "Ġnearly": 2716,
      "feated": 2717,
      "Ġbutt": 2718,
      "Ġbutcher": 2719,
      "antic": 2720,
      "Ġoutrage": 2721,
      "Ġabt": 2722,
      "Ġabove": 2723,
      "earts": 2724,
      "romised": 2725,
      "stem": 2726,
      "ĠTV": 2727,
      "ĠTo": 2728,
      "ĠTake": 2729,
      "ĠThere": 2730,
      "ĠThank": 2731,
      "ĠToron": 2732,
      "ĠTaxi": 2733,
      "ĠThx": 2734,
      "Ġsomebody": 2735,
      "Ġsomehow": 2736,
      "Ġsomewhere": 2737,
      "ically": 2738,
      "icant": 2739,
      "icine": 2740,
      "icans": 2741,
      "icularly": 2742,
      "Ġarea": 2743,
      "Ġareas": 2744,
      "Ġbare": 2745,
      "Ġbaff": 2746,
      "ouses": 2747,
      "Ġworks": 2748,
      "Ġworker": 2749,
      "Ġworked": 2750,
      "Ġworkout": 2751,
      "ounded": 2752,
      "Ġexag": 2753,
      "Ġexhausting": 2754,
      "fulness": 2755,
      "Ġshoot": 2756,
      "asted": 2757,
      "astic": 2758,
      "artly": 2759,
      "Ġupset": 2760,
      "Ġupvot": 2761,
      "urn": 2762,
      "urring": 2763,
      "Ġallowed": 2764,
      "ategies": 2765,
      "Ġkneel": 2766,
      "aging": 2767,
      "agull": 2768,
      "agrap": 2769,
      "Ġorde": 2770,
      "Ġorder": 2771,
      "Ġload": 2772,
      "Ġlocal": 2773,
      "Ġlogical": 2774,
      "Ġloyal": 2775,
      "Ġlocker": 2776,
      "inds": 2777,
      "Ġfries": 2778,
      "Ġfridge": 2779,
      "Ġgotten": 2780,
      "Ġhasn": 2781,
      "Ġdeal": 2782,
      "Ġdebt": 2783,
      "Ġdebit": 2784,
      "Ġdeath": 2785,
      "Ġdecember": 2786,
      "Ġdefin": 2787,
      "Ġdefeated": 2788,
      "itten": 2789,
      "ested": 2790,
      "Ġspree": 2791,
      "Ġspice": 2792,
      "Ġsprit": 2793,
      "Ġspending": 2794,
      "Ġspeak": 2795,
      "Ġspoil": 2796,
      "Ġsplendid": 2797,
      "Ġspiritual": 2798,
      "Ġspouses": 2799,
      "Ġspurring": 2800,
      "Ġmakeup": 2801,
      "Ġoverall": 2802,
      "Ġovercom": 2803,
      "Ġoversha": 2804,
      "Ġcomedy": 2805,
      "Ġcommitted": 2806,
      "Ġcombin": 2807,
      "Ġcommand": 2808,
      "Ġknowing": 2809,
      "ĠSeriously": 2810,
      "ĠSuper": 2811,
      "ĠSCU": 2812,
      "ĠSTILL": 2813,
      "ĠShould": 2814,
      "ĠSouther": 2815,
      "Ġusage": 2816,
      "Ġuseless": 2817,
      "Ġanybody": 2818,
      "Ġvain": 2819,
      "Ġvig": 2820,
      "Ġvision": 2821,
      "Ġvint": 2822,
      "Ġvital": 2823,
      "Ġvalent": 2824,
      "Ġvomiting": 2825,
      "Ġvalue": 2826,
      "Ġtheyre": 2827,
      "ilight": 2828,
      "ilting": 2829,
      "iliated": 2830,
      "iloxi": 2831,
      "iltrated": 2832,
      "Ġshes": 2833,
      "Ġcard": 2834,
      "Ġcaring": 2835,
      "Ġintens": 2836,
      "Ġthinking": 2837,
      "Ġbackse": 2838,
      "blem": 2839,
      "ighted": 2840,
      "sequently": 2841,
      "ungry": 2842,
      "unities": 2843,
      "Ġseem": 2844,
      "Ġsees": 2845,
      "Ġseemed": 2846,
      "Ġseems": 2847,
      "Ġclown": 2848,
      "Ġclench": 2849,
      "Ġclosed": 2850,
      "Ġclient": 2851,
      "Ġclouds": 2852,
      "Ġclosest": 2853,
      "ortant": 2854,
      "ortunities": 2855,
      "mpting": 2856,
      "mpath": 2857,
      "quel": 2858,
      "Ġrough": 2859,
      "Ġruss": 2860,
      "Ġrisk": 2861,
      "Ġratty": 2862,
      "Ġrushed": 2863,
      "Ġroof": 2864,
      "Ġaffor": 2865,
      "Ġaffir": 2866,
      "Ġagent": 2867,
      "Ġargu": 2868,
      "Ġartic": 2869,
      "Ġarthrit": 2870,
      "Ġbitch": 2871,
      "cious": 2872,
      "sole": 2873,
      "solutely": 2874,
      "ĠHis": 2875,
      "ĠHigh": 2876,
      "ĠHospital": 2877,
      "ĠHoust": 2878,
      "ĠHearts": 2879,
      "ĠHungry": 2880,
      "Ġnoise": 2881,
      "Ġunit": 2882,
      "Ġuncom": 2883,
      "Ġunple": 2884,
      "Ġuncer": 2885,
      "Ġunint": 2886,
      "Ġunex": 2887,
      "Ġunkind": 2888,
      "Ġunwel": 2889,
      "Ġunimport": 2890,
      "ileges": 2891,
      "ption": 2892,
      "ptrain": 2893,
      "Ġsaving": 2894,
      "Ġsacri": 2895,
      "Ġmanage": 2896,
      "Ġchick": 2897,
      "Ġchris": 2898,
      "Ġchoc": 2899,
      "Ġchips": 2900,
      "Ġconside": 2901,
      "Ġconcer": 2902,
      "Ġconnected": 2903,
      "Ġconcealer": 2904,
      "Ġconsole": 2905,
      "Ġleave": 2906,
      "Ġlevel": 2907,
      "Ġlemons": 2908,
      "Ġleanne": 2909,
      "ardation": 2910,
      "issor": 2911,
      "issants": 2912,
      "istic": 2913,
      "ander": 2914,
      "uckily": 2915,
      "ĠWe": 2916,
      "ĠWhat": 2917,
      "ĠWow": 2918,
      "ĠWhere": 2919,
      "ĠWild": 2920,
      "ĠWhile": 2921,
      "ĠWAS": 2922,
      "ĠWOW": 2923,
      "ĠWankers": 2924,
      "Ġfigu": 2925,
      "Ġfiction": 2926,
      "Ġboards": 2927,
      "Ġbodies": 2928,
      "Ġbolt": 2929,
      "Ġboxing": 2930,
      "Ġcares": 2931,
      "Ġcable": 2932,
      "Ġcaused": 2933,
      "Ġcape": 2934,
      "Ġcaught": 2935,
      "Ġplac": 2936,
      "Ġplans": 2937,
      "Ġplayers": 2938,
      "Ġgiant": 2939,
      "Ġhomecour": 2940,
      "Ġcomputer": 2941,
      "Ġcompete": 2942,
      "Ġcompromised": 2943,
      "ffee": 2944,
      "ffense": 2945,
      "Ġenraged": 2946,
      "Ġenitre": 2947,
      "Ġquick": 2948,
      "Ġquite": 2949,
      "Ġquote": 2950,
      "Ġquilting": 2951,
      "Ġaccom": 2952,
      "Ġacutely": 2953,
      "Ġacadem": 2954,
      "Ġwouldnt": 2955,
      "Ġmum": 2956,
      "Ġmums": 2957,
      "Ġmugg": 2958,
      "Ġbetterhalf": 2959,
      "Ġimg": 2960,
      "Ġimmense": 2961,
      "Ġtheme": 2962,
      "Ġthemsel": 2963,
      "Ġstudy": 2964,
      "Ġjoke": 2965,
      "Ġjoining": 2966,
      "aunting": 2967,
      "Ġwrote": 2968,
      "Ġwriter": 2969,
      "Ġwritten": 2970,
      "Ġcoke": 2971,
      "Ġcold": 2972,
      "Ġcoaster": 2973,
      "Ġcolours": 2974,
      "Ġcoffee": 2975,
      "Ġlasted": 2976,
      "Ġpram": 2977,
      "Ġprint": 2978,
      "Ġprecious": 2979,
      "Ġgrass": 2980,
      "Ġgrounded": 2981,
      "ometrist": 2982,
      "Ġhappens": 2983,
      "Ġhappening": 2984,
      "Ġhopeless": 2985,
      "Ġoffer": 2986,
      "ective": 2987,
      "ĠAS": 2988,
      "ĠAnd": 2989,
      "ĠARE": 2990,
      "ĠAfter": 2991,
      "ĠAustralia": 2992,
      "ĠAcu": 2993,
      "ĠBeen": 2994,
      "ĠBirthday": 2995,
      "ĠBron": 2996,
      "ĠBrass": 2997,
      "ĠBAY": 2998,
      "ĠBiloxi": 2999,
      "Ġrob": 3000,
      "Ġroom": 3001,
      "Ġrock": 3002,
      "Ġrobbing": 3003,
      "Ġroller": 3004,
      "Ġface": 3005,
      "Ġfavour": 3006,
      "Ġfairly": 3007,
      "Ġfinish": 3008,
      "Ġfinanci": 3009,
      "Ġblast": 3010,
      "Ġblind": 3011,
      "Ġbland": 3012,
      "Ġblack": 3013,
      "Ġdiuble": 3014,
      "Ġdivine": 3015,
      "Ġdictate": 3016,
      "Ġlookin": 3017,
      "Ġlooking": 3018,
      "Ġhelped": 3019,
      "Ġitself": 3020,
      "Ġremotely": 3021,
      "Ġstrategies": 3022,
      "ilding": 3023,
      "ĠDB": 3024,
      "ĠDone": 3025,
      "ĠDOIN": 3026,
      "ĠDef": 3027,
      "ĠDumb": 3028,
      "ĠDespite": 3029,
      "ĠDICE": 3030,
      "ĠDair": 3031,
      "ĠDecember": 3032,
      "Ġrich": 3033,
      "Ġride": 3034,
      "Ġripped": 3035,
      "Ġseveral": 3036,
      "Ġseagull": 3037,
      "Ġsequel": 3038,
      "Ġshall": 3039,
      "Ġshaft": 3040,
      "Ġsharing": 3041,
      "Ġshaken": 3042,
      "nderwat": 3043,
      "Ġdiscri": 3044,
      "Ġdiscuss": 3045,
      "Ġdishes": 3046,
      "Ġpale": 3047,
      "Ġpaul": 3048,
      "Ġpaper": 3049,
      "Ġpaced": 3050,
      "Ġperu": 3051,
      "Ġpervert": 3052,
      "Ġprolong": 3053,
      "Ġprovid": 3054,
      "Ġproverbi": 3055,
      "Ġproblem": 3056,
      "Ġguarant": 3057,
      "Ġthrow": 3058,
      "Ġthrowing": 3059,
      "Ġeveryday": 3060,
      "Ġeverything": 3061,
      "Ġstarting": 3062,
      "lessly": 3063,
      "olate": 3064,
      "olved": 3065,
      "olog": 3066,
      "Ġ30": 3067,
      "Ġ35": 3068,
      "Ġ300": 3069,
      "ĠNo": 3070,
      "ĠNew": 3071,
      "ĠNEV": 3072,
      "ĠNature": 3073,
      "Ġawhile": 3074,
      "Ġawkw": 3075,
      "Ġsmall": 3076,
      "Ġsmile": 3077,
      "Ġsmoke": 3078,
      "Ġsmug": 3079,
      "Ġsmartly": 3080,
      "Ġswings": 3081,
      "Ġswerve": 3082,
      "Ġsweat": 3083,
      "Ġswarmed": 3084,
      "Ġsometimes": 3085,
      "Ġmisspelt": 3086,
      "Ġowner": 3087,
      "Ġowners": 3088,
      "Ġlets": 3089,
      "Ġletting": 3090,
      "Ġlonger": 3091,
      "Ġpains": 3092,
      "Ġpainting": 3093,
      "Ġpartner": 3094,
      "Ġparticularly": 3095,
      "Ġsupposed": 3096,
      "Ġexcuse": 3097,
      "Ġexciting": 3098,
      "Ġneighborhood": 3099,
      "000": 3100,
      "igram": 3101,
      "nglish": 3102,
      "Ġrain": 3103,
      "Ġrace": 3104,
      "Ġraise": 3105,
      "Ġrandom": 3106,
      "Ġraising": 3107,
      "Ġtechnical": 3108,
      "Ġtempting": 3109,
      "Ġtrust": 3110,
      "Ġtruck": 3111,
      "Ġtrusting": 3112,
      "Ġtrue": 3113,
      "Ġtrash": 3114,
      "Ġturn": 3115,
      "Ġturning": 3116,
      "Ġturtle": 3117,
      "Ġactual": 3118,
      "Ġslow": 3119,
      "Ġsaddest": 3120,
      "Ġmoment": 3121,
      "Ġbringing": 3122,
      "Ġcoward": 3123,
      "Ġcouldn": 3124,
      "Ġgrab": 3125,
      "Ġgrabbing": 3126,
      "Ġgrappling": 3127,
      "Ġhandmad": 3128,
      "Ġhandyman": 3129,
      "ensive": 3130,
      "Ġhunt": 3131,
      "Ġhuge": 3132,
      "Ġhubb": 3133,
      "otional": 3134,
      "Ġrealm": 3135,
      "Ġdecent": 3136,
      "Ġdecades": 3137,
      "Ġremembering": 3138,
      "getic": 3139,
      "getting": 3140,
      "izzards": 3141,
      "ĠOG": 3142,
      "ĠOn": 3143,
      "ĠOPEN": 3144,
      "ĠOffense": 3145,
      "Ġtrifect": 3146,
      "Ġadvent": 3147,
      "Ġadmin": 3148,
      "Ġadmitted": 3149,
      "Ġadjusting": 3150,
      "Ġadvan": 3151,
      "Ġcalls": 3152,
      "Ġpeter": 3153,
      "Ġpetty": 3154,
      "Ġpettiness": 3155,
      "Ġgrew": 3156,
      "Ġgreed": 3157,
      "Ġgreyhound": 3158,
      "Ġgreeted": 3159,
      "Ġhouses": 3160,
      "Ġthoughts": 3161,
      "Ġreading": 3162,
      "Ġasking": 3163,
      "Ġwears": 3164,
      "Ġshows": 3165,
      "Ġshower": 3166,
      "Ġshowed": 3167,
      "Ġrunning": 3168,
      "Ġchildren": 3169,
      "Ġcontract": 3170,
      "Ġcompany": 3171,
      "Ġcompanies": 3172,
      "Ġsituations": 3173,
      "HAHHA": 3174,
      "emotional": 3175,
      "ograp": 3176,
      "ĠFk": 3177,
      "ĠFelt": 3178,
      "ĠFren": 3179,
      "ĠFPT": 3180,
      "ĠFUCK": 3181,
      "ĠLast": 3182,
      "ĠLmfao": 3183,
      "ĠLuckily": 3184,
      "Ġuseful": 3185,
      "Ġtalkative": 3186,
      "Ġfucking": 3187,
      "Ġfucked": 3188,
      "Ġmostly": 3189,
      "Ġbadly": 3190,
      "Ġbroken": 3191,
      "Ġcheat": 3192,
      "Ġcheck": 3193,
      "Ġcheated": 3194,
      "Ġdads": 3195,
      "Ġdaddy": 3196,
      "Ġposts": 3197,
      "Ġposting": 3198,
      "Ġhurt": 3199,
      "Ġhurts": 3200,
      "Ġhurricane": 3201,
      "Ġbegin": 3202,
      "Ġbegun": 3203,
      "Ġstormed": 3204,
      "Ġkeeps": 3205,
      "Ġsubs": 3206,
      "Ġsubtlet": 3207,
      "Ġsubsequently": 3208,
      "Ġshouldn": 3209,
      "Ġbitterly": 3210,
      "Ġfirey": 3211,
      "Ġfirepl": 3212,
      "Ġfirewor": 3213,
      "Ġquestions": 3214,
      "Ġquestioning": 3215,
      "Ġquestioned": 3216,
      "Ġroadside": 3217,
      "Ġpersonal": 3218,
      "**,": 3219,
      "Hey": 3220,
      "ToN": 3221,
      "cessful": 3222,
      "geration": 3223,
      "paul": 3224,
      "uced": 3225,
      "ucinations": 3226,
      "uccessful": 3227,
      "Ġ59": 3228,
      "Ġkept": 3229,
      "Ġkeys": 3230,
      "Ġenthus": 3231,
      "Ġtraining": 3232,
      "Ġtracks": 3233,
      "Ġwont": 3234,
      "Ġfalling": 3235,
      "Ġfallen": 3236,
      "Ġfilm": 3237,
      "Ġfiles": 3238,
      "Ġscream": 3239,
      "Ġscrewing": 3240,
      "Ġscenari": 3241,
      "Ġscissor": 3242,
      "Ġsky": 3243,
      "Ġskill": 3244,
      "Ġskirt": 3245,
      "Ġskins": 3246,
      "Ġsnakes": 3247,
      "Ġbrain": 3248,
      "Ġbrand": 3249,
      "Ġimplants": 3250,
      "Ġimportant": 3251,
      "Ġcryin": 3252,
      "Ġcreativity": 3253,
      "Ġlaw": 3254,
      "Ġlawn": 3255,
      "Ġlacks": 3256,
      "Ġlaunch": 3257,
      "Ġlisten": 3258,
      "Ġlistless": 3259,
      "Ġphone": 3260,
      "Ġphys": 3261,
      "Ġphrase": 3262,
      "Ġphlebot": 3263,
      "Ġharassed": 3264,
      "Ġharness": 3265,
      "Ġinternal": 3266,
      "Ġinteract": 3267,
      "Ġstretch": 3268,
      "Ġsurprise": 3269,
      "Ġmovement": 3270,
      "Ġexpect": 3271,
      "Ġexpected": 3272,
      "Ġexplain": 3273,
      "Ġexpensive": 3274,
      "Ġdeadpan": 3275,
      "Ġvibr": 3276,
      "Ġvictimiz": 3277,
      "mbarrass": 3278,
      "Ġrude": 3279,
      "Ġrupaul": 3280,
      "Ġunsure": 3281,
      "Ġunsuit": 3282,
      "Ġunsafe": 3283,
      "Ġunsuccessful": 3284,
      "Ġcomplete": 3285,
      "Ġacceptable": 3286,
      "Ġwronged": 3287,
      "Ġcollection": 3288,
      "Ġcollaps": 3289,
      "Ġgroups": 3290,
      "Ġgrouchy": 3291,
      "Ġsexual": 3292,
      "Ġthroughout": 3293,
      "Ġsupportiven": 3294,
      "Ġbrotherhood": 3295,
      "Ġunderstanding": 3296,
      "2000": 3297,
      "RELIG": 3298,
      "cery": 3299,
      "cription": 3300,
      "guage": 3301,
      "hicle": 3302,
      "ivated": 3303,
      "mances": 3304,
      "Ġ1000": 3305,
      "ĠCan": 3306,
      "ĠChin": 3307,
      "ĠCatcher": 3308,
      "ĠEU": 3309,
      "ĠEnglish": 3310,
      "ĠEmbarrass": 3311,
      "ĠMight": 3312,
      "ĠMaybe": 3313,
      "ĠMarvel": 3314,
      "ĠPay": 3315,
      "ĠPhotos": 3316,
      "ĠPlAy": 3317,
      "ĠRIG": 3318,
      "ĠRock": 3319,
      "ĠReddit": 3320,
      "ĠUP": 3321,
      "ĠUgh": 3322,
      "ĠUnderwat": 3323,
      "Ġethics": 3324,
      "ĠðŁĺį": 3325,
      "ĠðŁĺĿ": 3326,
      "ĠðŁĺĺðŁĺ": 3327,
      "Ġwarned": 3328,
      "Ġwalking": 3329,
      "Ġforeign": 3330,
      "Ġsynop": 3331,
      "Ġsystem": 3332,
      "Ġsympath": 3333,
      "Ġscare": 3334,
      "Ġscared": 3335,
      "Ġscares": 3336,
      "Ġsensing": 3337,
      "Ġmedical": 3338,
      "Ġmedia": 3339,
      "Ġmedicine": 3340,
      "rence": 3341,
      "Ġbuilding": 3342,
      "Ġbald": 3343,
      "Ġburst": 3344,
      "Ġburger": 3345,
      "Ġburdened": 3346,
      "Ġirma": 3347,
      "Ġopenly": 3348,
      "Ġopenings": 3349,
      "Ġclear": 3350,
      "Ġclean": 3351,
      "Ġclearly": 3352,
      "Ġcraving": 3353,
      "Ġcookies": 3354,
      "Ġcorner": 3355,
      "Ġdrive": 3356,
      "Ġdriving": 3357,
      "Ġdrivng": 3358,
      "Ġdistressed": 3359,
      "Ġdumping": 3360,
      "Ġdumped": 3361,
      "Ġdumpster": 3362,
      "Ġlatest": 3363,
      "Ġlatte": 3364,
      "Ġlatency": 3365,
      "Ġlearning": 3366,
      "Ġpoem": 3367,
      "Ġpayche": 3368,
      "Ġpromise": 3369,
      "Ġpresent": 3370,
      "Ġpreschool": 3371,
      "Ġprescription": 3372,
      "Ġpressure": 3373,
      "Ġpressured": 3374,
      "Ġparked": 3375,
      "Ġpictures": 3376,
      "Ġhonoured": 3377,
      "Ġheartless": 3378,
      "Ġheartedly": 3379,
      "Ġformer": 3380,
      "Ġembarassed": 3381,
      "Ġeyesight": 3382,
      "Ġrejected": 3383,
      "Ġrejection": 3384,
      "Ġrejuven": 3385,
      "Ġreloc": 3386,
      "Ġreply": 3387,
      "Ġrepressed": 3388,
      "Ġrepubl": 3389,
      "Ġannoying": 3390,
      "Ġassho": 3391,
      "Ġworthless": 3392,
      "Ġexams": 3393,
      "Ġexamen": 3394,
      "Ġexample": 3395,
      "Ġshortly": 3396,
      "Ġoverwhelming": 3397,
      "Ġvisited": 3398,
      "Ġbitcoins": 3399,
      "Ġconfused": 3400,
      "ievement": 3401,
      "Ġquietly": 3402,
      "Ġaccidentally": 3403,
      "Ġimages": 3404,
      "Ġproto": 3405,
      "Ġprotect": 3406,
      "Ġprotected": 3407,
      "Ġstrongly": 3408,
      "Ġapprehensive": 3409,
      "Ġperfectly": 3410,
      "Ġsmells": 3411,
      "Ġsmelling": 3412,
      "Ġsleeping": 3413,
      "Ġdecisions": 3414,
      "Ġentirely": 3415,
      "Ġapartments": 3416,
      "Ġmarried": 3417,
      "Ġeffortlessly": 3418,
      "Ġjournals": 3419,
      "Ġassociated": 3420,
      "2019": 3421,
      "Fucking": 3422,
      "OING": 3423,
      "Shit": 3424,
      "Should": 3425,
      "TTT": 3426,
      "Who": 3427,
      "Why": 3428,
      "calator": 3429,
      "efs": 3430,
      "ifies": 3431,
      "ificant": 3432,
      "minated": 3433,
      "plished": 3434,
      "Ġ90": 3435,
      "Ġvehicle": 3436,
      "ĺðŁĺĺ": 3437,
      "Ġtrend": 3438,
      "Ġtrees": 3439,
      "Ġtroll": 3440,
      "Ġtrolls": 3441,
      "Ġtelling": 3442,
      "Ġtiredness": 3443,
      "Ġaching": 3444,
      "Ġachievement": 3445,
      "Ġwater": 3446,
      "Ġwatched": 3447,
      "Ġwonderful": 3448,
      "Ġflat": 3449,
      "Ġflaunting": 3450,
      "Ġfrequently": 3451,
      "Ġfreinds": 3452,
      "Ġfearful": 3453,
      "Ġsentimental": 3454,
      "Ġsickest": 3455,
      "Ġsignificant": 3456,
      "Ġmindfulness": 3457,
      "Ġmotherfuck": 3458,
      "Ġminute": 3459,
      "Ġminutes": 3460,
      "Ġboring": 3461,
      "Ġborrow": 3462,
      "Ġbarbie": 3463,
      "Ġbridges": 3464,
      "Ġbriefs": 3465,
      "Ġballistic": 3466,
      "Ġbothering": 3467,
      "Ġbumped": 3468,
      "Ġoption": 3469,
      "Ġoptometrist": 3470,
      "Ġceiling": 3471,
      "Ġcelebr": 3472,
      "Ġcreate": 3473,
      "Ġcreations": 3474,
      "Ġchai": 3475,
      "Ġcharacter": 3476,
      "Ġcopy": 3477,
      "Ġcroatia": 3478,
      "Ġcroissants": 3479,
      "Ġdance": 3480,
      "Ġdannik": 3481,
      "Ġdetail": 3482,
      "Ġdetox": 3483,
      "Ġdrove": 3484,
      "Ġdropped": 3485,
      "Ġdarkness": 3486,
      "Ġlinked": 3487,
      "Ġletters": 3488,
      "Ġlandlady": 3489,
      "asantly": 3490,
      "Ġpotty": 3491,
      "Ġpotato": 3492,
      "Ġpicked": 3493,
      "Ġpumped": 3494,
      "Ġpumpkin": 3495,
      "ĠISOING": 3496,
      "Ġnerves": 3497,
      "Ġnervous": 3498,
      "Ġnormal": 3499,
      "Ġnormies": 3500,
      "Ġhallway": 3501,
      "Ġhallucinations": 3502,
      "Ġholy": 3503,
      "Ġholding": 3504,
      "Ġinclin": 3505,
      "Ġincreas": 3506,
      "Ġinflu": 3507,
      "Ġinfiltrated": 3508,
      "Ġinvested": 3509,
      "Ġinvolved": 3510,
      "Ġinspired": 3511,
      "Ġinspirations": 3512,
      "Ġhealing": 3513,
      "Ġforgettable": 3514,
      "Ġbecoming": 3515,
      "Ġbecomes": 3516,
      "Ġeasier": 3517,
      "Ġeasiest": 3518,
      "Ġearth": 3519,
      "Ġearlier": 3520,
      "Ġreturn": 3521,
      "Ġretardation": 3522,
      "Ġrelease": 3523,
      "Ġreleased": 3524,
      "Ġreferend": 3525,
      "Ġreference": 3526,
      "Ġresult": 3527,
      "Ġresulted": 3528,
      "Ġstands": 3529,
      "Ġstanding": 3530,
      "Ġanimal": 3531,
      "Ġanimosity": 3532,
      "Ġdoorbell": 3533,
      "ragement": 3534,
      "Ġnecessary": 3535,
      "Ġnecessarily": 3536,
      "Ġmodes": 3537,
      "ĠTHERE": 3538,
      "Ġbandaging": 3539,
      "Ġextra": 3540,
      "Ġextremely": 3541,
      "Ġshopping": 3542,
      "Ġshopprf": 3543,
      "Ġdepending": 3544,
      "Ġdeprived": 3545,
      "Ġdevastated": 3546,
      "Ġdevastating": 3547,
      "ĠStill": 3548,
      "ĠStop": 3549,
      "Ġclimbing": 3550,
      "Ġclimbed": 3551,
      "Ġthankfully": 3552,
      "Ġfigure": 3553,
      "Ġfigured": 3554,
      "Ġboarded": 3555,
      "Ġengine": 3556,
      "Ġenginering": 3557,
      "Ġenergy": 3558,
      "Ġenergetic": 3559,
      "Ġencounter": 3560,
      "Ġencouragement": 3561,
      "Ġproudest": 3562,
      "ĠAmazing": 3563,
      "ĠBlasted": 3564,
      "ĠBlizzards": 3565,
      "Ġfaithful": 3566,
      "Ġbloging": 3567,
      "Ġremaining": 3568,
      "Ġremained": 3569,
      "Ġapplies": 3570,
      "Ġapplied": 3571,
      "Ġdisgusting": 3572,
      "Ġdisgusted": 3573,
      "Ġperformed": 3574,
      "Ġperformances": 3575,
      "Ġprofit": 3576,
      "Ġprofile": 3577,
      "ĠNothing": 3578,
      "Ġswimsuit": 3579,
      "Ġtexts": 3580,
      "Ġtexted": 3581,
      "Ġhumour": 3582,
      "Ġhumiliated": 3583,
      "Ġdecided": 3584,
      "Ġdecides": 3585,
      "Ġcontacting": 3586,
      "HAHAHAHHA": 3587,
      "Ġanxiously": 3588,
      "Ġkeycha": 3589,
      "Ġfilthy": 3590,
      "Ġrelaly": 3591,
      "Ġrelaxed": 3592,
      "Ġassuredly": 3593,
      "Ġterrified": 3594,
      "Ġterrify": 3595,
      "Ġsisters": 3596,
      "Ġlaughed": 3597,
      "Ġlaughable": 3598,
      "Ġprivate": 3599,
      "Ġprivileges": 3600,
      "Ġgeneral": 3601,
      "Ġgenerous": 3602,
      "Ġgentleman": 3603,
      "Ġemployee": 3604,
      "Ġemployer": 3605,
      "Ġstubbornly": 3606,
      "Ġdisappointed": 3607,
      "Absolutely": 3608,
      "Apolog": 3609,
      "Cheers": 3610,
      "Cleav": 3611,
      "Colts": 3612,
      "Detective": 3613,
      "Dirty": 3614,
      "Delux": 3615,
      "Demograp": 3616,
      "Especially": 3617,
      "Finally": 3618,
      "Famous": 3619,
      "Hello": 3620,
      "ION": 3621,
      "Kinda": 3622,
      "LOL": 3623,
      "Lord": 3624,
      "Looks": 3625,
      "LESS": 3626,
      "OfFs": 3627,
      "OmG": 3628,
      "Pretty": 3629,
      "Recently": 3630,
      "Skynet": 3631,
      "Slowing": 3632,
      "Stupid": 3633,
      "Someone": 3634,
      "Sometimes": 3635,
      "Three": 3636,
      "Twilight": 3637,
      "Troll": 3638,
      "Tournam": 3639,
      "UgH": 3640,
      "Updoot": 3641,
      "WHAT": 3642,
      "apidated": 3643,
      "curb": 3644,
      "finding": 3645,
      "fortable": 3646,
      "iasm": 3647,
      "lread": 3648,
      "missing": 3649,
      "pensate": 3650,
      "pectedly": 3651,
      "sorry": 3652,
      "sleeptrain": 3653,
      "tainty": 3654,
      "tarian": 3655,
      "uinely": 3656,
      "waiting": 3657,
      "youre": 3658,
      "ynthe": 3659,
      "Ġingest": 3660,
      "Ġerrors": 3661,
      "Ġedge": 3662,
      "Ġescalator": 3663,
      "Ġutterly": 3664,
      "Ġromantic": 3665,
      "Ġesteem": 3666,
      "Ġespecially": 3667,
      "Ġ2015": 3668,
      "ĠGenuinely": 3669,
      "ĠJedi": 3670,
      "ĠQueen": 3671,
      "ĠZealand": 3672,
      "Ġtouch": 3673,
      "Ġtarget": 3674,
      "Ġtears": 3675,
      "Ġteenager": 3676,
      "Ġtreating": 3677,
      "Ġtalented": 3678,
      "Ġaverage": 3679,
      "Ġairport": 3680,
      "Ġactivity": 3681,
      "helle": 3682,
      "Ġwrecked": 3683,
      "Ġwitch": 3684,
      "Ġwryly": 3685,
      "Ġwindow": 3686,
      "Ġweeds": 3687,
      "Ġwoods": 3688,
      "Ġwistful": 3689,
      "Ġwalmart": 3690,
      "Ġflew": 3691,
      "Ġfuture": 3692,
      "Ġfantastic": 3693,
      "Ġfresh": 3694,
      "Ġfreezes": 3695,
      "Ġfront": 3696,
      "Ġfeature": 3697,
      "Ġfollow": 3698,
      "Ġfrustrated": 3699,
      "Ġsoulread": 3700,
      "Ġserved": 3701,
      "Ġseduced": 3702,
      "Ġslept": 3703,
      "Ġsearch": 3704,
      "Ġsongs": 3705,
      "Ġsixties": 3706,
      "Ġmorally": 3707,
      "Ġmotivated": 3708,
      "Ġmusic": 3709,
      "Ġmentioned": 3710,
      "Ġmilligram": 3711,
      "Ġmichelle": 3712,
      "Ġmessage": 3713,
      "Ġmilitary": 3714,
      "Ġmortgage": 3715,
      "Ġbouncy": 3716,
      "Ġbasically": 3717,
      "Ġbanal": 3718,
      "Ġboth": 3719,
      "Ġbusiness": 3720,
      "Ġboost": 3721,
      "Ġbills": 3722,
      "Ġbourbon": 3723,
      "Ġbosses": 3724,
      "Ġbugs": 3725,
      "Ġignore": 3726,
      "Ġtogether": 3727,
      "Ġtomorrow": 3728,
      "Ġtolerate": 3729,
      "Ġtortured": 3730,
      "Ġtherapy": 3731,
      "Ġopportunities": 3732,
      "Ġoperators": 3733,
      "Ġobtain": 3734,
      "Ġovaries": 3735,
      "Ġcries": 3736,
      "Ġcirca": 3737,
      "Ġcamping": 3738,
      "Ġcousin": 3739,
      "Ġcartoons": 3740,
      "Ġchanged": 3741,
      "Ġcellular": 3742,
      "Ġciao": 3743,
      "Ġcramps": 3744,
      "Ġcoronation": 3745,
      "Ġcradle": 3746,
      "Ġcumming": 3747,
      "Ġdeserve": 3748,
      "Ġdenmark": 3749,
      "Ġdamned": 3750,
      "Ġdelighted": 3751,
      "Ġdilapidated": 3752,
      "Ġdissatisfied": 3753,
      "Ġdrama": 3754,
      "Ġdwelled": 3755,
      "Ġlarge": 3756,
      "Ġlenghth": 3757,
      "Ġlanguage": 3758,
      "Ġladies": 3759,
      "Ġlosing": 3760,
      "Ġlucrative": 3761,
      "Ġparagrap": 3762,
      "Ġpencil": 3763,
      "Ġpathetic": 3764,
      "Ġpleasantly": 3765,
      "Ġposse": 3766,
      "Ġpopular": 3767,
      "Ġpurse": 3768,
      "Ġpissed": 3769,
      "Ġpublishing": 3770,
      "ĠpEyToN": 3771,
      "Ġgonna": 3772,
      "Ġgarbage": 3773,
      "Ġgrieving": 3774,
      "Ġgiddy": 3775,
      "Ġgames": 3776,
      "Ġgrocery": 3777,
      "ĠgOoD": 3778,
      "ĠIntergul": 3779,
      "Ġnurture": 3780,
      "Ġnostalgic": 3781,
      "Ġnationality": 3782,
      "Ġhampered": 3783,
      "Ġhanging": 3784,
      "Ġhusband": 3785,
      "Ġhiring": 3786,
      "Ġhorny": 3787,
      "Ġhometown": 3788,
      "ĠhElP": 3789,
      "Ġhyperchond": 3790,
      "Ġhomesick": 3791,
      "Ġinhibited": 3792,
      "Ġinjuries": 3793,
      "Ġinsurance": 3794,
      "Ġthreatened": 3795,
      "Ġthirsty": 3796,
      "Ġheels": 3797,
      "Ġyoutube": 3798,
      "Ġelderly": 3799,
      "Ġeventually": 3800,
      "ĠeNoUgH": 3801,
      "Ġmemory": 3802,
      "Ġreversing": 3803,
      "Ġrequired": 3804,
      "Ġrecommended": 3805,
      "Ġreviewed": 3806,
      "Ġrebellious": 3807,
      "Ġreddit": 3808,
      "Ġstopped": 3809,
      "Ġstymied": 3810,
      "Ġstatuette": 3811,
      "Ġangered": 3812,
      "Ġancestral": 3813,
      "Ġanswered": 3814,
      "Ġlights": 3815,
      "Ġlibertarian": 3816,
      "Ġlifeline": 3817,
      "Ġjacynthe": 3818,
      "Ġamusement": 3819,
      "Ġkicked": 3820,
      "Ġaspergers": 3821,
      "Ġsociety": 3822,
      "Ġsololander": 3823,
      "Ġatmosphere": 3824,
      "Ġattorneys": 3825,
      "Ġsuffering": 3826,
      "Ġsuperior": 3827,
      "Ġsuddenly": 3828,
      "Ġsummer": 3829,
      "Ġsuccessfully": 3830,
      "Ġneurotypical": 3831,
      "Ġbutchers": 3832,
      "ĠToronto": 3833,
      "Ġsomebodys": 3834,
      "Ġbaffles": 3835,
      "Ġexaggeration": 3836,
      "Ġshooter": 3837,
      "Ġupvotes": 3838,
      "Ġordered": 3839,
      "Ġdefinitely": 3840,
      "Ġspritz": 3841,
      "Ġspoiled": 3842,
      "Ġovercompensate": 3843,
      "Ġoversharing": 3844,
      "Ġcombination": 3845,
      "ĠSCUM": 3846,
      "ĠSouthern": 3847,
      "Ġvigorous": 3848,
      "Ġvintage": 3849,
      "Ġvalentine": 3850,
      "Ġintensifies": 3851,
      "Ġbackseat": 3852,
      "Ġrussia": 3853,
      "Ġafford": 3854,
      "Ġaffirmed": 3855,
      "Ġarguing": 3856,
      "Ġarticle": 3857,
      "Ġarthritis": 3858,
      "ĠHouston": 3859,
      "Ġuncomfortable": 3860,
      "Ġunpleasant": 3861,
      "Ġuncertainty": 3862,
      "Ġunintended": 3863,
      "Ġunexpectedly": 3864,
      "Ġunwelcome": 3865,
      "Ġunimportant": 3866,
      "Ġsacrifice": 3867,
      "Ġchicken": 3868,
      "Ġchocolate": 3869,
      "Ġconsidered": 3870,
      "Ġconcerned": 3871,
      "Ġfigures": 3872,
      "Ġplaced": 3873,
      "Ġhomecourt": 3874,
      "Ġaccomplished": 3875,
      "Ġacademic": 3876,
      "Ġmuggings": 3877,
      "Ġthemselves": 3878,
      "ĠAcura": 3879,
      "ĠBroncos": 3880,
      "ĠBAYLESS": 3881,
      "Ġfavourite": 3882,
      "Ġfinancial": 3883,
      "ĠDefense": 3884,
      "ĠDumbass": 3885,
      "ĠDairy": 3886,
      "Ġseagulls": 3887,
      "Ġdiscriminated": 3888,
      "Ġdiscussions": 3889,
      "Ġprolonged": 3890,
      "Ġproviding": 3891,
      "Ġproverbial": 3892,
      "Ġguarantee": 3893,
      "ĠNEVER": 3894,
      "Ġawkward": 3895,
      "Ġsweatshirt": 3896,
      "Ġrandoms": 3897,
      "Ġhandmade": 3898,
      "Ġhubby": 3899,
      "Ġtrifecta": 3900,
      "Ġadventures": 3901,
      "Ġadvances": 3902,
      "Ġgreyhounds": 3903,
      "ĠFrench": 3904,
      "ĠFPTP": 3905,
      "Ġsubtlety": 3906,
      "Ġfireplace": 3907,
      "Ġfireworks": 3908,
      "Ġenthusiasm": 3909,
      "Ġscenario": 3910,
      "Ġphysical": 3911,
      "Ġphlebotomy": 3912,
      "Ġinteraction": 3913,
      "Ġvibrations": 3914,
      "Ġvictimized": 3915,
      "Ġunsuitable": 3916,
      "Ġcollapsing": 3917,
      "Ġsupportiveness": 3918,
      "RELIGION": 3919,
      "ĠChina": 3920,
      "ĠEmbarrassing": 3921,
      "ĠPhotoshop": 3922,
      "ĠPlAyOfFs": 3923,
      "ĠRIGHT": 3924,
      "ĠRocket": 3925,
      "ĠUnderwater": 3926,
      "ĠðŁĺĺðŁĺĺðŁĺĺ": 3927,
      "Ġforeigners": 3928,
      "Ġsynopsis": 3929,
      "Ġsympathy": 3930,
      "Ġpaycheck": 3931,
      "Ġrejuvenated": 3932,
      "Ġrelocate": 3933,
      "Ġrepublicans": 3934,
      "Ġasshole": 3935,
      "Ġmotherfucker": 3936,
      "Ġcelebrates": 3937,
      "Ġdannika": 3938,
      "Ġinclined": 3939,
      "Ġincreases": 3940,
      "Ġinfluence": 3941,
      "Ġreferendum": 3942,
      "Ġkeychain": 3943,
      "Ġterrifying": 3944,
      "Apologies": 3945,
      "Cleavage": 3946,
      "Deluxe": 3947,
      "Demographics": 3948,
      "Stupidly": 3949,
      "Tournament": 3950,
      "Updooted": 3951,
      "Ġmilligrams": 3952,
      "Ġparagraph": 3953,
      "Ġhyperchondria": 3954
    },
    "merges": [
      [
        "Ġ",
        "t"
      ],
      [
        "Ġ",
        "a"
      ],
      [
        "i",
        "n"
      ],
      [
        "h",
        "e"
      ],
      [
        "Ġ",
        "w"
      ],
      [
        "Ġ",
        "f"
      ],
      [
        "Ġ",
        "s"
      ],
      [
        "Ġ",
        "m"
      ],
      [
        "r",
        "e"
      ],
      [
        "Ġ",
        "b"
      ],
      [
        "in",
        "g"
      ],
      [
        "Ġ",
        "i"
      ],
      [
        "h",
        "a"
      ],
      [
        "o",
        "u"
      ],
      [
        "n",
        "d"
      ],
      [
        "e",
        "e"
      ],
      [
        "Ġt",
        "o"
      ],
      [
        "e",
        "r"
      ],
      [
        "Ġt",
        "he"
      ],
      [
        "Ġ",
        "o"
      ],
      [
        "Ġ",
        "c"
      ],
      [
        "o",
        "r"
      ],
      [
        "e",
        "d"
      ],
      [
        "Ġ",
        "d"
      ],
      [
        "Ġ",
        "l"
      ],
      [
        "a",
        "s"
      ],
      [
        "Ġ",
        "p"
      ],
      [
        "Ġ",
        "g"
      ],
      [
        "o",
        "n"
      ],
      [
        "Ġa",
        "nd"
      ],
      [
        "Ġ",
        "I"
      ],
      [
        "l",
        "l"
      ],
      [
        "Ġf",
        "ee"
      ],
      [
        "Ġfee",
        "l"
      ],
      [
        "i",
        "t"
      ],
      [
        "o",
        "m"
      ],
      [
        "e",
        "s"
      ],
      [
        "a",
        "r"
      ],
      [
        "Ġ",
        "n"
      ],
      [
        "Ġm",
        "y"
      ],
      [
        "i",
        "s"
      ],
      [
        "Ġ",
        "ha"
      ],
      [
        "e",
        "n"
      ],
      [
        "ha",
        "t"
      ],
      [
        "Ġ",
        "h"
      ],
      [
        "Ġw",
        "as"
      ],
      [
        "a",
        "n"
      ],
      [
        "o",
        "t"
      ],
      [
        "Ġ",
        "in"
      ],
      [
        "e",
        "t"
      ],
      [
        "a",
        "t"
      ],
      [
        "u",
        "s"
      ],
      [
        "v",
        "e"
      ],
      [
        "a",
        "y"
      ],
      [
        "Ġt",
        "hat"
      ],
      [
        "Ġo",
        "f"
      ],
      [
        "l",
        "e"
      ],
      [
        "o",
        "w"
      ],
      [
        "Ġt",
        "h"
      ],
      [
        "Ġ",
        "he"
      ],
      [
        "Ġf",
        "or"
      ],
      [
        "Ġb",
        "e"
      ],
      [
        "Ġ",
        "y"
      ],
      [
        "l",
        "y"
      ],
      [
        "Ġ",
        "e"
      ],
      [
        "Ġi",
        "t"
      ],
      [
        "k",
        "e"
      ],
      [
        "g",
        "h"
      ],
      [
        "Ġm",
        "e"
      ],
      [
        "Ġ",
        "re"
      ],
      [
        "a",
        "d"
      ],
      [
        "Ġs",
        "t"
      ],
      [
        "a",
        "l"
      ],
      [
        "r",
        "i"
      ],
      [
        "Ġo",
        "n"
      ],
      [
        "v",
        "er"
      ],
      [
        "t",
        "er"
      ],
      [
        "ou",
        "t"
      ],
      [
        "i",
        "d"
      ],
      [
        "en",
        "t"
      ],
      [
        "c",
        "h"
      ],
      [
        "u",
        "t"
      ],
      [
        "Ġa",
        "n"
      ],
      [
        "a",
        "ll"
      ],
      [
        "Ġl",
        "i"
      ],
      [
        "Ġ",
        "j"
      ],
      [
        "he",
        "n"
      ],
      [
        "om",
        "e"
      ],
      [
        "Ġfeel",
        "ing"
      ],
      [
        "c",
        "k"
      ],
      [
        "i",
        "m"
      ],
      [
        "o",
        "o"
      ],
      [
        "Ġy",
        "ou"
      ],
      [
        "i",
        "r"
      ],
      [
        "o",
        "s"
      ],
      [
        "l",
        "d"
      ],
      [
        "Ġ",
        "u"
      ],
      [
        "a",
        "m"
      ],
      [
        "c",
        "e"
      ],
      [
        "i",
        "on"
      ],
      [
        "Ġa",
        "m"
      ],
      [
        "Ġi",
        "s"
      ],
      [
        "Ġd",
        "o"
      ],
      [
        "it",
        "h"
      ],
      [
        "us",
        "t"
      ],
      [
        "Ġ",
        "k"
      ],
      [
        "Ġa",
        "s"
      ],
      [
        "Ġw",
        "ith"
      ],
      [
        "Ġs",
        "o"
      ],
      [
        "Ġw",
        "or"
      ],
      [
        "Ġw",
        "e"
      ],
      [
        "Ġha",
        "ve"
      ],
      [
        "r",
        "a"
      ],
      [
        "on",
        "e"
      ],
      [
        "gh",
        "t"
      ],
      [
        "all",
        "y"
      ],
      [
        "p",
        "p"
      ],
      [
        "Ġa",
        "t"
      ],
      [
        "Ġn",
        "ot"
      ],
      [
        "he",
        "r"
      ],
      [
        "c",
        "t"
      ],
      [
        "u",
        "l"
      ],
      [
        "Ġs",
        "u"
      ],
      [
        "Ġg",
        "et"
      ],
      [
        "Ġth",
        "is"
      ],
      [
        "e",
        "l"
      ],
      [
        "t",
        "h"
      ],
      [
        "Ġa",
        "l"
      ],
      [
        "Ġw",
        "h"
      ],
      [
        "Ġg",
        "o"
      ],
      [
        "Ġn",
        "e"
      ],
      [
        "f",
        "e"
      ],
      [
        "i",
        "ll"
      ],
      [
        "o",
        "p"
      ],
      [
        "Ġw",
        "hen"
      ],
      [
        "Ġb",
        "ut"
      ],
      [
        "an",
        "t"
      ],
      [
        "Ġj",
        "ust"
      ],
      [
        "a",
        "ke"
      ],
      [
        "Ġ",
        "out"
      ],
      [
        "Ġa",
        "b"
      ],
      [
        "e",
        "ar"
      ],
      [
        "r",
        "o"
      ],
      [
        "Ġm",
        "o"
      ],
      [
        "Ġha",
        "d"
      ],
      [
        "r",
        "om"
      ],
      [
        "ou",
        "r"
      ],
      [
        "Ġli",
        "ke"
      ],
      [
        "e",
        "nd"
      ],
      [
        "s",
        "t"
      ],
      [
        "Ġ",
        "T"
      ],
      [
        "M",
        "y"
      ],
      [
        "d",
        "ay"
      ],
      [
        "Ġs",
        "ome"
      ],
      [
        "re",
        "d"
      ],
      [
        "Ġc",
        "an"
      ],
      [
        "'",
        "s"
      ],
      [
        "i",
        "c"
      ],
      [
        "Ġa",
        "re"
      ],
      [
        "Ġb",
        "a"
      ],
      [
        "ou",
        "s"
      ],
      [
        "ou",
        "ld"
      ],
      [
        "Ġwor",
        "k"
      ],
      [
        "ou",
        "nd"
      ],
      [
        "us",
        "e"
      ],
      [
        "Ġe",
        "x"
      ],
      [
        "a",
        "in"
      ],
      [
        "f",
        "ul"
      ],
      [
        "Ġf",
        "rom"
      ],
      [
        "Ġs",
        "h"
      ],
      [
        "ee",
        "n"
      ],
      [
        "as",
        "t"
      ],
      [
        "ar",
        "t"
      ],
      [
        "Ġhe",
        "r"
      ],
      [
        "Ġu",
        "p"
      ],
      [
        "i",
        "ve"
      ],
      [
        "n",
        "t"
      ],
      [
        "u",
        "r"
      ],
      [
        "Ġa",
        "ll"
      ],
      [
        "ha",
        "n"
      ],
      [
        "es",
        "s"
      ],
      [
        "at",
        "e"
      ],
      [
        "Ġk",
        "n"
      ],
      [
        "'",
        "t"
      ],
      [
        "a",
        "g"
      ],
      [
        "r",
        "y"
      ],
      [
        "Ġt",
        "im"
      ],
      [
        "Ġo",
        "r"
      ],
      [
        "Ġd",
        "id"
      ],
      [
        "Ġl",
        "o"
      ],
      [
        "Ġy",
        "ear"
      ],
      [
        "in",
        "d"
      ],
      [
        "Ġf",
        "ri"
      ],
      [
        "re",
        "s"
      ],
      [
        "Ġd",
        "ay"
      ],
      [
        "Ġg",
        "ot"
      ],
      [
        "Ġha",
        "s"
      ],
      [
        "Ġab",
        "out"
      ],
      [
        "c",
        "a"
      ],
      [
        "â",
        "Ģ"
      ],
      [
        "in",
        "k"
      ],
      [
        "Ġd",
        "e"
      ],
      [
        "it",
        "t"
      ],
      [
        "es",
        "t"
      ],
      [
        "os",
        "t"
      ],
      [
        "A",
        "M"
      ],
      [
        "N",
        "AM"
      ],
      [
        "Ġs",
        "p"
      ],
      [
        "Ġm",
        "ake"
      ],
      [
        "Ġo",
        "ver"
      ],
      [
        "Ġc",
        "om"
      ],
      [
        "at",
        "ion"
      ],
      [
        "ver",
        "y"
      ],
      [
        "Ġwh",
        "o"
      ],
      [
        "Ġkn",
        "ow"
      ],
      [
        "NAM",
        "E"
      ],
      [
        ".",
        "."
      ],
      [
        "v",
        "ing"
      ],
      [
        "w",
        "ay"
      ],
      [
        "Ġ",
        "S"
      ],
      [
        "Ġ",
        "us"
      ],
      [
        "ee",
        "d"
      ],
      [
        "as",
        "s"
      ],
      [
        "Ġh",
        "ow"
      ],
      [
        "Ġan",
        "y"
      ],
      [
        "Ġ",
        "v"
      ],
      [
        "Ġw",
        "hat"
      ],
      [
        "Ġb",
        "een"
      ],
      [
        "Ġthe",
        "y"
      ],
      [
        "Ġn",
        "eed"
      ],
      [
        "Ġre",
        "ally"
      ],
      [
        "oo",
        "d"
      ],
      [
        "oo",
        "k"
      ],
      [
        "Ġfri",
        "end"
      ],
      [
        "i",
        "l"
      ],
      [
        "Ġ",
        "["
      ],
      [
        "Ġs",
        "he"
      ],
      [
        "Ġb",
        "y"
      ],
      [
        "Ġc",
        "ar"
      ],
      [
        "Ġin",
        "t"
      ],
      [
        "Ġth",
        "ink"
      ],
      [
        "Ġbe",
        "ca"
      ],
      [
        "Ġba",
        "ck"
      ],
      [
        "Ġbeca",
        "use"
      ],
      [
        "b",
        "le"
      ],
      [
        "e",
        "w"
      ],
      [
        "i",
        "ght"
      ],
      [
        "s",
        "e"
      ],
      [
        "u",
        "n"
      ],
      [
        "Ġs",
        "ee"
      ],
      [
        "Ġc",
        "l"
      ],
      [
        "or",
        "t"
      ],
      [
        "on",
        "g"
      ],
      [
        "am",
        "e"
      ],
      [
        "Ġtim",
        "e"
      ],
      [
        "m",
        "b"
      ],
      [
        "m",
        "p"
      ],
      [
        "q",
        "u"
      ],
      [
        "t",
        "her"
      ],
      [
        "Ġ",
        "r"
      ],
      [
        "Ġa",
        "f"
      ],
      [
        "Ġa",
        "g"
      ],
      [
        "Ġa",
        "r"
      ],
      [
        "Ġw",
        "ill"
      ],
      [
        "Ġb",
        "it"
      ],
      [
        "Ġi",
        "f"
      ],
      [
        "âĢ",
        "Ļ"
      ],
      [
        "c",
        "i"
      ],
      [
        "s",
        "o"
      ],
      [
        "t",
        "y"
      ],
      [
        "Ġ",
        "H"
      ],
      [
        "in",
        "e"
      ],
      [
        "Ġw",
        "ee"
      ],
      [
        "Ġw",
        "ant"
      ],
      [
        "ou",
        "gh"
      ],
      [
        "er",
        "s"
      ],
      [
        "Ġn",
        "o"
      ],
      [
        "Ġh",
        "im"
      ],
      [
        "ow",
        "n"
      ],
      [
        "Ġu",
        "n"
      ],
      [
        "Ġmo",
        "re"
      ],
      [
        "e",
        "ll"
      ],
      [
        "e",
        "op"
      ],
      [
        "i",
        "es"
      ],
      [
        "i",
        "le"
      ],
      [
        "i",
        "gh"
      ],
      [
        "p",
        "t"
      ],
      [
        "t",
        "ing"
      ],
      [
        "Ġt",
        "han"
      ],
      [
        "Ġs",
        "a"
      ],
      [
        "Ġm",
        "an"
      ],
      [
        "ing",
        "s"
      ],
      [
        "Ġthe",
        "n"
      ],
      [
        "Ġo",
        "ther"
      ],
      [
        "Ġc",
        "h"
      ],
      [
        "Ġc",
        "on"
      ],
      [
        "Ġd",
        "on"
      ],
      [
        "Ġl",
        "e"
      ],
      [
        "Ġl",
        "itt"
      ],
      [
        "ar",
        "d"
      ],
      [
        "is",
        "s"
      ],
      [
        "is",
        "t"
      ],
      [
        "ot",
        "her"
      ],
      [
        "et",
        "ter"
      ],
      [
        "at",
        "ed"
      ],
      [
        "oo",
        "l"
      ],
      [
        "os",
        "e"
      ],
      [
        "el",
        "f"
      ],
      [
        "eop",
        "le"
      ],
      [
        "Ġlitt",
        "le"
      ],
      [
        "a",
        "nd"
      ],
      [
        "g",
        "e"
      ],
      [
        "k",
        "s"
      ],
      [
        "p",
        "er"
      ],
      [
        "u",
        "ck"
      ],
      [
        "Ġ",
        "W"
      ],
      [
        "he",
        "re"
      ],
      [
        "Ġf",
        "i"
      ],
      [
        "Ġb",
        "o"
      ],
      [
        "ou",
        "ght"
      ],
      [
        "Ġto",
        "o"
      ],
      [
        "Ġc",
        "a"
      ],
      [
        "or",
        "n"
      ],
      [
        "Ġp",
        "l"
      ],
      [
        "Ġp",
        "eople"
      ],
      [
        "Ġg",
        "i"
      ],
      [
        "Ġh",
        "ome"
      ],
      [
        "id",
        "e"
      ],
      [
        "Ġyou",
        "r"
      ],
      [
        "el",
        "t"
      ],
      [
        "res",
        "s"
      ],
      [
        "Ġcom",
        "p"
      ],
      [
        "f",
        "f"
      ],
      [
        "f",
        "t"
      ],
      [
        "i",
        "e"
      ],
      [
        "i",
        "ck"
      ],
      [
        "w",
        "n"
      ],
      [
        "Ġ",
        "en"
      ],
      [
        "Ġ",
        "qu"
      ],
      [
        "Ġa",
        "c"
      ],
      [
        "Ġw",
        "ent"
      ],
      [
        "Ġw",
        "ould"
      ],
      [
        "Ġm",
        "u"
      ],
      [
        "Ġm",
        "ad"
      ],
      [
        "Ġb",
        "etter"
      ],
      [
        "Ġi",
        "m"
      ],
      [
        "Ġthe",
        "m"
      ],
      [
        "ĠI",
        "t"
      ],
      [
        "Ġn",
        "ow"
      ],
      [
        "Ġh",
        "is"
      ],
      [
        "ad",
        "y"
      ],
      [
        "Ġst",
        "u"
      ],
      [
        "Ġst",
        "ill"
      ],
      [
        "Ġj",
        "o"
      ],
      [
        "ir",
        "th"
      ],
      [
        "th",
        "ing"
      ],
      [
        "Ġgo",
        "ing"
      ],
      [
        "Ġsome",
        "one"
      ],
      [
        "Ġint",
        "o"
      ],
      [
        "Ġaf",
        "ter"
      ],
      [
        "Ġag",
        "ain"
      ],
      [
        "irth",
        "day"
      ],
      [
        "a",
        "u"
      ],
      [
        "h",
        "ing"
      ],
      [
        "i",
        "ly"
      ],
      [
        "o",
        "re"
      ],
      [
        "Ġ",
        "very"
      ],
      [
        "Ġa",
        "way"
      ],
      [
        "Ġw",
        "r"
      ],
      [
        "Ġf",
        "elt"
      ],
      [
        "Ġb",
        "irthday"
      ],
      [
        "Ġc",
        "o"
      ],
      [
        "Ġl",
        "ast"
      ],
      [
        "Ġp",
        "r"
      ],
      [
        "Ġp",
        "re"
      ],
      [
        "Ġg",
        "r"
      ],
      [
        "om",
        "et"
      ],
      [
        "Ġha",
        "pp"
      ],
      [
        "Ġh",
        "op"
      ],
      [
        "Ġof",
        "f"
      ],
      [
        "Ġbe",
        "ing"
      ],
      [
        "ch",
        "ool"
      ],
      [
        "Ġli",
        "fe"
      ],
      [
        "ag",
        "e"
      ],
      [
        "Ġdid",
        "n"
      ],
      [
        "Ġany",
        "thing"
      ],
      [
        "Ġar",
        "ound"
      ],
      [
        "e",
        "ct"
      ],
      [
        "l",
        "p"
      ],
      [
        "Ġ",
        "A"
      ],
      [
        "Ġ",
        "B"
      ],
      [
        "Ġ",
        "ro"
      ],
      [
        "he",
        "d"
      ],
      [
        "Ġf",
        "a"
      ],
      [
        "Ġf",
        "in"
      ],
      [
        "Ġf",
        "am"
      ],
      [
        "Ġs",
        "chool"
      ],
      [
        "re",
        "at"
      ],
      [
        "Ġb",
        "l"
      ],
      [
        "Ġthe",
        "re"
      ],
      [
        "Ġd",
        "i"
      ],
      [
        "Ġd",
        "own"
      ],
      [
        "Ġl",
        "ook"
      ],
      [
        "Ġg",
        "ood"
      ],
      [
        "Ġth",
        "ings"
      ],
      [
        "Ġhe",
        "lp"
      ],
      [
        "Ġit",
        "s"
      ],
      [
        "Ġre",
        "m"
      ],
      [
        "Ġst",
        "r"
      ],
      [
        "ir",
        "st"
      ],
      [
        "Ġwe",
        "re"
      ],
      [
        "ct",
        "u"
      ],
      [
        "Ġal",
        "so"
      ],
      [
        "Ġne",
        "w"
      ],
      [
        "mb",
        "er"
      ],
      [
        "Ġmad",
        "e"
      ],
      [
        "Ġjo",
        "b"
      ],
      [
        "Ġhop",
        "e"
      ],
      [
        "a",
        "k"
      ],
      [
        "a",
        "it"
      ],
      [
        "d",
        "e"
      ],
      [
        "i",
        "ld"
      ],
      [
        "n",
        "ed"
      ],
      [
        "o",
        "in"
      ],
      [
        "v",
        "es"
      ],
      [
        "Ġ",
        "D"
      ],
      [
        "Ġ",
        "ri"
      ],
      [
        "Ġ",
        "our"
      ],
      [
        "Ġa",
        "pp"
      ],
      [
        "Ġf",
        "ew"
      ],
      [
        "Ġf",
        "irst"
      ],
      [
        "Ġs",
        "e"
      ],
      [
        "Ġs",
        "ha"
      ],
      [
        "re",
        "e"
      ],
      [
        "nd",
        "er"
      ],
      [
        "ee",
        "p"
      ],
      [
        "Ġthe",
        "ir"
      ],
      [
        "Ġd",
        "is"
      ],
      [
        "Ġp",
        "a"
      ],
      [
        "Ġp",
        "er"
      ],
      [
        "Ġp",
        "ro"
      ],
      [
        "Ġg",
        "u"
      ],
      [
        "en",
        "ce"
      ],
      [
        "Ġth",
        "r"
      ],
      [
        "Ġe",
        "very"
      ],
      [
        "Ġst",
        "art"
      ],
      [
        "Ġdo",
        "ing"
      ],
      [
        "Ġget",
        "ting"
      ],
      [
        "Ġlo",
        "ve"
      ],
      [
        "Ġyear",
        "s"
      ],
      [
        "..",
        "."
      ],
      [
        "Ġwee",
        "k"
      ],
      [
        "Ġmu",
        "ch"
      ],
      [
        "Ġfam",
        "ily"
      ],
      [
        "W",
        "hen"
      ],
      [
        "a",
        "ble"
      ],
      [
        "b",
        "or"
      ],
      [
        "d",
        "y"
      ],
      [
        "e",
        "ly"
      ],
      [
        "l",
        "ess"
      ],
      [
        "m",
        "ed"
      ],
      [
        "o",
        "l"
      ],
      [
        "s",
        "elf"
      ],
      [
        "t",
        "ty"
      ],
      [
        "v",
        "en"
      ],
      [
        "x",
        "t"
      ],
      [
        "Ġ",
        "3"
      ],
      [
        "Ġ",
        "N"
      ],
      [
        "Ġt",
        "ry"
      ],
      [
        "Ġa",
        "w"
      ],
      [
        "Ġs",
        "m"
      ],
      [
        "Ġs",
        "w"
      ],
      [
        "Ġs",
        "ound"
      ],
      [
        "Ġs",
        "omet"
      ],
      [
        "Ġm",
        "iss"
      ],
      [
        "re",
        "nt"
      ],
      [
        "Ġo",
        "wn"
      ],
      [
        "Ġl",
        "ot"
      ],
      [
        "Ġl",
        "et"
      ],
      [
        "Ġl",
        "ong"
      ],
      [
        "Ġp",
        "ain"
      ],
      [
        "Ġp",
        "art"
      ],
      [
        "it",
        "ed"
      ],
      [
        "ar",
        "k"
      ],
      [
        "Ġhe",
        "re"
      ],
      [
        "al",
        "k"
      ],
      [
        "Ġon",
        "e"
      ],
      [
        "Ġon",
        "ly"
      ],
      [
        "Ġdo",
        "g"
      ],
      [
        "Ġsu",
        "pp"
      ],
      [
        "Ġal",
        "way"
      ],
      [
        "Ġne",
        "igh"
      ],
      [
        "Ġab",
        "le"
      ],
      [
        "ĠT",
        "he"
      ],
      [
        "Ġex",
        "c"
      ],
      [
        "ĠS",
        "he"
      ],
      [
        "au",
        "gh"
      ],
      [
        "Ġalway",
        "s"
      ],
      [
        "Ġneigh",
        "bor"
      ],
      [
        "'",
        "m"
      ],
      [
        "0",
        "0"
      ],
      [
        "Y",
        "ou"
      ],
      [
        "a",
        "ch"
      ],
      [
        "a",
        "ce"
      ],
      [
        "e",
        "mber"
      ],
      [
        "h",
        "is"
      ],
      [
        "i",
        "g"
      ],
      [
        "m",
        "ent"
      ],
      [
        "n",
        "g"
      ],
      [
        "o",
        "y"
      ],
      [
        "s",
        "ide"
      ],
      [
        "u",
        "re"
      ],
      [
        "u",
        "ll"
      ],
      [
        "u",
        "red"
      ],
      [
        "u",
        "mp"
      ],
      [
        "v",
        "ed"
      ],
      [
        "w",
        "hen"
      ],
      [
        "x",
        "i"
      ],
      [
        "Ġ",
        "ra"
      ],
      [
        "Ġt",
        "e"
      ],
      [
        "Ġt",
        "r"
      ],
      [
        "Ġt",
        "ur"
      ],
      [
        "Ġa",
        "ctu"
      ],
      [
        "Ġw",
        "ay"
      ],
      [
        "Ġw",
        "here"
      ],
      [
        "Ġw",
        "ait"
      ],
      [
        "Ġf",
        "ind"
      ],
      [
        "Ġs",
        "l"
      ],
      [
        "Ġs",
        "it"
      ],
      [
        "Ġs",
        "ay"
      ],
      [
        "Ġs",
        "ad"
      ],
      [
        "Ġm",
        "om"
      ],
      [
        "Ġm",
        "ight"
      ],
      [
        "Ġb",
        "r"
      ],
      [
        "Ġto",
        "day"
      ],
      [
        "Ġc",
        "ow"
      ],
      [
        "Ġc",
        "ould"
      ],
      [
        "Ġd",
        "augh"
      ],
      [
        "Ġl",
        "ost"
      ],
      [
        "Ġp",
        "ut"
      ],
      [
        "Ġg",
        "ra"
      ],
      [
        "it",
        "e"
      ],
      [
        "is",
        "hed"
      ],
      [
        "Ġha",
        "nd"
      ],
      [
        "en",
        "s"
      ],
      [
        "Ġh",
        "u"
      ],
      [
        "ot",
        "ion"
      ],
      [
        "at",
        "ch"
      ],
      [
        "Ġe",
        "ver"
      ],
      [
        "Ġre",
        "al"
      ],
      [
        "Ġsu",
        "re"
      ],
      [
        "Ġne",
        "ver"
      ],
      [
        "ic",
        "al"
      ],
      [
        "han",
        "ks"
      ],
      [
        "Ġtim",
        "es"
      ],
      [
        "Ġde",
        "c"
      ],
      [
        "ation",
        "s"
      ],
      [
        "ass",
        "ed"
      ],
      [
        "Ġfriend",
        "s"
      ],
      [
        "Ġle",
        "ft"
      ],
      [
        "Ġpre",
        "tty"
      ],
      [
        "Ġhapp",
        "y"
      ],
      [
        "Ġrem",
        "ember"
      ],
      [
        "Ġsomet",
        "hing"
      ],
      [
        "Ġdaugh",
        "ter"
      ],
      [
        "!",
        "!"
      ],
      [
        "I",
        "t"
      ],
      [
        "a",
        "c"
      ],
      [
        "c",
        "om"
      ],
      [
        "g",
        "et"
      ],
      [
        "i",
        "a"
      ],
      [
        "i",
        "z"
      ],
      [
        "i",
        "ce"
      ],
      [
        "l",
        "ing"
      ],
      [
        "p",
        "s"
      ],
      [
        "p",
        "id"
      ],
      [
        "Ġ",
        "O"
      ],
      [
        "Ġ",
        "My"
      ],
      [
        "Ġt",
        "ri"
      ],
      [
        "Ġt",
        "ake"
      ],
      [
        "Ġa",
        "d"
      ],
      [
        "Ġf",
        "ound"
      ],
      [
        "Ġc",
        "all"
      ],
      [
        "Ġc",
        "ame"
      ],
      [
        "Ġp",
        "et"
      ],
      [
        "Ġg",
        "re"
      ],
      [
        "es",
        "ome"
      ],
      [
        "Ġmy",
        "self"
      ],
      [
        "is",
        "h"
      ],
      [
        "Ġha",
        "ving"
      ],
      [
        "Ġh",
        "ous"
      ],
      [
        "an",
        "s"
      ],
      [
        "Ġth",
        "ough"
      ],
      [
        "Ġth",
        "ought"
      ],
      [
        "Ġre",
        "ad"
      ],
      [
        "os",
        "s"
      ],
      [
        "Ġu",
        "nder"
      ],
      [
        "ce",
        "pt"
      ],
      [
        "Ġdo",
        "es"
      ],
      [
        "Ġas",
        "k"
      ],
      [
        "Ġwe",
        "ll"
      ],
      [
        "Ġwe",
        "ar"
      ],
      [
        "Ġsu",
        "ch"
      ],
      [
        "fe",
        "ct"
      ],
      [
        "our",
        "s"
      ],
      [
        "Ġsh",
        "ow"
      ],
      [
        "ag",
        "er"
      ],
      [
        "Ġday",
        "s"
      ],
      [
        "Ġus",
        "ed"
      ],
      [
        "Ġr",
        "un"
      ],
      [
        "Ġman",
        "y"
      ],
      [
        "Ġch",
        "ild"
      ],
      [
        "Ġcon",
        "t"
      ],
      [
        "per",
        "i"
      ],
      [
        "ress",
        "ed"
      ],
      [
        "Ġcomp",
        "an"
      ],
      [
        "oin",
        "t"
      ],
      [
        "Ġri",
        "ght"
      ],
      [
        "Ġgu",
        "y"
      ],
      [
        "Ġexc",
        "ited"
      ],
      [
        "Ġactu",
        "ally"
      ],
      [
        "Ġsit",
        "u"
      ],
      [
        "'",
        "ll"
      ],
      [
        "H",
        "A"
      ],
      [
        "T",
        "his"
      ],
      [
        "a",
        "pp"
      ],
      [
        "b",
        "b"
      ],
      [
        "b",
        "e"
      ],
      [
        "d",
        "s"
      ],
      [
        "e",
        "m"
      ],
      [
        "e",
        "re"
      ],
      [
        "e",
        "ci"
      ],
      [
        "k",
        "er"
      ],
      [
        "l",
        "et"
      ],
      [
        "o",
        "g"
      ],
      [
        "r",
        "is"
      ],
      [
        "r",
        "ist"
      ],
      [
        "ð",
        "Ł"
      ],
      [
        "Ġ",
        "F"
      ],
      [
        "Ġ",
        "L"
      ],
      [
        "Ġ",
        "use"
      ],
      [
        "Ġt",
        "alk"
      ],
      [
        "he",
        "l"
      ],
      [
        "Ġf",
        "uck"
      ],
      [
        "Ġs",
        "elf"
      ],
      [
        "Ġm",
        "at"
      ],
      [
        "Ġm",
        "one"
      ],
      [
        "Ġm",
        "ost"
      ],
      [
        "Ġm",
        "orn"
      ],
      [
        "re",
        "ady"
      ],
      [
        "Ġb",
        "ad"
      ],
      [
        "Ġb",
        "ro"
      ],
      [
        "Ġb",
        "ook"
      ],
      [
        "Ġb",
        "ought"
      ],
      [
        "ee",
        "t"
      ],
      [
        "Ġo",
        "ld"
      ],
      [
        "Ġc",
        "he"
      ],
      [
        "Ġc",
        "ou"
      ],
      [
        "Ġc",
        "ut"
      ],
      [
        "Ġc",
        "ome"
      ],
      [
        "or",
        "ker"
      ],
      [
        "Ġd",
        "ad"
      ],
      [
        "Ġd",
        "one"
      ],
      [
        "Ġl",
        "ate"
      ],
      [
        "Ġp",
        "ost"
      ],
      [
        "Ġp",
        "ers"
      ],
      [
        "Ġp",
        "ie"
      ],
      [
        "Ġg",
        "ir"
      ],
      [
        "Ġfeel",
        "s"
      ],
      [
        "es",
        "ter"
      ],
      [
        "Ġh",
        "ot"
      ],
      [
        "Ġh",
        "ur"
      ],
      [
        "Ġh",
        "igh"
      ],
      [
        "us",
        "ed"
      ],
      [
        "Ġth",
        "ose"
      ],
      [
        "Ġhe",
        "ard"
      ],
      [
        "Ġbe",
        "g"
      ],
      [
        "Ġst",
        "or"
      ],
      [
        "id",
        "ent"
      ],
      [
        "ent",
        "ly"
      ],
      [
        "Ġan",
        "xi"
      ],
      [
        "am",
        "n"
      ],
      [
        "Ġk",
        "id"
      ],
      [
        "Ġk",
        "eep"
      ],
      [
        "Ġwith",
        "out"
      ],
      [
        "Ġsu",
        "b"
      ],
      [
        "Ġal",
        "ready"
      ],
      [
        "Ġwh",
        "ile"
      ],
      [
        "Ġgo",
        "d"
      ],
      [
        "Ġne",
        "xt"
      ],
      [
        "ant",
        "s"
      ],
      [
        "Ġout",
        "side"
      ],
      [
        "Ġex",
        "peri"
      ],
      [
        "Ġsh",
        "it"
      ],
      [
        "Ġsh",
        "ould"
      ],
      [
        "ate",
        "ful"
      ],
      [
        "est",
        "ion"
      ],
      [
        "Ġany",
        "one"
      ],
      [
        "Ġint",
        "ere"
      ],
      [
        "Ġcl",
        "ose"
      ],
      [
        "Ġbit",
        "ter"
      ],
      [
        "ĠH",
        "e"
      ],
      [
        "Ġwant",
        "ed"
      ],
      [
        "Ġfi",
        "re"
      ],
      [
        "Ġtoo",
        "k"
      ],
      [
        "Ġqu",
        "estion"
      ],
      [
        "Ġgr",
        "ateful"
      ],
      [
        "ect",
        "ed"
      ],
      [
        "Ġro",
        "ad"
      ],
      [
        "ak",
        "ing"
      ],
      [
        "Ġstart",
        "ed"
      ],
      [
        "Ġtry",
        "ing"
      ],
      [
        "Ġsound",
        "s"
      ],
      [
        "atch",
        "ing"
      ],
      [
        "Ġhous",
        "e"
      ],
      [
        "Ġsitu",
        "ation"
      ],
      [
        "ðŁ",
        "ĺ"
      ],
      [
        "Ġmat",
        "ter"
      ],
      [
        "Ġmone",
        "y"
      ],
      [
        "Ġmorn",
        "ing"
      ],
      [
        "Ġpers",
        "on"
      ],
      [
        "Ġpie",
        "ce"
      ],
      [
        "Ġgir",
        "l"
      ],
      [
        "ester",
        "day"
      ],
      [
        "Ġexperi",
        "ence"
      ],
      [
        "Ġintere",
        "st"
      ],
      [
        "'",
        "re"
      ],
      [
        "*",
        "*"
      ],
      [
        "A",
        "w"
      ],
      [
        "H",
        "e"
      ],
      [
        "T",
        "o"
      ],
      [
        "T",
        "he"
      ],
      [
        "a",
        "ut"
      ],
      [
        "b",
        "a"
      ],
      [
        "b",
        "y"
      ],
      [
        "c",
        "ou"
      ],
      [
        "c",
        "ess"
      ],
      [
        "e",
        "al"
      ],
      [
        "e",
        "ver"
      ],
      [
        "f",
        "ri"
      ],
      [
        "g",
        "er"
      ],
      [
        "g",
        "ed"
      ],
      [
        "g",
        "ry"
      ],
      [
        "h",
        "ind"
      ],
      [
        "h",
        "ile"
      ],
      [
        "i",
        "re"
      ],
      [
        "i",
        "ed"
      ],
      [
        "i",
        "ch"
      ],
      [
        "i",
        "red"
      ],
      [
        "i",
        "ous"
      ],
      [
        "i",
        "ful"
      ],
      [
        "i",
        "ew"
      ],
      [
        "m",
        "s"
      ],
      [
        "m",
        "as"
      ],
      [
        "m",
        "ost"
      ],
      [
        "m",
        "otion"
      ],
      [
        "n",
        "al"
      ],
      [
        "n",
        "ess"
      ],
      [
        "o",
        "ke"
      ],
      [
        "p",
        "a"
      ],
      [
        "p",
        "le"
      ],
      [
        "p",
        "ris"
      ],
      [
        "r",
        "on"
      ],
      [
        "r",
        "it"
      ],
      [
        "r",
        "pris"
      ],
      [
        "s",
        "es"
      ],
      [
        "t",
        "e"
      ],
      [
        "u",
        "c"
      ],
      [
        "u",
        "g"
      ],
      [
        "w",
        "o"
      ],
      [
        "Ġ",
        "5"
      ],
      [
        "Ġ",
        "ke"
      ],
      [
        "Ġ",
        "ent"
      ],
      [
        "Ġt",
        "ra"
      ],
      [
        "in",
        "ce"
      ],
      [
        "Ġw",
        "on"
      ],
      [
        "Ġf",
        "all"
      ],
      [
        "Ġf",
        "ood"
      ],
      [
        "Ġf",
        "il"
      ],
      [
        "Ġf",
        "un"
      ],
      [
        "Ġs",
        "c"
      ],
      [
        "Ġs",
        "k"
      ],
      [
        "Ġs",
        "n"
      ],
      [
        "Ġs",
        "een"
      ],
      [
        "Ġs",
        "ame"
      ],
      [
        "Ġs",
        "ide"
      ],
      [
        "Ġs",
        "ince"
      ],
      [
        "Ġm",
        "on"
      ],
      [
        "Ġm",
        "is"
      ],
      [
        "Ġm",
        "ay"
      ],
      [
        "Ġb",
        "ra"
      ],
      [
        "Ġi",
        "mp"
      ],
      [
        "Ġi",
        "de"
      ],
      [
        "Ġto",
        "ld"
      ],
      [
        "er",
        "able"
      ],
      [
        "Ġc",
        "ant"
      ],
      [
        "Ġc",
        "ry"
      ],
      [
        "Ġc",
        "reat"
      ],
      [
        "Ġl",
        "a"
      ],
      [
        "Ġl",
        "ist"
      ],
      [
        "Ġp",
        "h"
      ],
      [
        "Ġp",
        "oint"
      ],
      [
        "Ġg",
        "reat"
      ],
      [
        "it",
        "y"
      ],
      [
        "it",
        "ing"
      ],
      [
        "ar",
        "ly"
      ],
      [
        "Ġn",
        "ame"
      ],
      [
        "is",
        "ion"
      ],
      [
        "Ġha",
        "r"
      ],
      [
        "en",
        "ed"
      ],
      [
        "en",
        "se"
      ],
      [
        "Ġh",
        "or"
      ],
      [
        "Ġh",
        "ours"
      ],
      [
        "Ġin",
        "ter"
      ],
      [
        "et",
        "y"
      ],
      [
        "Ġbe",
        "aut"
      ],
      [
        "Ġbe",
        "hind"
      ],
      [
        "Ġy",
        "esterday"
      ],
      [
        "Ġe",
        "l"
      ],
      [
        "Ġe",
        "ven"
      ],
      [
        "Ġe",
        "motion"
      ],
      [
        "Ġre",
        "ady"
      ],
      [
        "Ġst",
        "re"
      ],
      [
        "Ġon",
        "ce"
      ],
      [
        "Ġan",
        "other"
      ],
      [
        "Ġli",
        "ve"
      ],
      [
        "Ġfeeling",
        "s"
      ],
      [
        "Ġyou",
        "ng"
      ],
      [
        "ir",
        "t"
      ],
      [
        "ust",
        "ing"
      ],
      [
        "Ġk",
        "ind"
      ],
      [
        "Ġwor",
        "ds"
      ],
      [
        "ra",
        "p"
      ],
      [
        "Ġsu",
        "rpris"
      ],
      [
        "Ġget",
        "s"
      ],
      [
        "Ġal",
        "most"
      ],
      [
        "Ġwh",
        "y"
      ],
      [
        "Ġwh",
        "ich"
      ],
      [
        "Ġmo",
        "ve"
      ],
      [
        "st",
        "and"
      ],
      [
        "ĠT",
        "hanks"
      ],
      [
        "Ġex",
        "p"
      ],
      [
        "Ġde",
        "ad"
      ],
      [
        "Ġcom",
        "ing"
      ],
      [
        "Ġv",
        "i"
      ],
      [
        "Ġv",
        "ac"
      ],
      [
        "Ġneed",
        "s"
      ],
      [
        "Ġcl",
        "ass"
      ],
      [
        "mb",
        "ar"
      ],
      [
        "Ġr",
        "u"
      ],
      [
        "Ġun",
        "s"
      ],
      [
        "Ġsa",
        "w"
      ],
      [
        "Ġsa",
        "fe"
      ],
      [
        "Ġman",
        "ager"
      ],
      [
        "Ġch",
        "rist"
      ],
      [
        "Ġdon",
        "t"
      ],
      [
        "Ġfi",
        "x"
      ],
      [
        "Ġca",
        "us"
      ],
      [
        "Ġpl",
        "an"
      ],
      [
        "Ġpl",
        "ace"
      ],
      [
        "Ġgi",
        "ft"
      ],
      [
        "Ġcomp",
        "let"
      ],
      [
        "Ġac",
        "cept"
      ],
      [
        "Ġwould",
        "n"
      ],
      [
        "Ġstu",
        "pid"
      ],
      [
        "Ġagain",
        "st"
      ],
      [
        "Ġwr",
        "ong"
      ],
      [
        "Ġco",
        "ll"
      ],
      [
        "Ġgr",
        "ou"
      ],
      [
        "Ġfin",
        "ally"
      ],
      [
        "Ġfin",
        "ished"
      ],
      [
        "Ġdi",
        "ed"
      ],
      [
        "Ġstr",
        "an"
      ],
      [
        "Ġhope",
        "ful"
      ],
      [
        "Ġse",
        "x"
      ],
      [
        "Ġthr",
        "ough"
      ],
      [
        "Ġpart",
        "y"
      ],
      [
        "Ġsupp",
        "ort"
      ],
      [
        "Ġtur",
        "ned"
      ],
      [
        "Ġbr",
        "other"
      ],
      [
        "Ġcow",
        "orker"
      ],
      [
        "Ġreal",
        "iz"
      ],
      [
        "Ġunder",
        "stand"
      ],
      [
        "Ġcompan",
        "ion"
      ],
      [
        "Ġkid",
        "s"
      ],
      [
        "fri",
        "end"
      ],
      [
        "Ġmon",
        "th"
      ],
      [
        "Ġmis",
        "erable"
      ],
      [
        "Ġide",
        "a"
      ],
      [
        "Ġbeaut",
        "iful"
      ],
      [
        "Ġvac",
        "ation"
      ],
      [
        "Ġchrist",
        "mas"
      ],
      [
        "2",
        "00"
      ],
      [
        "J",
        "ust"
      ],
      [
        "L",
        "ast"
      ],
      [
        "R",
        "E"
      ],
      [
        "T",
        "hanks"
      ],
      [
        "W",
        "e"
      ],
      [
        "a",
        "z"
      ],
      [
        "a",
        "ve"
      ],
      [
        "a",
        "ct"
      ],
      [
        "b",
        "t"
      ],
      [
        "b",
        "it"
      ],
      [
        "b",
        "ly"
      ],
      [
        "c",
        "er"
      ],
      [
        "c",
        "ri"
      ],
      [
        "c",
        "ome"
      ],
      [
        "c",
        "oin"
      ],
      [
        "c",
        "ident"
      ],
      [
        "c",
        "ently"
      ],
      [
        "f",
        "or"
      ],
      [
        "f",
        "fe"
      ],
      [
        "f",
        "ore"
      ],
      [
        "g",
        "u"
      ],
      [
        "h",
        "ic"
      ],
      [
        "i",
        "v"
      ],
      [
        "i",
        "et"
      ],
      [
        "i",
        "fe"
      ],
      [
        "i",
        "ble"
      ],
      [
        "i",
        "ctu"
      ],
      [
        "l",
        "ad"
      ],
      [
        "m",
        "an"
      ],
      [
        "m",
        "ore"
      ],
      [
        "n",
        "e"
      ],
      [
        "n",
        "ing"
      ],
      [
        "n",
        "ot"
      ],
      [
        "n",
        "oy"
      ],
      [
        "o",
        "nd"
      ],
      [
        "o",
        "ve"
      ],
      [
        "o",
        "pp"
      ],
      [
        "p",
        "e"
      ],
      [
        "p",
        "en"
      ],
      [
        "p",
        "art"
      ],
      [
        "r",
        "ing"
      ],
      [
        "r",
        "al"
      ],
      [
        "r",
        "am"
      ],
      [
        "s",
        "p"
      ],
      [
        "t",
        "s"
      ],
      [
        "t",
        "ed"
      ],
      [
        "u",
        "e"
      ],
      [
        "u",
        "ri"
      ],
      [
        "u",
        "ally"
      ],
      [
        "v",
        "ent"
      ],
      [
        "v",
        "ie"
      ],
      [
        "v",
        "iew"
      ],
      [
        "w",
        "hel"
      ],
      [
        "y",
        "s"
      ],
      [
        "y",
        "es"
      ],
      [
        "Ġ",
        ","
      ],
      [
        "Ġ",
        "1"
      ],
      [
        "Ġ",
        "C"
      ],
      [
        "Ġ",
        "E"
      ],
      [
        "Ġ",
        "M"
      ],
      [
        "Ġ",
        "P"
      ],
      [
        "Ġ",
        "R"
      ],
      [
        "Ġ",
        "U"
      ],
      [
        "Ġ",
        "et"
      ],
      [
        "Ġ",
        "âĢ"
      ],
      [
        "Ġ",
        "ðŁĺ"
      ],
      [
        "Ġt",
        "ree"
      ],
      [
        "Ġt",
        "wo"
      ],
      [
        "Ġa",
        "part"
      ],
      [
        "in",
        "t"
      ],
      [
        "in",
        "ing"
      ],
      [
        "Ġw",
        "in"
      ],
      [
        "Ġw",
        "om"
      ],
      [
        "Ġw",
        "ar"
      ],
      [
        "Ġw",
        "alk"
      ],
      [
        "Ġw",
        "atching"
      ],
      [
        "Ġw",
        "ife"
      ],
      [
        "Ġf",
        "at"
      ],
      [
        "Ġf",
        "ore"
      ],
      [
        "Ġs",
        "y"
      ],
      [
        "Ġs",
        "ca"
      ],
      [
        "Ġs",
        "ens"
      ],
      [
        "Ġm",
        "ed"
      ],
      [
        "Ġm",
        "ar"
      ],
      [
        "Ġm",
        "aking"
      ],
      [
        "re",
        "n"
      ],
      [
        "Ġb",
        "u"
      ],
      [
        "Ġb",
        "ed"
      ],
      [
        "Ġb",
        "on"
      ],
      [
        "Ġb",
        "al"
      ],
      [
        "Ġb",
        "ur"
      ],
      [
        "Ġb",
        "est"
      ],
      [
        "Ġi",
        "d"
      ],
      [
        "Ġi",
        "r"
      ],
      [
        "ou",
        "d"
      ],
      [
        "Ġto",
        "wn"
      ],
      [
        "er",
        "ve"
      ],
      [
        "er",
        "ious"
      ],
      [
        "Ġthe",
        "se"
      ],
      [
        "Ġo",
        "pen"
      ],
      [
        "Ġc",
        "le"
      ],
      [
        "Ġc",
        "ra"
      ],
      [
        "Ġc",
        "ook"
      ],
      [
        "Ġc",
        "ool"
      ],
      [
        "Ġc",
        "orn"
      ],
      [
        "ed",
        "y"
      ],
      [
        "Ġd",
        "ri"
      ],
      [
        "Ġd",
        "ur"
      ],
      [
        "Ġd",
        "ist"
      ],
      [
        "Ġd",
        "ump"
      ],
      [
        "Ġd",
        "amn"
      ],
      [
        "Ġl",
        "at"
      ],
      [
        "Ġl",
        "ear"
      ],
      [
        "as",
        "e"
      ],
      [
        "as",
        "on"
      ],
      [
        "Ġp",
        "o"
      ],
      [
        "Ġp",
        "ay"
      ],
      [
        "Ġp",
        "rom"
      ],
      [
        "Ġp",
        "ast"
      ],
      [
        "Ġp",
        "res"
      ],
      [
        "Ġp",
        "ass"
      ],
      [
        "Ġp",
        "ress"
      ],
      [
        "Ġp",
        "ark"
      ],
      [
        "Ġp",
        "assed"
      ],
      [
        "Ġp",
        "oss"
      ],
      [
        "Ġp",
        "ants"
      ],
      [
        "Ġp",
        "ictu"
      ],
      [
        "Ġg",
        "ame"
      ],
      [
        "ll",
        "s"
      ],
      [
        "it",
        "al"
      ],
      [
        "es",
        "p"
      ],
      [
        "Ġn",
        "ight"
      ],
      [
        "is",
        "e"
      ],
      [
        "en",
        "ch"
      ],
      [
        "Ġh",
        "on"
      ],
      [
        "Ġh",
        "it"
      ],
      [
        "at",
        "ing"
      ],
      [
        "us",
        "s"
      ],
      [
        "ay",
        "ers"
      ],
      [
        "Ġof",
        "fe"
      ],
      [
        "ow",
        "ing"
      ],
      [
        "Ġhe",
        "ar"
      ],
      [
        "Ġhe",
        "art"
      ],
      [
        "Ġfor",
        "m"
      ],
      [
        "Ġbe",
        "fore"
      ],
      [
        "Ġe",
        "ff"
      ],
      [
        "Ġe",
        "ach"
      ],
      [
        "Ġe",
        "mbar"
      ],
      [
        "Ġe",
        "yes"
      ],
      [
        "ke",
        "nd"
      ],
      [
        "Ġme",
        "an"
      ],
      [
        "Ġre",
        "j"
      ],
      [
        "Ġre",
        "l"
      ],
      [
        "Ġre",
        "p"
      ],
      [
        "Ġan",
        "gry"
      ],
      [
        "Ġan",
        "noy"
      ],
      [
        "Ġj",
        "our"
      ],
      [
        "Ġj",
        "eal"
      ],
      [
        "os",
        "p"
      ],
      [
        "Ġas",
        "s"
      ],
      [
        "Ġas",
        "so"
      ],
      [
        "Ġwor",
        "ld"
      ],
      [
        "Ġwor",
        "th"
      ],
      [
        "ra",
        "ged"
      ],
      [
        "Ġat",
        "e"
      ],
      [
        "ul",
        "ar"
      ],
      [
        "Ġal",
        "ive"
      ],
      [
        "Ġmo",
        "vie"
      ],
      [
        "end",
        "ing"
      ],
      [
        "ĠT",
        "hen"
      ],
      [
        "Ġwork",
        "ing"
      ],
      [
        "Ġex",
        "am"
      ],
      [
        "Ġsh",
        "ort"
      ],
      [
        "nt",
        "ing"
      ],
      [
        "nt",
        "ry"
      ],
      [
        "han",
        "k"
      ],
      [
        "Ġkn",
        "ew"
      ],
      [
        "Ġlo",
        "l"
      ],
      [
        "Ġlo",
        "ving"
      ],
      [
        "âĢ",
        "Ŀ"
      ],
      [
        "itt",
        "ed"
      ],
      [
        "Ġsp",
        "eci"
      ],
      [
        "Ġover",
        "whel"
      ],
      [
        "Ġwho",
        "le"
      ],
      [
        "ĠS",
        "o"
      ],
      [
        "Ġhow",
        "ever"
      ],
      [
        "Ġv",
        "is"
      ],
      [
        "Ġneed",
        "ed"
      ],
      [
        "ight",
        "ly"
      ],
      [
        "Ġag",
        "o"
      ],
      [
        "Ġbit",
        "coin"
      ],
      [
        "Ġwee",
        "ks"
      ],
      [
        "Ġwee",
        "kend"
      ],
      [
        "Ġcon",
        "f"
      ],
      [
        "Ġle",
        "ast"
      ],
      [
        "ard",
        "s"
      ],
      [
        "Ġbo",
        "dy"
      ],
      [
        "Ġgi",
        "ving"
      ],
      [
        "Ġgi",
        "ves"
      ],
      [
        "ie",
        "ve"
      ],
      [
        "Ġqu",
        "iet"
      ],
      [
        "Ġac",
        "cident"
      ],
      [
        "Ġim",
        "ag"
      ],
      [
        "Ġstu",
        "ff"
      ],
      [
        "Ġpr",
        "ot"
      ],
      [
        "Ġpre",
        "pa"
      ],
      [
        "Ġfa",
        "ct"
      ],
      [
        "Ġdi",
        "ffe"
      ],
      [
        "Ġstr",
        "ong"
      ],
      [
        "ak",
        "es"
      ],
      [
        "Ġapp",
        "re"
      ],
      [
        "Ġsha",
        "red"
      ],
      [
        "Ġpa",
        "rent"
      ],
      [
        "Ġper",
        "fect"
      ],
      [
        "Ġpro",
        "ba"
      ],
      [
        "Ġthr",
        "own"
      ],
      [
        "Ġsm",
        "ell"
      ],
      [
        "Ġdog",
        "s"
      ],
      [
        "Ġsupp",
        "ose"
      ],
      [
        "Ġneighbor",
        "s"
      ],
      [
        "ig",
        "n"
      ],
      [
        "ull",
        "y"
      ],
      [
        "Ġte",
        "am"
      ],
      [
        "Ġsl",
        "eep"
      ],
      [
        "Ġsl",
        "ightly"
      ],
      [
        "Ġsay",
        "ing"
      ],
      [
        "Ġdec",
        "ision"
      ],
      [
        "Ġtri",
        "p"
      ],
      [
        "Ġcall",
        "ed"
      ],
      [
        "Ġdoes",
        "n"
      ],
      [
        "Ġask",
        "ed"
      ],
      [
        "Ġcont",
        "ent"
      ],
      [
        "app",
        "y"
      ],
      [
        "Ġself",
        "ish"
      ],
      [
        "Ġbro",
        "ke"
      ],
      [
        "Ġcou",
        "ntry"
      ],
      [
        "Ġlate",
        "ly"
      ],
      [
        "Ġbeg",
        "an"
      ],
      [
        "Ġanxi",
        "ety"
      ],
      [
        "Ġent",
        "ire"
      ],
      [
        "Ġcreat",
        "ive"
      ],
      [
        "Ġstre",
        "et"
      ],
      [
        "Ġkind",
        "a"
      ],
      [
        "Ġsurpris",
        "ed"
      ],
      [
        "Ġgift",
        "s"
      ],
      [
        "Ġcomplet",
        "ely"
      ],
      [
        "Ġaccept",
        "ed"
      ],
      [
        "Ġmonth",
        "s"
      ],
      [
        "az",
        "ing"
      ],
      [
        "ĠâĢ",
        "ľ"
      ],
      [
        "Ġapart",
        "ment"
      ],
      [
        "Ġwom",
        "an"
      ],
      [
        "Ġfat",
        "her"
      ],
      [
        "Ġmar",
        "ri"
      ],
      [
        "Ġbon",
        "us"
      ],
      [
        "erious",
        "ly"
      ],
      [
        "Ġdur",
        "ing"
      ],
      [
        "Ġposs",
        "ible"
      ],
      [
        "Ġoffe",
        "red"
      ],
      [
        "Ġeff",
        "ort"
      ],
      [
        "Ġjour",
        "nal"
      ],
      [
        "Ġjeal",
        "ous"
      ],
      [
        "Ġasso",
        "ci"
      ],
      [
        "Ġspeci",
        "al"
      ],
      [
        "Ġprepa",
        "red"
      ],
      [
        "Ġdiffe",
        "rent"
      ],
      [
        "Ġparent",
        "s"
      ],
      [
        "Ġproba",
        "bly"
      ],
      [
        "!",
        "âĢĿ"
      ],
      [
        "'",
        "d"
      ],
      [
        "0",
        "1"
      ],
      [
        "2",
        "01"
      ],
      [
        ":",
        ")"
      ],
      [
        "A",
        "nd"
      ],
      [
        "D",
        "amn"
      ],
      [
        "F",
        "uck"
      ],
      [
        "G",
        "lad"
      ],
      [
        "H",
        "E"
      ],
      [
        "H",
        "on"
      ],
      [
        "H",
        "ad"
      ],
      [
        "I",
        "G"
      ],
      [
        "I",
        "L"
      ],
      [
        "I",
        "N"
      ],
      [
        "I",
        "f"
      ],
      [
        "O",
        "U"
      ],
      [
        "O",
        "h"
      ],
      [
        "O",
        "ne"
      ],
      [
        "O",
        "IN"
      ],
      [
        "S",
        "h"
      ],
      [
        "S",
        "o"
      ],
      [
        "T",
        "T"
      ],
      [
        "T",
        "here"
      ],
      [
        "T",
        "hank"
      ],
      [
        "V",
        "er"
      ],
      [
        "W",
        "h"
      ],
      [
        "W",
        "hat"
      ],
      [
        "W",
        "ow"
      ],
      [
        "W",
        "ent"
      ],
      [
        "Y",
        "e"
      ],
      [
        "Y",
        "our"
      ],
      [
        "Y",
        "OU"
      ],
      [
        "]",
        ","
      ],
      [
        "a",
        "h"
      ],
      [
        "a",
        "ck"
      ],
      [
        "a",
        "rent"
      ],
      [
        "b",
        "l"
      ],
      [
        "b",
        "o"
      ],
      [
        "b",
        "r"
      ],
      [
        "b",
        "s"
      ],
      [
        "b",
        "ul"
      ],
      [
        "b",
        "ell"
      ],
      [
        "b",
        "ile"
      ],
      [
        "c",
        "y"
      ],
      [
        "c",
        "on"
      ],
      [
        "c",
        "es"
      ],
      [
        "c",
        "al"
      ],
      [
        "c",
        "hen"
      ],
      [
        "c",
        "her"
      ],
      [
        "c",
        "hel"
      ],
      [
        "d",
        "d"
      ],
      [
        "d",
        "ent"
      ],
      [
        "e",
        "f"
      ],
      [
        "e",
        "at"
      ],
      [
        "e",
        "ad"
      ],
      [
        "e",
        "red"
      ],
      [
        "e",
        "ge"
      ],
      [
        "f",
        "ter"
      ],
      [
        "f",
        "fect"
      ],
      [
        "f",
        "ied"
      ],
      [
        "f",
        "ully"
      ],
      [
        "g",
        "es"
      ],
      [
        "g",
        "ling"
      ],
      [
        "h",
        "u"
      ],
      [
        "h",
        "ood"
      ],
      [
        "i",
        "f"
      ],
      [
        "i",
        "p"
      ],
      [
        "i",
        "er"
      ],
      [
        "i",
        "ot"
      ],
      [
        "j",
        "oy"
      ],
      [
        "k",
        "en"
      ],
      [
        "l",
        "f"
      ],
      [
        "l",
        "ed"
      ],
      [
        "l",
        "ine"
      ],
      [
        "l",
        "oy"
      ],
      [
        "l",
        "esome"
      ],
      [
        "l",
        "ieve"
      ],
      [
        "m",
        "m"
      ],
      [
        "m",
        "in"
      ],
      [
        "m",
        "or"
      ],
      [
        "m",
        "other"
      ],
      [
        "m",
        "itted"
      ],
      [
        "n",
        "y"
      ],
      [
        "n",
        "er"
      ],
      [
        "n",
        "ter"
      ],
      [
        "o",
        "c"
      ],
      [
        "o",
        "ot"
      ],
      [
        "o",
        "red"
      ],
      [
        "o",
        "nder"
      ],
      [
        "p",
        "l"
      ],
      [
        "p",
        "ort"
      ],
      [
        "r",
        "ow"
      ],
      [
        "r",
        "ass"
      ],
      [
        "r",
        "ated"
      ],
      [
        "r",
        "assed"
      ],
      [
        "r",
        "oss"
      ],
      [
        "s",
        "ul"
      ],
      [
        "t",
        "en"
      ],
      [
        "t",
        "hat"
      ],
      [
        "t",
        "ic"
      ],
      [
        "t",
        "un"
      ],
      [
        "u",
        "p"
      ],
      [
        "u",
        "it"
      ],
      [
        "u",
        "al"
      ],
      [
        "u",
        "res"
      ],
      [
        "u",
        "mb"
      ],
      [
        "u",
        "per"
      ],
      [
        "u",
        "de"
      ],
      [
        "u",
        "bl"
      ],
      [
        "v",
        "as"
      ],
      [
        "v",
        "ast"
      ],
      [
        "w",
        "hile"
      ],
      [
        "y",
        "m"
      ],
      [
        "y",
        "friend"
      ],
      [
        "y",
        "pe"
      ],
      [
        "z",
        "y"
      ],
      [
        "Ġ",
        "\""
      ],
      [
        "Ġ",
        "$"
      ],
      [
        "Ġ",
        "9"
      ],
      [
        "Ġ",
        "ve"
      ],
      [
        "Ġ",
        "You"
      ],
      [
        "Ġ",
        "**"
      ],
      [
        "Ġ",
        "YOU"
      ],
      [
        "ĺ",
        "ðŁĺ"
      ],
      [
        "Ġt",
        "re"
      ],
      [
        "Ġt",
        "er"
      ],
      [
        "Ġt",
        "ro"
      ],
      [
        "Ġt",
        "ell"
      ],
      [
        "Ġt",
        "ick"
      ],
      [
        "Ġt",
        "aking"
      ],
      [
        "Ġt",
        "ired"
      ],
      [
        "Ġt",
        "ype"
      ],
      [
        "Ġa",
        "ch"
      ],
      [
        "in",
        "ut"
      ],
      [
        "in",
        "ess"
      ],
      [
        "he",
        "ther"
      ],
      [
        "Ġw",
        "at"
      ],
      [
        "Ġw",
        "us"
      ],
      [
        "Ġw",
        "all"
      ],
      [
        "Ġw",
        "ished"
      ],
      [
        "Ġw",
        "oke"
      ],
      [
        "Ġw",
        "onder"
      ],
      [
        "Ġw",
        "hether"
      ],
      [
        "Ġf",
        "l"
      ],
      [
        "Ġf",
        "re"
      ],
      [
        "Ġf",
        "ly"
      ],
      [
        "Ġf",
        "ear"
      ],
      [
        "Ġf",
        "ive"
      ],
      [
        "Ġf",
        "est"
      ],
      [
        "Ġf",
        "ell"
      ],
      [
        "Ġf",
        "ans"
      ],
      [
        "Ġs",
        "om"
      ],
      [
        "Ġs",
        "is"
      ],
      [
        "Ġs",
        "ke"
      ],
      [
        "Ġs",
        "ent"
      ],
      [
        "Ġs",
        "ci"
      ],
      [
        "Ġs",
        "ell"
      ],
      [
        "Ġs",
        "ick"
      ],
      [
        "Ġs",
        "ign"
      ],
      [
        "Ġm",
        "et"
      ],
      [
        "Ġm",
        "ind"
      ],
      [
        "Ġm",
        "ine"
      ],
      [
        "Ġm",
        "other"
      ],
      [
        "Ġm",
        "ark"
      ],
      [
        "Ġm",
        "eet"
      ],
      [
        "Ġm",
        "inut"
      ],
      [
        "re",
        "ly"
      ],
      [
        "re",
        "am"
      ],
      [
        "Ġb",
        "or"
      ],
      [
        "Ġb",
        "om"
      ],
      [
        "Ġb",
        "ar"
      ],
      [
        "Ġb",
        "ri"
      ],
      [
        "Ġb",
        "all"
      ],
      [
        "Ġb",
        "other"
      ],
      [
        "Ġb",
        "ig"
      ],
      [
        "Ġb",
        "ump"
      ],
      [
        "Ġb",
        "ench"
      ],
      [
        "ing",
        "le"
      ],
      [
        "Ġi",
        "ll"
      ],
      [
        "Ġi",
        "ve"
      ],
      [
        "ha",
        "ps"
      ],
      [
        "nd",
        "ay"
      ],
      [
        "nd",
        "mother"
      ],
      [
        "er",
        "ing"
      ],
      [
        "er",
        "ty"
      ],
      [
        "Ġo",
        "pt"
      ],
      [
        "Ġc",
        "e"
      ],
      [
        "Ġc",
        "re"
      ],
      [
        "Ġc",
        "ha"
      ],
      [
        "Ġc",
        "at"
      ],
      [
        "Ġc",
        "op"
      ],
      [
        "Ġc",
        "ro"
      ],
      [
        "Ġc",
        "our"
      ],
      [
        "Ġc",
        "atching"
      ],
      [
        "or",
        "m"
      ],
      [
        "or",
        "s"
      ],
      [
        "or",
        "on"
      ],
      [
        "or",
        "ge"
      ],
      [
        "ed",
        "ay"
      ],
      [
        "Ġd",
        "an"
      ],
      [
        "Ġd",
        "et"
      ],
      [
        "Ġd",
        "ro"
      ],
      [
        "Ġd",
        "ark"
      ],
      [
        "Ġl",
        "ay"
      ],
      [
        "Ġl",
        "one"
      ],
      [
        "Ġl",
        "ink"
      ],
      [
        "Ġl",
        "etter"
      ],
      [
        "Ġl",
        "and"
      ],
      [
        "Ġl",
        "uck"
      ],
      [
        "Ġl",
        "ady"
      ],
      [
        "Ġl",
        "au"
      ],
      [
        "as",
        "ter"
      ],
      [
        "as",
        "ant"
      ],
      [
        "Ġp",
        "ot"
      ],
      [
        "Ġp",
        "ri"
      ],
      [
        "Ġp",
        "ick"
      ],
      [
        "Ġp",
        "ull"
      ],
      [
        "Ġp",
        "ump"
      ],
      [
        "Ġg",
        "en"
      ],
      [
        "Ġg",
        "ent"
      ],
      [
        "Ġg",
        "one"
      ],
      [
        "Ġg",
        "ive"
      ],
      [
        "Ġg",
        "ave"
      ],
      [
        "Ġg",
        "orge"
      ],
      [
        "on",
        "s"
      ],
      [
        "ĠI",
        "S"
      ],
      [
        "Ġfee",
        "t"
      ],
      [
        "it",
        "ive"
      ],
      [
        "it",
        "chen"
      ],
      [
        "om",
        "ach"
      ],
      [
        "ar",
        "i"
      ],
      [
        "ar",
        "y"
      ],
      [
        "Ġn",
        "er"
      ],
      [
        "Ġn",
        "one"
      ],
      [
        "Ġn",
        "orm"
      ],
      [
        "Ġha",
        "ll"
      ],
      [
        "Ġha",
        "te"
      ],
      [
        "Ġh",
        "o"
      ],
      [
        "Ġh",
        "ill"
      ],
      [
        "Ġwas",
        "nt"
      ],
      [
        "an",
        "e"
      ],
      [
        "ot",
        "e"
      ],
      [
        "ot",
        "os"
      ],
      [
        "Ġin",
        "c"
      ],
      [
        "Ġin",
        "f"
      ],
      [
        "Ġin",
        "v"
      ],
      [
        "Ġin",
        "st"
      ],
      [
        "Ġin",
        "sp"
      ],
      [
        "at",
        "h"
      ],
      [
        "at",
        "ive"
      ],
      [
        "ve",
        "l"
      ],
      [
        "ve",
        "ling"
      ],
      [
        "ay",
        "be"
      ],
      [
        "Ġth",
        "ing"
      ],
      [
        "Ġth",
        "ree"
      ],
      [
        "Ġhe",
        "s"
      ],
      [
        "Ġhe",
        "al"
      ],
      [
        "Ġfor",
        "get"
      ],
      [
        "Ġfor",
        "tun"
      ],
      [
        "Ġbe",
        "com"
      ],
      [
        "Ġbe",
        "lieve"
      ],
      [
        "Ġy",
        "et"
      ],
      [
        "Ġe",
        "as"
      ],
      [
        "Ġe",
        "ar"
      ],
      [
        "Ġe",
        "mp"
      ],
      [
        "Ġe",
        "ffect"
      ],
      [
        "Ġre",
        "t"
      ],
      [
        "Ġre",
        "le"
      ],
      [
        "Ġre",
        "fe"
      ],
      [
        "Ġre",
        "ass"
      ],
      [
        "Ġre",
        "cently"
      ],
      [
        "Ġre",
        "sul"
      ],
      [
        "Ġst",
        "and"
      ],
      [
        "Ġst",
        "ressed"
      ],
      [
        "Ġst",
        "omach"
      ],
      [
        "al",
        "m"
      ],
      [
        "al",
        "ent"
      ],
      [
        "ri",
        "ght"
      ],
      [
        "ri",
        "ble"
      ],
      [
        "Ġon",
        "line"
      ],
      [
        "ter",
        "y"
      ],
      [
        "ut",
        "h"
      ],
      [
        "ut",
        "ely"
      ],
      [
        "Ġan",
        "im"
      ],
      [
        "all",
        "ed"
      ],
      [
        "Ġli",
        "ed"
      ],
      [
        "Ġli",
        "ving"
      ],
      [
        "Ġli",
        "ves"
      ],
      [
        "ck",
        "s"
      ],
      [
        "im",
        "b"
      ],
      [
        "im",
        "es"
      ],
      [
        "os",
        "ed"
      ],
      [
        "ld",
        "ing"
      ],
      [
        "Ġu",
        "nt"
      ],
      [
        "am",
        "ed"
      ],
      [
        "ce",
        "ful"
      ],
      [
        "ce",
        "mber"
      ],
      [
        "ion",
        "ate"
      ],
      [
        "Ġam",
        "used"
      ],
      [
        "Ġam",
        "azing"
      ],
      [
        "Ġdo",
        "or"
      ],
      [
        "Ġdo",
        "lls"
      ],
      [
        "ust",
        "ral"
      ],
      [
        "Ġk",
        "itchen"
      ],
      [
        "Ġwor",
        "se"
      ],
      [
        "ra",
        "id"
      ],
      [
        "ra",
        "ge"
      ],
      [
        "pp",
        "ed"
      ],
      [
        "Ġnot",
        "ic"
      ],
      [
        "Ġnot",
        "hing"
      ],
      [
        "el",
        "ess"
      ],
      [
        "Ġal",
        "one"
      ],
      [
        "Ġal",
        "right"
      ],
      [
        "Ġgo",
        "es"
      ],
      [
        "Ġne",
        "cess"
      ],
      [
        "op",
        "erty"
      ],
      [
        "Ġmo",
        "d"
      ],
      [
        "Ġmo",
        "ving"
      ],
      [
        "Ġmo",
        "ved"
      ],
      [
        "Ġmo",
        "bile"
      ],
      [
        "Ġmo",
        "nday"
      ],
      [
        "end",
        "ed"
      ],
      [
        "ĠT",
        "hat"
      ],
      [
        "ĠT",
        "his"
      ],
      [
        "ĠT",
        "HE"
      ],
      [
        "Ġcan",
        "not"
      ],
      [
        "Ġcan",
        "vas"
      ],
      [
        "Ġba",
        "g"
      ],
      [
        "Ġba",
        "nd"
      ],
      [
        "Ġba",
        "by"
      ],
      [
        "Ġba",
        "chel"
      ],
      [
        "Ġex",
        "t"
      ],
      [
        "Ġex",
        "cept"
      ],
      [
        "Ġsh",
        "itt"
      ],
      [
        "Ġsh",
        "irt"
      ],
      [
        "Ġsh",
        "opp"
      ],
      [
        "ate",
        "ly"
      ],
      [
        "Ġdid",
        "nt"
      ],
      [
        "Ġlo",
        "ves"
      ],
      [
        "Ġlo",
        "ved"
      ],
      [
        "Ġfri",
        "day"
      ],
      [
        "Ġde",
        "p"
      ],
      [
        "Ġde",
        "vast"
      ],
      [
        "itt",
        "ing"
      ],
      [
        "est",
        "ly"
      ],
      [
        "Ġsp",
        "ot"
      ],
      [
        "Ġsp",
        "ent"
      ],
      [
        "Ġsp",
        "end"
      ],
      [
        "Ġsp",
        "ace"
      ],
      [
        "Ġwho",
        "lesome"
      ],
      [
        "ĠS",
        "t"
      ],
      [
        "Ġus",
        "ually"
      ],
      [
        "Ġany",
        "more"
      ],
      [
        "il",
        "ing"
      ],
      [
        "un",
        "ch"
      ],
      [
        "Ġsee",
        "ing"
      ],
      [
        "Ġcl",
        "imb"
      ],
      [
        "qu",
        "ently"
      ],
      [
        "Ġaf",
        "raid"
      ],
      [
        "Ġar",
        "ms"
      ],
      [
        "ci",
        "ate"
      ],
      [
        "ĠH",
        "ow"
      ],
      [
        "ĠH",
        "appy"
      ],
      [
        "Ġhim",
        "self"
      ],
      [
        "Ġun",
        "less"
      ],
      [
        "pt",
        "ical"
      ],
      [
        "Ġthan",
        "k"
      ],
      [
        "Ġthan",
        "ks"
      ],
      [
        "Ġsa",
        "ve"
      ],
      [
        "Ġsa",
        "id"
      ],
      [
        "Ġother",
        "s"
      ],
      [
        "ĠW",
        "hen"
      ],
      [
        "ĠW",
        "ould"
      ],
      [
        "Ġfi",
        "g"
      ],
      [
        "Ġbo",
        "at"
      ],
      [
        "Ġbo",
        "ard"
      ],
      [
        "Ġbo",
        "yfriend"
      ],
      [
        "Ġca",
        "re"
      ],
      [
        "Ġca",
        "use"
      ],
      [
        "Ġpl",
        "ay"
      ],
      [
        "Ġgi",
        "ven"
      ],
      [
        "Ġen",
        "g"
      ],
      [
        "Ġen",
        "er"
      ],
      [
        "Ġen",
        "ough"
      ],
      [
        "Ġen",
        "cou"
      ],
      [
        "Ġen",
        "joy"
      ],
      [
        "Ġac",
        "ross"
      ],
      [
        "Ġstu",
        "bb"
      ],
      [
        "Ġstu",
        "dent"
      ],
      [
        "Ġwr",
        "ite"
      ],
      [
        "Ġwr",
        "iting"
      ],
      [
        "Ġpr",
        "oud"
      ],
      [
        "Ġpr",
        "ayers"
      ],
      [
        "Ġpr",
        "operty"
      ],
      [
        "Ġhapp",
        "ened"
      ],
      [
        "Ġoff",
        "ice"
      ],
      [
        "ect",
        "ion"
      ],
      [
        "ĠA",
        "m"
      ],
      [
        "ĠB",
        "l"
      ],
      [
        "ĠB",
        "ut"
      ],
      [
        "Ġfa",
        "ith"
      ],
      [
        "Ġfa",
        "bul"
      ],
      [
        "Ġbl",
        "og"
      ],
      [
        "Ġbl",
        "ond"
      ],
      [
        "Ġbl",
        "amed"
      ],
      [
        "Ġlook",
        "s"
      ],
      [
        "Ġgood",
        "by"
      ],
      [
        "Ġhelp",
        "s"
      ],
      [
        "Ġrem",
        "ain"
      ],
      [
        "Ġstr",
        "ug"
      ],
      [
        "Ġjob",
        "s"
      ],
      [
        "Ġapp",
        "l"
      ],
      [
        "Ġapp",
        "arent"
      ],
      [
        "Ġapp",
        "alled"
      ],
      [
        "Ġse",
        "ason"
      ],
      [
        "Ġsha",
        "re"
      ],
      [
        "Ġdis",
        "g"
      ],
      [
        "Ġdis",
        "app"
      ],
      [
        "Ġdis",
        "cou"
      ],
      [
        "Ġpa",
        "ir"
      ],
      [
        "Ġper",
        "for"
      ],
      [
        "Ġper",
        "haps"
      ],
      [
        "Ġpro",
        "f"
      ],
      [
        "Ġgu",
        "ess"
      ],
      [
        "Ġevery",
        "one"
      ],
      [
        "ol",
        "ent"
      ],
      [
        "ĠN",
        "ot"
      ],
      [
        "ĠN",
        "ow"
      ],
      [
        "Ġaw",
        "ake"
      ],
      [
        "Ġaw",
        "ful"
      ],
      [
        "Ġaw",
        "esome"
      ],
      [
        "Ġsw",
        "im"
      ],
      [
        "Ġsw",
        "eet"
      ],
      [
        "Ġsound",
        "ed"
      ],
      [
        "Ġmiss",
        "ed"
      ],
      [
        "Ġlot",
        "tery"
      ],
      [
        "Ġpain",
        "ful"
      ],
      [
        "Ġpart",
        "s"
      ],
      [
        "ĠThe",
        "y"
      ],
      [
        "Ġra",
        "rely"
      ],
      [
        "Ġte",
        "xt"
      ],
      [
        "Ġtr",
        "uth"
      ],
      [
        "Ġfind",
        "ing"
      ],
      [
        "Ġbr",
        "ought"
      ],
      [
        "Ġgra",
        "ndmother"
      ],
      [
        "Ġgra",
        "ceful"
      ],
      [
        "Ġhand",
        "s"
      ],
      [
        "Ġhand",
        "led"
      ],
      [
        "Ġhu",
        "m"
      ],
      [
        "Ġhu",
        "nting"
      ],
      [
        "Ġdec",
        "id"
      ],
      [
        "!!",
        "!"
      ],
      [
        "ĠO",
        "r"
      ],
      [
        "Ġtri",
        "ed"
      ],
      [
        "Ġpet",
        "ron"
      ],
      [
        "Ġgre",
        "edy"
      ],
      [
        "Ġwear",
        "ing"
      ],
      [
        "Ġcont",
        "act"
      ],
      [
        "HA",
        "HA"
      ],
      [
        "bb",
        "ing"
      ],
      [
        "eci",
        "ally"
      ],
      [
        "ĠL",
        "ove"
      ],
      [
        "Ġtalk",
        "ing"
      ],
      [
        "Ġche",
        "ating"
      ],
      [
        "Ġcou",
        "ple"
      ],
      [
        "Ġcut",
        "e"
      ],
      [
        "Ġhur",
        "ry"
      ],
      [
        "Ġstor",
        "y"
      ],
      [
        "Ġstor",
        "ies"
      ],
      [
        "Ġanxi",
        "ous"
      ],
      [
        "Ġgirl",
        "s"
      ],
      [
        "Ġgirl",
        "friend"
      ],
      [
        "Ġinterest",
        "ing"
      ],
      [
        "Ġinterest",
        "ed"
      ],
      [
        "Aw",
        "w"
      ],
      [
        "Aw",
        "esome"
      ],
      [
        "To",
        "day"
      ],
      [
        "rit",
        "ated"
      ],
      [
        "Ġke",
        "y"
      ],
      [
        "Ġtra",
        "veling"
      ],
      [
        "Ġfil",
        "th"
      ],
      [
        "Ġfun",
        "ny"
      ],
      [
        "Ġsn",
        "ake"
      ],
      [
        "Ġmay",
        "be"
      ],
      [
        "Ġbra",
        "ve"
      ],
      [
        "Ġimp",
        "ressed"
      ],
      [
        "Ġcry",
        "ing"
      ],
      [
        "Ġpoint",
        "less"
      ],
      [
        "Ġhar",
        "d"
      ],
      [
        "Ġhor",
        "ses"
      ],
      [
        "Ġhor",
        "rible"
      ],
      [
        "Ġinter",
        "view"
      ],
      [
        "Ġel",
        "se"
      ],
      [
        "Ġel",
        "ses"
      ],
      [
        "Ġemotion",
        "s"
      ],
      [
        "Ġemotion",
        "ally"
      ],
      [
        "Ġyoung",
        "er"
      ],
      [
        "Ġvi",
        "olent"
      ],
      [
        "Ġru",
        "le"
      ],
      [
        "Ġcaus",
        "ing"
      ],
      [
        "Ġcaus",
        "es"
      ],
      [
        "Ġcoll",
        "ege"
      ],
      [
        "Ġgrou",
        "p"
      ],
      [
        "Ġstran",
        "ge"
      ],
      [
        "Ġstran",
        "ger"
      ],
      [
        "Ġsupport",
        "ive"
      ],
      [
        "Ġrealiz",
        "e"
      ],
      [
        "Ġrealiz",
        "ed"
      ],
      [
        "hic",
        "s"
      ],
      [
        "iv",
        "ity"
      ],
      [
        "uri",
        "ous"
      ],
      [
        "Ġ1",
        "0"
      ],
      [
        "Ġet",
        "c"
      ],
      [
        "Ġwar",
        "m"
      ],
      [
        "Ġfore",
        "ver"
      ],
      [
        "Ġsens",
        "itive"
      ],
      [
        "Ġbu",
        "y"
      ],
      [
        "Ġbal",
        "con"
      ],
      [
        "Ġid",
        "iot"
      ],
      [
        "Ġir",
        "ritated"
      ],
      [
        "Ġcra",
        "zy"
      ],
      [
        "Ġcorn",
        "ers"
      ],
      [
        "Ġdist",
        "ress"
      ],
      [
        "Ġlear",
        "ned"
      ],
      [
        "Ġpo",
        "or"
      ],
      [
        "Ġprom",
        "otion"
      ],
      [
        "Ġpass",
        "ionate"
      ],
      [
        "Ġpictu",
        "re"
      ],
      [
        "esp",
        "ite"
      ],
      [
        "Ġhon",
        "ored"
      ],
      [
        "Ġembar",
        "rassed"
      ],
      [
        "Ġrel",
        "a"
      ],
      [
        "Ġannoy",
        "ed"
      ],
      [
        "osp",
        "ital"
      ],
      [
        "Ġass",
        "ured"
      ],
      [
        "Ġworth",
        "while"
      ],
      [
        "Ġoverwhel",
        "med"
      ],
      [
        "Ġvis",
        "it"
      ],
      [
        "Ġconf",
        "ident"
      ],
      [
        "Ġimag",
        "ine"
      ],
      [
        "Ġfact",
        "or"
      ],
      [
        "Ġappre",
        "ciate"
      ],
      [
        "Ġmarri",
        "age"
      ],
      [
        "Ġassoci",
        "ations"
      ],
      [
        "Hon",
        "estly"
      ],
      [
        "IL",
        "L"
      ],
      [
        "Ver",
        "y"
      ],
      [
        "Ye",
        "ah"
      ],
      [
        "bo",
        "dy"
      ],
      [
        "Ġter",
        "ri"
      ],
      [
        "Ġtick",
        "et"
      ],
      [
        "Ġwus",
        "hu"
      ],
      [
        "Ġwall",
        "et"
      ],
      [
        "Ġfly",
        "ing"
      ],
      [
        "Ġfest",
        "ive"
      ],
      [
        "Ġsom",
        "eday"
      ],
      [
        "Ġsis",
        "ter"
      ],
      [
        "Ġske",
        "ptical"
      ],
      [
        "Ġsci",
        "ence"
      ],
      [
        "Ġmark",
        "et"
      ],
      [
        "Ġbom",
        "bs"
      ],
      [
        "Ġcour",
        "se"
      ],
      [
        "Ġlone",
        "ly"
      ],
      [
        "Ġluck",
        "y"
      ],
      [
        "Ġlau",
        "g"
      ],
      [
        "Ġpri",
        "v"
      ],
      [
        "Ġpull",
        "ed"
      ],
      [
        "Ġgen",
        "er"
      ],
      [
        "Ġgent",
        "le"
      ],
      [
        "Ġgorge",
        "ous"
      ],
      [
        "Ġinst",
        "ead"
      ],
      [
        "Ġfortun",
        "ately"
      ],
      [
        "Ġemp",
        "loy"
      ],
      [
        "Ġreass",
        "ured"
      ],
      [
        "Ġunt",
        "il"
      ],
      [
        "ustral",
        "ia"
      ],
      [
        "Ġnotic",
        "ed"
      ],
      [
        "Ġbachel",
        "or"
      ],
      [
        "Ġshitt",
        "y"
      ],
      [
        "Ġstubb",
        "orn"
      ],
      [
        "Ġstudent",
        "s"
      ],
      [
        "Ġfabul",
        "ous"
      ],
      [
        "Ġblond",
        "e"
      ],
      [
        "Ġgoodby",
        "e"
      ],
      [
        "Ġstrug",
        "gling"
      ],
      [
        "Ġapparent",
        "ly"
      ],
      [
        "Ġdisapp",
        "oint"
      ],
      [
        "Ġdiscou",
        "raged"
      ],
      [
        "Ġpetron",
        "as"
      ],
      [
        "Ġbalcon",
        "y"
      ],
      [
        "%",
        "?"
      ],
      [
        "'",
        "ve"
      ],
      [
        ".",
        "\""
      ],
      [
        "1",
        "1"
      ],
      [
        "1",
        "8"
      ],
      [
        "2",
        "9"
      ],
      [
        "6",
        "3"
      ],
      [
        "7",
        "0"
      ],
      [
        ":",
        "/"
      ],
      [
        "?",
        "!!"
      ],
      [
        "?",
        "!âĢĿ"
      ],
      [
        "A",
        "S"
      ],
      [
        "A",
        "Y"
      ],
      [
        "A",
        "b"
      ],
      [
        "A",
        "p"
      ],
      [
        "A",
        "t"
      ],
      [
        "A",
        "y"
      ],
      [
        "A",
        "ll"
      ],
      [
        "A",
        "fter"
      ],
      [
        "A",
        "ustralia"
      ],
      [
        "B",
        "I"
      ],
      [
        "B",
        "y"
      ],
      [
        "C",
        "E"
      ],
      [
        "C",
        "K"
      ],
      [
        "C",
        "U"
      ],
      [
        "C",
        "he"
      ],
      [
        "C",
        "le"
      ],
      [
        "C",
        "ol"
      ],
      [
        "D",
        "on"
      ],
      [
        "D",
        "et"
      ],
      [
        "D",
        "ir"
      ],
      [
        "D",
        "el"
      ],
      [
        "D",
        "em"
      ],
      [
        "D",
        "ude"
      ],
      [
        "E",
        "N"
      ],
      [
        "E",
        "R"
      ],
      [
        "E",
        "S"
      ],
      [
        "E",
        "V"
      ],
      [
        "E",
        "l"
      ],
      [
        "E",
        "y"
      ],
      [
        "E",
        "very"
      ],
      [
        "E",
        "sp"
      ],
      [
        "F",
        "s"
      ],
      [
        "F",
        "in"
      ],
      [
        "F",
        "am"
      ],
      [
        "F",
        "BI"
      ],
      [
        "G",
        "en"
      ],
      [
        "G",
        "ood"
      ],
      [
        "H",
        "T"
      ],
      [
        "H",
        "Y"
      ],
      [
        "H",
        "is"
      ],
      [
        "H",
        "ell"
      ],
      [
        "H",
        "HA"
      ],
      [
        "H",
        "appy"
      ],
      [
        "I",
        "O"
      ],
      [
        "I",
        "CE"
      ],
      [
        "J",
        "ed"
      ],
      [
        "K",
        "ind"
      ],
      [
        "K",
        "ILL"
      ],
      [
        "L",
        "O"
      ],
      [
        "L",
        "or"
      ],
      [
        "L",
        "ook"
      ],
      [
        "L",
        "ol"
      ],
      [
        "L",
        "ending"
      ],
      [
        "L",
        "IG"
      ],
      [
        "L",
        "ES"
      ],
      [
        "M",
        "ine"
      ],
      [
        "M",
        "aybe"
      ],
      [
        "N",
        "o"
      ],
      [
        "N",
        "ot"
      ],
      [
        "N",
        "ow"
      ],
      [
        "N",
        "ever"
      ],
      [
        "O",
        "W"
      ],
      [
        "O",
        "f"
      ],
      [
        "O",
        "k"
      ],
      [
        "O",
        "m"
      ],
      [
        "O",
        "o"
      ],
      [
        "P",
        "T"
      ],
      [
        "P",
        "re"
      ],
      [
        "P",
        "er"
      ],
      [
        "P",
        "ay"
      ],
      [
        "P",
        "eople"
      ],
      [
        "P",
        "EN"
      ],
      [
        "Q",
        "u"
      ],
      [
        "R",
        "e"
      ],
      [
        "S",
        "k"
      ],
      [
        "S",
        "l"
      ],
      [
        "S",
        "n"
      ],
      [
        "S",
        "t"
      ],
      [
        "S",
        "ome"
      ],
      [
        "S",
        "omet"
      ],
      [
        "S",
        "ack"
      ],
      [
        "S",
        "uper"
      ],
      [
        "T",
        "h"
      ],
      [
        "T",
        "w"
      ],
      [
        "T",
        "ro"
      ],
      [
        "T",
        "our"
      ],
      [
        "T",
        "wo"
      ],
      [
        "T",
        "ILL"
      ],
      [
        "U",
        "g"
      ],
      [
        "U",
        "p"
      ],
      [
        "U",
        "CK"
      ],
      [
        "V",
        "iew"
      ],
      [
        "W",
        "ait"
      ],
      [
        "W",
        "HA"
      ],
      [
        "W",
        "HY"
      ],
      [
        "Y",
        "es"
      ],
      [
        "Y",
        "et"
      ],
      [
        "Y",
        "esterday"
      ],
      [
        "Z",
        "eal"
      ],
      [
        "]",
        "!"
      ],
      [
        "]",
        "."
      ],
      [
        "]",
        "?"
      ],
      [
        "]",
        "..."
      ],
      [
        "a",
        "f"
      ],
      [
        "a",
        "o"
      ],
      [
        "a",
        "v"
      ],
      [
        "a",
        "w"
      ],
      [
        "a",
        "ir"
      ],
      [
        "a",
        "fe"
      ],
      [
        "a",
        "il"
      ],
      [
        "a",
        "ff"
      ],
      [
        "a",
        "xi"
      ],
      [
        "a",
        "ps"
      ],
      [
        "a",
        "pid"
      ],
      [
        "b",
        "i"
      ],
      [
        "b",
        "in"
      ],
      [
        "b",
        "er"
      ],
      [
        "b",
        "on"
      ],
      [
        "b",
        "ot"
      ],
      [
        "b",
        "and"
      ],
      [
        "b",
        "ie"
      ],
      [
        "b",
        "age"
      ],
      [
        "b",
        "ited"
      ],
      [
        "c",
        "u"
      ],
      [
        "c",
        "he"
      ],
      [
        "c",
        "ha"
      ],
      [
        "c",
        "ed"
      ],
      [
        "c",
        "ter"
      ],
      [
        "c",
        "ent"
      ],
      [
        "c",
        "os"
      ],
      [
        "c",
        "our"
      ],
      [
        "c",
        "ur"
      ],
      [
        "c",
        "est"
      ],
      [
        "c",
        "il"
      ],
      [
        "c",
        "hed"
      ],
      [
        "c",
        "cess"
      ],
      [
        "c",
        "uss"
      ],
      [
        "c",
        "ane"
      ],
      [
        "d",
        "er"
      ],
      [
        "d",
        "it"
      ],
      [
        "d",
        "est"
      ],
      [
        "d",
        "ies"
      ],
      [
        "d",
        "ge"
      ],
      [
        "d",
        "ened"
      ],
      [
        "d",
        "ges"
      ],
      [
        "d",
        "oot"
      ],
      [
        "e",
        "p"
      ],
      [
        "e",
        "x"
      ],
      [
        "e",
        "ving"
      ],
      [
        "e",
        "ak"
      ],
      [
        "e",
        "ach"
      ],
      [
        "e",
        "ans"
      ],
      [
        "e",
        "ys"
      ],
      [
        "e",
        "cember"
      ],
      [
        "f",
        "y"
      ],
      [
        "f",
        "in"
      ],
      [
        "f",
        "ir"
      ],
      [
        "f",
        "el"
      ],
      [
        "f",
        "ind"
      ],
      [
        "f",
        "ort"
      ],
      [
        "f",
        "uck"
      ],
      [
        "f",
        "ree"
      ],
      [
        "f",
        "ice"
      ],
      [
        "f",
        "ao"
      ],
      [
        "g",
        "g"
      ],
      [
        "g",
        "n"
      ],
      [
        "g",
        "y"
      ],
      [
        "g",
        "ly"
      ],
      [
        "g",
        "ul"
      ],
      [
        "g",
        "ant"
      ],
      [
        "g",
        "ic"
      ],
      [
        "g",
        "ive"
      ],
      [
        "g",
        "ers"
      ],
      [
        "g",
        "ies"
      ],
      [
        "g",
        "age"
      ],
      [
        "g",
        "ical"
      ],
      [
        "g",
        "ular"
      ],
      [
        "h",
        "i"
      ],
      [
        "h",
        "o"
      ],
      [
        "h",
        "x"
      ],
      [
        "h",
        "in"
      ],
      [
        "h",
        "us"
      ],
      [
        "h",
        "ow"
      ],
      [
        "h",
        "op"
      ],
      [
        "h",
        "ould"
      ],
      [
        "h",
        "ound"
      ],
      [
        "h",
        "irt"
      ],
      [
        "h",
        "more"
      ],
      [
        "h",
        "otos"
      ],
      [
        "i",
        "k"
      ],
      [
        "i",
        "as"
      ],
      [
        "i",
        "ent"
      ],
      [
        "i",
        "est"
      ],
      [
        "i",
        "ated"
      ],
      [
        "i",
        "ff"
      ],
      [
        "i",
        "ven"
      ],
      [
        "i",
        "xt"
      ],
      [
        "i",
        "ps"
      ],
      [
        "j",
        "ust"
      ],
      [
        "j",
        "usting"
      ],
      [
        "j",
        "uri"
      ],
      [
        "k",
        "w"
      ],
      [
        "k",
        "in"
      ],
      [
        "k",
        "es"
      ],
      [
        "k",
        "ay"
      ],
      [
        "k",
        "ind"
      ],
      [
        "k",
        "ers"
      ],
      [
        "l",
        "t"
      ],
      [
        "l",
        "u"
      ],
      [
        "l",
        "in"
      ],
      [
        "l",
        "re"
      ],
      [
        "l",
        "ee"
      ],
      [
        "l",
        "er"
      ],
      [
        "l",
        "es"
      ],
      [
        "l",
        "ain"
      ],
      [
        "l",
        "ong"
      ],
      [
        "l",
        "ady"
      ],
      [
        "l",
        "eep"
      ],
      [
        "l",
        "ol"
      ],
      [
        "l",
        "ish"
      ],
      [
        "l",
        "ours"
      ],
      [
        "l",
        "ants"
      ],
      [
        "l",
        "come"
      ],
      [
        "l",
        "ier"
      ],
      [
        "l",
        "utely"
      ],
      [
        "l",
        "Ay"
      ],
      [
        "m",
        "a"
      ],
      [
        "m",
        "y"
      ],
      [
        "m",
        "ing"
      ],
      [
        "m",
        "ad"
      ],
      [
        "m",
        "iss"
      ],
      [
        "m",
        "and"
      ],
      [
        "m",
        "ely"
      ],
      [
        "m",
        "ark"
      ],
      [
        "m",
        "og"
      ],
      [
        "m",
        "ense"
      ],
      [
        "m",
        "osp"
      ],
      [
        "m",
        "ons"
      ],
      [
        "m",
        "ended"
      ],
      [
        "m",
        "fao"
      ],
      [
        "n",
        "a"
      ],
      [
        "n",
        "et"
      ],
      [
        "n",
        "am"
      ],
      [
        "n",
        "op"
      ],
      [
        "n",
        "ical"
      ],
      [
        "n",
        "ected"
      ],
      [
        "n",
        "cy"
      ],
      [
        "n",
        "ik"
      ],
      [
        "o",
        "x"
      ],
      [
        "o",
        "ll"
      ],
      [
        "o",
        "ck"
      ],
      [
        "o",
        "il"
      ],
      [
        "o",
        "xi"
      ],
      [
        "o",
        "ons"
      ],
      [
        "o",
        "kay"
      ],
      [
        "p",
        "ing"
      ],
      [
        "p",
        "an"
      ],
      [
        "p",
        "elt"
      ],
      [
        "p",
        "ens"
      ],
      [
        "p",
        "ical"
      ],
      [
        "p",
        "ected"
      ],
      [
        "p",
        "hmore"
      ],
      [
        "q",
        "af"
      ],
      [
        "r",
        "c"
      ],
      [
        "r",
        "f"
      ],
      [
        "r",
        "t"
      ],
      [
        "r",
        "ad"
      ],
      [
        "r",
        "ust"
      ],
      [
        "r",
        "ue"
      ],
      [
        "r",
        "ase"
      ],
      [
        "r",
        "ors"
      ],
      [
        "r",
        "ative"
      ],
      [
        "s",
        "a"
      ],
      [
        "s",
        "w"
      ],
      [
        "s",
        "ing"
      ],
      [
        "s",
        "ha"
      ],
      [
        "s",
        "or"
      ],
      [
        "s",
        "is"
      ],
      [
        "s",
        "et"
      ],
      [
        "s",
        "ter"
      ],
      [
        "s",
        "el"
      ],
      [
        "s",
        "ive"
      ],
      [
        "s",
        "ur"
      ],
      [
        "s",
        "eriously"
      ],
      [
        "s",
        "uit"
      ],
      [
        "s",
        "hirt"
      ],
      [
        "s",
        "lee"
      ],
      [
        "t",
        "f"
      ],
      [
        "t",
        "o"
      ],
      [
        "t",
        "p"
      ],
      [
        "t",
        "le"
      ],
      [
        "t",
        "ch"
      ],
      [
        "t",
        "ally"
      ],
      [
        "t",
        "ain"
      ],
      [
        "t",
        "orn"
      ],
      [
        "t",
        "able"
      ],
      [
        "t",
        "ure"
      ],
      [
        "t",
        "let"
      ],
      [
        "t",
        "rated"
      ],
      [
        "t",
        "iness"
      ],
      [
        "t",
        "ari"
      ],
      [
        "t",
        "rue"
      ],
      [
        "t",
        "tp"
      ],
      [
        "u",
        "m"
      ],
      [
        "u",
        "x"
      ],
      [
        "u",
        "et"
      ],
      [
        "u",
        "ter"
      ],
      [
        "u",
        "ght"
      ],
      [
        "u",
        "nt"
      ],
      [
        "u",
        "ble"
      ],
      [
        "u",
        "ine"
      ],
      [
        "u",
        "ven"
      ],
      [
        "u",
        "pid"
      ],
      [
        "u",
        "be"
      ],
      [
        "u",
        "mm"
      ],
      [
        "v",
        "u"
      ],
      [
        "v",
        "ar"
      ],
      [
        "v",
        "an"
      ],
      [
        "v",
        "ot"
      ],
      [
        "v",
        "id"
      ],
      [
        "v",
        "our"
      ],
      [
        "v",
        "ous"
      ],
      [
        "v",
        "ine"
      ],
      [
        "v",
        "ng"
      ],
      [
        "w",
        "ing"
      ],
      [
        "w",
        "or"
      ],
      [
        "w",
        "at"
      ],
      [
        "w",
        "el"
      ],
      [
        "w",
        "ell"
      ],
      [
        "w",
        "here"
      ],
      [
        "w",
        "ait"
      ],
      [
        "w",
        "eet"
      ],
      [
        "w",
        "orker"
      ],
      [
        "w",
        "ards"
      ],
      [
        "x",
        "m"
      ],
      [
        "x",
        "ing"
      ],
      [
        "x",
        "ed"
      ],
      [
        "y",
        "ou"
      ],
      [
        "y",
        "al"
      ],
      [
        "y",
        "our"
      ],
      [
        "y",
        "nt"
      ],
      [
        "y",
        "per"
      ],
      [
        "y",
        "man"
      ],
      [
        "y",
        "hound"
      ],
      [
        "y",
        "net"
      ],
      [
        "y",
        "pical"
      ],
      [
        "z",
        "es"
      ],
      [
        "z",
        "oo"
      ],
      [
        "z",
        "ards"
      ],
      [
        "Ġ",
        "!"
      ],
      [
        "Ġ",
        "#"
      ],
      [
        "Ġ",
        "("
      ],
      [
        "Ġ",
        "-"
      ],
      [
        "Ġ",
        "."
      ],
      [
        "Ġ",
        "/"
      ],
      [
        "Ġ",
        "4"
      ],
      [
        "Ġ",
        "<"
      ],
      [
        "Ġ",
        "ing"
      ],
      [
        "Ġ",
        "er"
      ],
      [
        "Ġ",
        "ed"
      ],
      [
        "Ġ",
        "es"
      ],
      [
        "Ġ",
        "ut"
      ],
      [
        "Ġ",
        "rom"
      ],
      [
        "Ġ",
        "est"
      ],
      [
        "Ġ",
        "200"
      ],
      [
        "Ġ",
        "Just"
      ],
      [
        "Ġ",
        "esp"
      ],
      [
        "Ġ",
        "201"
      ],
      [
        "Ġ",
        ":)"
      ],
      [
        "Ġ",
        "Very"
      ],
      [
        "Ġ",
        "29"
      ],
      [
        "Ġ",
        "63"
      ],
      [
        "Ġ",
        ":/"
      ],
      [
        "Ġ",
        "Gen"
      ],
      [
        "Ġ",
        "Jed"
      ],
      [
        "Ġ",
        "KILL"
      ],
      [
        "Ġ",
        "Qu"
      ],
      [
        "Ġ",
        "Zeal"
      ],
      [
        "Ġ",
        "qaf"
      ],
      [
        "Ġ",
        "zoo"
      ],
      [
        "Ġt",
        "O"
      ],
      [
        "Ġt",
        "v"
      ],
      [
        "Ġt",
        "ou"
      ],
      [
        "Ġt",
        "ar"
      ],
      [
        "Ġt",
        "ear"
      ],
      [
        "Ġt",
        "een"
      ],
      [
        "Ġt",
        "ough"
      ],
      [
        "Ġt",
        "reat"
      ],
      [
        "Ġt",
        "He"
      ],
      [
        "Ġt",
        "ire"
      ],
      [
        "Ġt",
        "akes"
      ],
      [
        "Ġt",
        "ip"
      ],
      [
        "Ġt",
        "ingle"
      ],
      [
        "Ġt",
        "alent"
      ],
      [
        "Ġt",
        "sa"
      ],
      [
        "Ġt",
        "weet"
      ],
      [
        "Ġa",
        "in"
      ],
      [
        "Ġa",
        "ver"
      ],
      [
        "Ġa",
        "ir"
      ],
      [
        "Ġa",
        "ct"
      ],
      [
        "Ġa",
        "iling"
      ],
      [
        "Ġa",
        "unt"
      ],
      [
        "in",
        "s"
      ],
      [
        "in",
        "ations"
      ],
      [
        "in",
        "ering"
      ],
      [
        "he",
        "s"
      ],
      [
        "he",
        "ll"
      ],
      [
        "he",
        "tic"
      ],
      [
        "Ġw",
        "re"
      ],
      [
        "Ġw",
        "it"
      ],
      [
        "Ġw",
        "ry"
      ],
      [
        "Ġw",
        "ind"
      ],
      [
        "Ġw",
        "eed"
      ],
      [
        "Ġw",
        "ood"
      ],
      [
        "Ġw",
        "ist"
      ],
      [
        "Ġw",
        "ide"
      ],
      [
        "Ġw",
        "atch"
      ],
      [
        "Ġw",
        "ish"
      ],
      [
        "Ġw",
        "rap"
      ],
      [
        "Ġw",
        "alm"
      ],
      [
        "Ġw",
        "tf"
      ],
      [
        "Ġf",
        "ed"
      ],
      [
        "Ġf",
        "ar"
      ],
      [
        "Ġf",
        "le"
      ],
      [
        "Ġf",
        "ut"
      ],
      [
        "Ġf",
        "ant"
      ],
      [
        "Ġf",
        "ake"
      ],
      [
        "Ġf",
        "our"
      ],
      [
        "Ġf",
        "res"
      ],
      [
        "Ġf",
        "ree"
      ],
      [
        "Ġf",
        "ence"
      ],
      [
        "Ġf",
        "ull"
      ],
      [
        "Ġf",
        "ron"
      ],
      [
        "Ġf",
        "itted"
      ],
      [
        "Ġf",
        "ully"
      ],
      [
        "Ġf",
        "eat"
      ],
      [
        "Ġf",
        "aster"
      ],
      [
        "Ġf",
        "otos"
      ],
      [
        "Ġf",
        "itting"
      ],
      [
        "Ġf",
        "urious"
      ],
      [
        "Ġf",
        "oll"
      ],
      [
        "Ġf",
        "rust"
      ],
      [
        "Ġs",
        "ou"
      ],
      [
        "Ġs",
        "er"
      ],
      [
        "Ġs",
        "ed"
      ],
      [
        "Ġs",
        "on"
      ],
      [
        "Ġs",
        "et"
      ],
      [
        "Ġs",
        "at"
      ],
      [
        "Ġs",
        "le"
      ],
      [
        "Ġs",
        "ir"
      ],
      [
        "Ġs",
        "am"
      ],
      [
        "Ġs",
        "ear"
      ],
      [
        "Ġs",
        "ink"
      ],
      [
        "Ġs",
        "ort"
      ],
      [
        "Ġs",
        "ong"
      ],
      [
        "Ġs",
        "ours"
      ],
      [
        "Ġs",
        "ense"
      ],
      [
        "Ġs",
        "eriously"
      ],
      [
        "Ġs",
        "ingle"
      ],
      [
        "Ġs",
        "ane"
      ],
      [
        "Ġs",
        "itting"
      ],
      [
        "Ġs",
        "ixt"
      ],
      [
        "Ġs",
        "rc"
      ],
      [
        "Ġs",
        "vu"
      ],
      [
        "Ġm",
        "s"
      ],
      [
        "Ġm",
        "or"
      ],
      [
        "Ġm",
        "ot"
      ],
      [
        "Ġm",
        "us"
      ],
      [
        "Ġm",
        "ent"
      ],
      [
        "Ġm",
        "ill"
      ],
      [
        "Ġm",
        "ic"
      ],
      [
        "Ġm",
        "ess"
      ],
      [
        "Ġm",
        "ood"
      ],
      [
        "Ġm",
        "il"
      ],
      [
        "Ġm",
        "ort"
      ],
      [
        "Ġm",
        "ild"
      ],
      [
        "Ġm",
        "atch"
      ],
      [
        "Ġm",
        "owing"
      ],
      [
        "Ġm",
        "akes"
      ],
      [
        "Ġm",
        "xm"
      ],
      [
        "re",
        "nd"
      ],
      [
        "re",
        "as"
      ],
      [
        "re",
        "mely"
      ],
      [
        "re",
        "wing"
      ],
      [
        "Ġb",
        "m"
      ],
      [
        "Ġb",
        "ou"
      ],
      [
        "Ġb",
        "as"
      ],
      [
        "Ġb",
        "an"
      ],
      [
        "Ġb",
        "ot"
      ],
      [
        "Ġb",
        "us"
      ],
      [
        "Ġb",
        "oo"
      ],
      [
        "Ġb",
        "ill"
      ],
      [
        "Ġb",
        "our"
      ],
      [
        "Ġb",
        "orn"
      ],
      [
        "Ġb",
        "oss"
      ],
      [
        "Ġb",
        "ug"
      ],
      [
        "ing",
        "ing"
      ],
      [
        "Ġi",
        "N"
      ],
      [
        "Ġi",
        "Sn"
      ],
      [
        "Ġi",
        "gn"
      ],
      [
        "ha",
        "s"
      ],
      [
        "ha",
        "ble"
      ],
      [
        "ha",
        "med"
      ],
      [
        "ha",
        "usting"
      ],
      [
        "ha",
        "lf"
      ],
      [
        "ou",
        "st"
      ],
      [
        "ou",
        "red"
      ],
      [
        "ou",
        "nt"
      ],
      [
        "ou",
        "ds"
      ],
      [
        "ou",
        "bt"
      ],
      [
        "nd",
        "om"
      ],
      [
        "nd",
        "id"
      ],
      [
        "ee",
        "l"
      ],
      [
        "ee",
        "m"
      ],
      [
        "Ġto",
        "n"
      ],
      [
        "Ġto",
        "p"
      ],
      [
        "Ġto",
        "get"
      ],
      [
        "Ġto",
        "mor"
      ],
      [
        "Ġto",
        "ner"
      ],
      [
        "Ġto",
        "ler"
      ],
      [
        "Ġto",
        "rt"
      ],
      [
        "Ġto",
        "tally"
      ],
      [
        "Ġto",
        "wards"
      ],
      [
        "er",
        "k"
      ],
      [
        "er",
        "ly"
      ],
      [
        "er",
        "ling"
      ],
      [
        "er",
        "ted"
      ],
      [
        "Ġthe",
        "rap"
      ],
      [
        "Ġo",
        "k"
      ],
      [
        "Ġo",
        "pp"
      ],
      [
        "Ġo",
        "per"
      ],
      [
        "Ġo",
        "bt"
      ],
      [
        "Ġo",
        "var"
      ],
      [
        "Ġc",
        "hat"
      ],
      [
        "Ġc",
        "ri"
      ],
      [
        "Ġc",
        "ir"
      ],
      [
        "Ġc",
        "am"
      ],
      [
        "Ġc",
        "ous"
      ],
      [
        "Ġc",
        "art"
      ],
      [
        "Ġc",
        "han"
      ],
      [
        "Ġc",
        "ell"
      ],
      [
        "Ġc",
        "ia"
      ],
      [
        "Ġc",
        "ram"
      ],
      [
        "Ġc",
        "up"
      ],
      [
        "Ġc",
        "oron"
      ],
      [
        "Ġc",
        "alm"
      ],
      [
        "Ġc",
        "urious"
      ],
      [
        "Ġc",
        "rad"
      ],
      [
        "Ġc",
        "umm"
      ],
      [
        "or",
        "ous"
      ],
      [
        "ed",
        "ly"
      ],
      [
        "ed",
        "dit"
      ],
      [
        "Ġd",
        "es"
      ],
      [
        "Ġd",
        "en"
      ],
      [
        "Ġd",
        "ent"
      ],
      [
        "Ġd",
        "am"
      ],
      [
        "Ġd",
        "el"
      ],
      [
        "Ġd",
        "il"
      ],
      [
        "Ġd",
        "ough"
      ],
      [
        "Ġd",
        "iss"
      ],
      [
        "Ġd",
        "ress"
      ],
      [
        "Ġd",
        "ram"
      ],
      [
        "Ġd",
        "umb"
      ],
      [
        "Ġd",
        "ude"
      ],
      [
        "Ġd",
        "ream"
      ],
      [
        "Ġd",
        "espite"
      ],
      [
        "Ġd",
        "well"
      ],
      [
        "Ġd",
        "oubt"
      ],
      [
        "Ġl",
        "ar"
      ],
      [
        "Ġl",
        "en"
      ],
      [
        "Ġl",
        "an"
      ],
      [
        "Ġl",
        "ow"
      ],
      [
        "Ġl",
        "ad"
      ],
      [
        "Ġl",
        "os"
      ],
      [
        "Ġl",
        "ess"
      ],
      [
        "Ġl",
        "ine"
      ],
      [
        "Ġl",
        "ose"
      ],
      [
        "Ġl",
        "augh"
      ],
      [
        "Ġl",
        "uc"
      ],
      [
        "Ġl",
        "oud"
      ],
      [
        "Ġl",
        "unch"
      ],
      [
        "as",
        "h"
      ],
      [
        "as",
        "ed"
      ],
      [
        "as",
        "ures"
      ],
      [
        "Ġp",
        "p"
      ],
      [
        "Ġp",
        "ing"
      ],
      [
        "Ġp",
        "ar"
      ],
      [
        "Ġp",
        "en"
      ],
      [
        "Ġp",
        "at"
      ],
      [
        "Ġp",
        "le"
      ],
      [
        "Ġp",
        "os"
      ],
      [
        "Ġp",
        "op"
      ],
      [
        "Ġp",
        "our"
      ],
      [
        "Ġp",
        "ic"
      ],
      [
        "Ġp",
        "ur"
      ],
      [
        "Ġp",
        "iss"
      ],
      [
        "Ġp",
        "oke"
      ],
      [
        "Ġp",
        "ubl"
      ],
      [
        "Ġp",
        "Ey"
      ],
      [
        "Ġp",
        "each"
      ],
      [
        "Ġg",
        "as"
      ],
      [
        "Ġg",
        "on"
      ],
      [
        "Ġg",
        "ar"
      ],
      [
        "Ġg",
        "ri"
      ],
      [
        "Ġg",
        "id"
      ],
      [
        "Ġg",
        "am"
      ],
      [
        "Ġg",
        "ro"
      ],
      [
        "Ġg",
        "lad"
      ],
      [
        "Ġg",
        "ym"
      ],
      [
        "Ġg",
        "Oo"
      ],
      [
        "Ġg",
        "erling"
      ],
      [
        "ĠI",
        "T"
      ],
      [
        "ĠI",
        "m"
      ],
      [
        "ĠI",
        "nter"
      ],
      [
        "ll",
        "er"
      ],
      [
        "ll",
        "ip"
      ],
      [
        "Ġfeel",
        "in"
      ],
      [
        "it",
        "re"
      ],
      [
        "it",
        "er"
      ],
      [
        "it",
        "her"
      ],
      [
        "it",
        "ies"
      ],
      [
        "it",
        "ely"
      ],
      [
        "it",
        "ual"
      ],
      [
        "it",
        "ary"
      ],
      [
        "om",
        "g"
      ],
      [
        "om",
        "y"
      ],
      [
        "om",
        "es"
      ],
      [
        "om",
        "iting"
      ],
      [
        "ar",
        "ant"
      ],
      [
        "ar",
        "ily"
      ],
      [
        "ar",
        "med"
      ],
      [
        "ar",
        "vel"
      ],
      [
        "Ġn",
        "ay"
      ],
      [
        "Ġn",
        "ur"
      ],
      [
        "Ġn",
        "ost"
      ],
      [
        "Ġn",
        "ation"
      ],
      [
        "Ġn",
        "ine"
      ],
      [
        "Ġn",
        "ice"
      ],
      [
        "Ġn",
        "erve"
      ],
      [
        "is",
        "k"
      ],
      [
        "is",
        "ing"
      ],
      [
        "is",
        "ed"
      ],
      [
        "is",
        "hing"
      ],
      [
        "is",
        "fied"
      ],
      [
        "Ġha",
        "ir"
      ],
      [
        "Ġha",
        "mp"
      ],
      [
        "Ġha",
        "ng"
      ],
      [
        "Ġha",
        "bit"
      ],
      [
        "Ġha",
        "ted"
      ],
      [
        "Ġha",
        "vent"
      ],
      [
        "Ġha",
        "lf"
      ],
      [
        "en",
        "ing"
      ],
      [
        "en",
        "ly"
      ],
      [
        "en",
        "cy"
      ],
      [
        "en",
        "ari"
      ],
      [
        "Ġh",
        "us"
      ],
      [
        "Ġh",
        "ir"
      ],
      [
        "Ġh",
        "our"
      ],
      [
        "Ġh",
        "orn"
      ],
      [
        "Ġh",
        "omet"
      ],
      [
        "Ġh",
        "ospital"
      ],
      [
        "Ġh",
        "El"
      ],
      [
        "Ġh",
        "ttp"
      ],
      [
        "Ġh",
        "yper"
      ],
      [
        "Ġh",
        "omes"
      ],
      [
        "Ġwas",
        "h"
      ],
      [
        "an",
        "ce"
      ],
      [
        "an",
        "ci"
      ],
      [
        "an",
        "ne"
      ],
      [
        "an",
        "kers"
      ],
      [
        "ot",
        "he"
      ],
      [
        "ot",
        "ely"
      ],
      [
        "ot",
        "ypical"
      ],
      [
        "Ġin",
        "hi"
      ],
      [
        "Ġin",
        "juri"
      ],
      [
        "Ġin",
        "sur"
      ],
      [
        "et",
        "e"
      ],
      [
        "et",
        "ed"
      ],
      [
        "at",
        "o"
      ],
      [
        "at",
        "or"
      ],
      [
        "at",
        "es"
      ],
      [
        "at",
        "ty"
      ],
      [
        "at",
        "ure"
      ],
      [
        "at",
        "ia"
      ],
      [
        "at",
        "cher"
      ],
      [
        "at",
        "ors"
      ],
      [
        "at",
        "uet"
      ],
      [
        "at",
        "isfied"
      ],
      [
        "us",
        "hed"
      ],
      [
        "ay",
        "le"
      ],
      [
        "Ġof",
        "ten"
      ],
      [
        "le",
        "br"
      ],
      [
        "le",
        "bot"
      ],
      [
        "le",
        "gant"
      ],
      [
        "le",
        "ndid"
      ],
      [
        "ow",
        "ed"
      ],
      [
        "Ġth",
        "in"
      ],
      [
        "Ġth",
        "ick"
      ],
      [
        "Ġth",
        "reat"
      ],
      [
        "Ġth",
        "irst"
      ],
      [
        "Ġhe",
        "y"
      ],
      [
        "Ġhe",
        "ad"
      ],
      [
        "Ġhe",
        "ck"
      ],
      [
        "Ġhe",
        "el"
      ],
      [
        "Ġhe",
        "llip"
      ],
      [
        "Ġfor",
        "give"
      ],
      [
        "Ġbe",
        "ad"
      ],
      [
        "Ġbe",
        "ach"
      ],
      [
        "Ġbe",
        "come"
      ],
      [
        "Ġy",
        "es"
      ],
      [
        "Ġy",
        "ay"
      ],
      [
        "Ġy",
        "out"
      ],
      [
        "Ġy",
        "ard"
      ],
      [
        "Ġy",
        "uck"
      ],
      [
        "Ġe",
        "nd"
      ],
      [
        "Ġe",
        "at"
      ],
      [
        "Ġe",
        "id"
      ],
      [
        "Ġe",
        "ld"
      ],
      [
        "Ġe",
        "ager"
      ],
      [
        "Ġe",
        "arly"
      ],
      [
        "Ġe",
        "vent"
      ],
      [
        "Ġe",
        "ase"
      ],
      [
        "Ġe",
        "No"
      ],
      [
        "Ġe",
        "ither"
      ],
      [
        "Ġe",
        "legant"
      ],
      [
        "Ġit",
        "u"
      ],
      [
        "Ġme",
        "mber"
      ],
      [
        "Ġme",
        "ans"
      ],
      [
        "Ġme",
        "mor"
      ],
      [
        "Ġme",
        "asures"
      ],
      [
        "Ġre",
        "ver"
      ],
      [
        "Ġre",
        "qu"
      ],
      [
        "Ġre",
        "com"
      ],
      [
        "Ġre",
        "view"
      ],
      [
        "Ġre",
        "ason"
      ],
      [
        "Ġre",
        "bell"
      ],
      [
        "Ġre",
        "dd"
      ],
      [
        "Ġre",
        "cent"
      ],
      [
        "Ġre",
        "gular"
      ],
      [
        "ad",
        "ed"
      ],
      [
        "ad",
        "es"
      ],
      [
        "ad",
        "em"
      ],
      [
        "Ġst",
        "op"
      ],
      [
        "Ġst",
        "ate"
      ],
      [
        "Ġst",
        "ink"
      ],
      [
        "Ġst",
        "ated"
      ],
      [
        "Ġst",
        "ress"
      ],
      [
        "Ġst",
        "ick"
      ],
      [
        "Ġst",
        "ore"
      ],
      [
        "Ġst",
        "opp"
      ],
      [
        "Ġst",
        "ym"
      ],
      [
        "Ġst",
        "aff"
      ],
      [
        "Ġst",
        "ep"
      ],
      [
        "Ġst",
        "iff"
      ],
      [
        "Ġst",
        "atuet"
      ],
      [
        "al",
        "er"
      ],
      [
        "al",
        "ity"
      ],
      [
        "al",
        "ue"
      ],
      [
        "al",
        "gic"
      ],
      [
        "ri",
        "a"
      ],
      [
        "ri",
        "ved"
      ],
      [
        "ri",
        "cane"
      ],
      [
        "Ġon",
        "s"
      ],
      [
        "ver",
        "t"
      ],
      [
        "ver",
        "al"
      ],
      [
        "ver",
        "bi"
      ],
      [
        "ter",
        "ly"
      ],
      [
        "out",
        "her"
      ],
      [
        "ent",
        "al"
      ],
      [
        "ch",
        "y"
      ],
      [
        "ch",
        "ond"
      ],
      [
        "ch",
        "nical"
      ],
      [
        "Ġan",
        "ge"
      ],
      [
        "Ġan",
        "cest"
      ],
      [
        "Ġan",
        "sw"
      ],
      [
        "Ġli",
        "es"
      ],
      [
        "Ġli",
        "ly"
      ],
      [
        "Ġli",
        "ght"
      ],
      [
        "Ġli",
        "ber"
      ],
      [
        "Ġli",
        "fel"
      ],
      [
        "Ġli",
        "kes"
      ],
      [
        "Ġj",
        "b"
      ],
      [
        "Ġj",
        "ac"
      ],
      [
        "Ġj",
        "eans"
      ],
      [
        "Ġj",
        "erk"
      ],
      [
        "Ġj",
        "aded"
      ],
      [
        "hen",
        "sive"
      ],
      [
        "ck",
        "er"
      ],
      [
        "ck",
        "ed"
      ],
      [
        "im",
        "iz"
      ],
      [
        "im",
        "port"
      ],
      [
        "im",
        "ental"
      ],
      [
        "oo",
        "f"
      ],
      [
        "ir",
        "d"
      ],
      [
        "ir",
        "ly"
      ],
      [
        "ir",
        "ations"
      ],
      [
        "ir",
        "itual"
      ],
      [
        "os",
        "est"
      ],
      [
[...]
