{
  "version": "1.0",
  "truncation": null,
  "padding": null,
  "added_tokens": [
    {
      "id": 0,
      "content": "<pad>",
      "single_word": false,
      "lstrip": false,
      "rstrip": false,
      "normalized": false,
      "special": true
    },
    {
      "id": 1,
      "content": "<unk>",
      "single_word": false,
      "lstrip": false,
      "rstrip": false,
      "normalized": false,
      "special": true
    },
    {
      "id": 2,
      "content": "<bos>",
      "single_word": false,
      "lstrip": false,
      "rstrip": false,
      "normalized": false,
      "special": true
    },
    {
      "id": 3,
      "content": "<eos>",
      "single_word": false,
      "lstrip": false,
      "rstrip": false,
      "normalized": false,
      "special": true
    },
    {
      "id": 4,
      "content": "<mask>",
      "single_word": false,
      "lstrip": false,
      "rstrip": false,
      "normalized": false,
      "special": true
    }
  ],
  "normalizer": {
    "type": "NFKC"
  },
  "pre_tokenizer": {
    "type": "ByteLevel",
    "add_prefix_space": false,
    "trim_offsets": true,
    "use_regex": true
  },
  "post_processor": {
    "type": "TemplateProcessing",
    "single": [
      {
        "SpecialToken": {
          "id": "<bos>",
          "type_id": 0
        }
      },
      {
        "Sequence": {
          "id": "A",
          "type_id": 0
        }
      },
      {
        "SpecialToken": {
          "id": "<eos>",
          "type_id": 0
        }
      }
    ],
    "pair": [
      {
        "Sequence": {
          "id": "A",
          "type_id": 0
        }
      },
      {
        "Sequence": {
          "id": "B",
          "type_id": 1
        }
      }
    ],
    "special_tokens": {
      "<bos>": {
        "id": "<bos>",
        "ids": [
          2
        ],
        "tokens": [
          "<bos>"
        ]
      },
      "<eos>": {
        "id": "<eos>",
        "ids": [
          3
        ],
        "tokens": [
          "<eos>"
        ]
      }
    }
  },
  "decoder": {
    "type": "ByteLevel",
    "add_prefix_space": true,
    "trim_offsets": true,
    "use_regex": true
  },
  "model": {
    "type": "BPE",
    "dropout": null,
    "unk_token": "<unk>",
    "continuing_subword_prefix": null,
    "end_of_word_suffix": null,
    "fuse_unk": false,
    "byte_fallback": false,
    "ignore_merges": false,
    "vocab": {
      "<pad>": 0,
      "<unk>": 1,
      "<bos>": 2,
      "<eos>": 3,
      "<mask>": 4,
      "!": 5,
      "\"": 6,
      "#": 7,
      "$": 8,
      "%": 9,
      "&": 10,
      "'": 11,
      "(": 12,
      ")": 13,
      "*": 14,
      "+": 15,
      ",": 16,
      "-": 17,
      ".": 18,
      "/": 19,
      "0": 20,
      "1": 21,
      "2": 22,
      "3": 23,
      "4": 24,
      "5": 25,
      "6": 26,
      "7": 27,
      "8": 28,
      "9": 29,
      ":": 30,
      ";": 31,
      "<": 32,
      "=": 33,
      ">": 34,
      "?": 35,
      "@": 36,
      "A": 37,
      "B": 38,
      "C": 39,
      "D": 40,
      "E": 41,
      "F": 42,
      "G": 43,
      "H": 44,
      "I": 45,
      "J": 46,
      "K": 47,
      "L": 48,
      "M": 49,
      "N": 50,
      "O": 51,
      "P": 52,
      "Q": 53,
      "R": 54,
      "S": 55,
      "T": 56,
      "U": 57,
      "V": 58,
      "W": 59,
      "X": 60,
      "Y": 61,
      "Z": 62,
      "[": 63,
      "\\": 64,
      "]": 65,
      "^": 66,
      "_": 67,
      "`": 68,
      "a": 69,
      "b": 70,
      "c": 71,
      "d": 72,
      "e": 73,
      "f": 74,
      "g": 75,
      "h": 76,
      "i": 77,
      "j": 78,
      "k": 79,
      "l": 80,
      "m": 81,
      "n": 82,
      "o": 83,
      "p": 84,
      "q": 85,
      "r": 86,
      "s": 87,
      "t": 88,
      "u": 89,
      "v": 90,
      "w": 91,
      "x": 92,
      "y": 93,
      "z": 94,
      "{": 95,
      "|": 96,
      "}": 97,
      "~": 98,
      "¡": 99,
      "¢": 100,
      "£": 101,
      "¤": 102,
      "¥": 103,
      "¦": 104,
      "§": 105,
      "¨": 106,
      "©": 107,
      "ª": 108,
      "«": 109,
      "¬": 110,
      "®": 111,
      "¯": 112,
      "°": 113,
      "±": 114,
      "²": 115,
      "³": 116,
      "´": 117,
      "µ": 118,
      "¶": 119,
      "·": 120,
      "¸": 121,
      "¹": 122,
      "º": 123,
      "»": 124,
      "¼": 125,
      "½": 126,
      "¾": 127,
      "¿": 128,
      "Â": 129,
      "Ã": 130,
      "Ä": 131,
      "Å": 132,
      "Ç": 133,
      "É": 134,
      "Ê": 135,
      "Ë": 136,
      "Ì": 137,
      "Í": 138,
      "Î": 139,
      "Ï": 140,
      "Ð": 141,
      "â": 142,
      "ã": 143,
      "ä": 144,
      "å": 145,
      "æ": 146,
      "ç": 147,
      "é": 148,
      "ê": 149,
      "ë": 150,
      "ì": 151,
      "í": 152,
      "ï": 153,
      "ð": 154,
      "Ċ": 155,
      "č": 156,
      "Ġ": 157,
      "ġ": 158,
      "Ģ": 159,
      "ģ": 160,
      "Ĥ": 161,
      "ĥ": 162,
      "Ħ": 163,
      "ħ": 164,
      "Ĩ": 165,
      "ĩ": 166,
      "Ī": 167,
      "ī": 168,
      "Ĭ": 169,
      "ĭ": 170,
      "Į": 171,
      "į": 172,
      "İ": 173,
      "ı": 174,
      "Ĳ": 175,
      "ĳ": 176,
      "Ĵ": 177,
      "ĵ": 178,
      "Ķ": 179,
      "ķ": 180,
      "ĸ": 181,
      "Ĺ": 182,
      "ĺ": 183,
      "Ļ": 184,
      "ļ": 185,
      "Ľ": 186,
      "ľ": 187,
      "Ŀ": 188,
      "ŀ": 189,
      "Ł": 190,
      "ł": 191,
      "Ń": 192,
      "Ġt": 193,
      "Ġa": 194,
      "in": 195,
      "Ġth": 196,
      "Ġw": 197,
      "ou": 198,
      "er": 199,
      "ing": 200,
      "čĊ": 201,
      "Ġm": 202,
      "Ġs": 203,
      "it": 204,
      "on": 205,
      "st": 206,
      "Ġb": 207,
      "re": 208,
      "Ġf": 209,
      "at": 210,
      "ĠI": 211,
      "ee": 212,
      "Ġh": 213,
      "Ġto": 214,
      "Ġd": 215,
      "or": 216,
      "ly": 217,
      "Ġn": 218,
      "Ġl": 219,
      "Ġc": 220,
      "Ġo": 221,
      "nd": 222,
      "is": 223,
      "Ġp": 224,
      "ay": 225,
      "Ġthe": 226,
      "al": 227,
      "Ġit": 228,
      "an": 229,
      "ed": 230,
      "Ġmy": 231,
      "ot": 232,
      "Ġy": 233,
      "'s": 234,
      "le": 235,
      "Ġwh": 236,
      "ust": 237,
      "ow": 238,
      "out": 239,
      "gh": 240,
      "th": 241,
      "ve": 242,
      "Ġyou": 243,
      "om": 244,
      "Ġthat": 245,
      "ea": 246,
      "Ġg": 247,
      "ght": 248,
      "Ġj": 249,
      "Ġof": 250,
      "Ġfor": 251,
      "Ġthis": 252,
      "ver": 253,
      "ll": 254,
      "Ġbe": 255,
      "Ġre": 256,
      "Ġjust": 257,
      "ke": 258,
      "Ġab": 259,
      "Ġand": 260,
      "en": 261,
      "'t": 262,
      "Ġu": 263,
      "Ġha": 264,
      "ight": 265,
      "Ġin": 266,
      "Ġ.": 267,
      "Ġabout": 268,
      "ast": 269,
      "one": 270,
      "ut": 271,
      "ith": 272,
      "Ġwith": 273,
      "een": 274,
      "Ġr": 275,
      "Ġk": 276,
      "Ġe": 277,
      "eel": 278,
      "ally": 279,
      "Th": 280,
      "id": 281,
      "Ġme": 282,
      "ere": 283,
      "Ġan": 284,
      "'m": 285,
      "se": 286,
      "ld": 287,
      "Ġbeen": 288,
      "Ġnot": 289,
      "Ġbut": 290,
      "ar": 291,
      "ure": 292,
      "ic": 293,
      "ew": 294,
      "as": 295,
      "Ġon": 296,
      "Ġli": 297,
      "ion": 298,
      "Ġfeel": 299,
      "et": 300,
      "Ġsh": 301,
      "Ġat": 302,
      "ct": 303,
      "ĠN": 304,
      "am": 305,
      "es": 306,
      "Ġst": 307,
      "ome": 308,
      "oo": 309,
      "Ġout": 310,
      "king": 311,
      "Ġpast": 312,
      "Ġday": 313,
      "ad": 314,
      "Ġnow": 315,
      "Ġi": 316,
      "ant": 317,
      "Ġup": 318,
      "Ġreally": 319,
      "ĠNot": 320,
      "Ġwee": 321,
      "ent": 322,
      "Ġis": 323,
      "Ġwas": 324,
      "ter": 325,
      "Ġpr": 326,
      "Ġover": 327,
      "âĢ": 328,
      "Ġwe": 329,
      "Ġlike": 330,
      "ĠTh": 331,
      "Ġ,": 332,
      "ould": 333,
      "ther": 334,
      "Ġmo": 335,
      "ind": 336,
      "ch": 337,
      "Ġfr": 338,
      "ate": 339,
      "ir": 340,
      "ting": 341,
      "Ġkn": 342,
      "eed": 343,
      "day": 344,
      "Ġsay": 345,
      "Ġso": 346,
      "ear": 347,
      "Ġknow": 348,
      "Ġwho": 349,
      "Ġneed": 350,
      "ck": 351,
      "ead": 352,
      "ple": 353,
      "ĠA": 354,
      "way": 355,
      "Ġall": 356,
      "Ġdon": 357,
      "ĠâĢ": 358,
      "Ġhave": 359,
      "Ġdo": 360,
      "ĠM": 361,
      "Ġch": 362,
      "are": 363,
      "Ġright": 364,
      "Ġlast": 365,
      "ĠIt": 366,
      "Ġsure": 367,
      "li": 368,
      "Ġhead": 369,
      "ĠThat": 370,
      "Just": 371,
      "Ġwant": 372,
      "el": 373,
      "Ġsome": 374,
      "ce": 375,
      "Ġcan": 376,
      "'ve": 377,
      "Ġ?": 378,
      "idn": 379,
      "pe": 380,
      "me": 381,
      "ake": 382,
      "ether": 383,
      "Ġmon": 384,
      "Ġde": 385,
      "Ġmonth": 386,
      "Ġwor": 387,
      "thing": 388,
      "no": 389,
      "Ġwhether": 390,
      "eep": 391,
      "Ġbit": 392,
      "Ġthan": 393,
      "Ġweek": 394,
      "our": 395,
      "Ġgo": 396,
      "onest": 397,
      "ound": 398,
      "ling": 399,
      "and": 400,
      "nt": 401,
      "est": 402,
      "ĠJust": 403,
      "alk": 404,
      "Ġare": 405,
      "ell": 406,
      "Ġfew": 407,
      "Ġany": 408,
      "pp": 409,
      "Ġwhat": 410,
      "Ġbr": 411,
      "Ġfeeling": 412,
      "Ġaf": 413,
      "ning": 414,
      "ĠâĢĶ": 415,
      "Ġsi": 416,
      "ul": 417,
      "very": 418,
      "Ġthin": 419,
      "ĠD": 420,
      "ond": 421,
      "Ġif": 422,
      "ving": 423,
      "ood": 424,
      "ering": 425,
      "Ġwhole": 426,
      "Ġwanted": 427,
      "Ġafter": 428,
      "Ġtalk": 429,
      "Ġwhere": 430,
      "Ġthing": 431,
      "Ġex": 432,
      "ily": 433,
      "ig": 434,
      "ĠF": 435,
      "ill": 436,
      "Ġfam": 437,
      "Ġget": 438,
      "ble": 439,
      "Ġfamily": 440,
      "Ġar": 441,
      "Ġdays": 442,
      "Ġpro": 443,
      "Ġas": 444,
      "end": 445,
      "Ġnew": 446,
      "ought": 447,
      "oud": 448,
      "ĠAn": 449,
      "art": 450,
      "itting": 451,
      "Ġne": 452,
      "Ġsaying": 453,
      "My": 454,
      "Ġkeep": 455,
      "Wh": 456,
      "Ġcou": 457,
      "itt": 458,
      "Ġthink": 459,
      "Ġthere": 460,
      "uch": 461,
      "ri": 462,
      "ĠDidn": 463,
      "Ġpl": 464,
      "ittle": 465,
      "ain": 466,
      "Ġlittle": 467,
      "Ġtoday": 468,
      "su": 469,
      "ĠMight": 470,
      "Ġfin": 471,
      "hing": 472,
      "ry": 473,
      "Ġun": 474,
      "ect": 475,
      "ĠS": 476,
      "ĠAny": 477,
      "bly": 478,
      "Ġnight": 479,
      "lier": 480,
      "ol": 481,
      "Ġmor": 482,
      "Ġwould": 483,
      "Ġhonest": 484,
      "Ġmuch": 485,
      "Ġtell": 486,
      "Ġtoo": 487,
      "Ġmorning": 488,
      "Ġmad": 489,
      "ret": 490,
      "Ġneeded": 491,
      "You": 492,
      "lf": 493,
      "Ġbeing": 494,
      "all": 495,
      "kend": 496,
      "Ġweekend": 497,
      "ester": 498,
      "ice": 499,
      "ge": 500,
      "esterday": 501,
      "Ġhour": 502,
      "ile": 503,
      "Ġear": 504,
      "Ġv": 505,
      "Ġgot": 506,
      "Ġmore": 507,
      "ur": 508,
      "vers": 509,
      "Ġnothing": 510,
      "Ġmade": 511,
      "Ġfrom": 512,
      "Ġhow": 513,
      "Ġold": 514,
      "ner": 515,
      "self": 516,
      "Ġkind": 517,
      "um": 518,
      "Ġcouple": 519,
      "noon": 520,
      "Ġafternoon": 521,
      "Ġmind": 522,
      "Ġal": 523,
      "ore": 524,
      "Ġgoing": 525,
      "Ġyesterday": 526,
      "Ġbet": 527,
      "Ġearlier": 528,
      "elt": 529,
      "Ġfelt": 530,
      "Ġdeal": 531,
      "au": 532,
      "Ġsomething": 533,
      "ack": 534,
      "Ġcon": 535,
      "Ġmyself": 536,
      "Ġfri": 537,
      "ately": 538,
      "Ġbetter": 539,
      "Ġad": 540,
      "eo": 541,
      "Ġfriend": 542,
      "Ġwork": 543,
      "Ġor": 544,
      "ous": 545,
      "Ġevery": 546,
      "Ġdealing": 547,
      "Ġhe": 548,
      "Ġone": 549,
      "be": 550,
      "ss": 551,
      "ird": 552,
      "Ġam": 553,
      "eople": 554,
      "ime": 555,
      "ci": 556,
      "Ġthought": 557,
      "Ġpeople": 558,
      "Ġwhy": 559,
      "Ġhar": 560,
      "It": 561,
      "aybe": 562,
      "Ġhard": 563,
      "ite": 564,
      "Ġwond": 565,
      "Ġproud": 566,
      "Ġlately": 567,
      "Ġyour": 568,
      "red": 569,
      "Ġpo": 570,
      "Ġcom": 571,
      "ess": 572,
      "What": 573,
      "te": 574,
      "Ġhere": 575,
      "Ġhome": 576,
      "ty": 577,
      "ĠFeel": 578,
      "ĠB": 579,
      "Ġdid": 580,
      "Ġback": 581,
      "sed": 582,
      "Ġdis": 583,
      "Ġknows": 584,
      "ine": 585,
      "Ġcould": 586,
      "Ġag": 587,
      "Ġwondering": 588,
      "ĠAnyway": 589,
      "ĠW": 590,
      "Ġwhile": 591,
      "sid": 592,
      "Ġother": 593,
      "ort": 594,
      "ĠFeels": 595,
      "Ġvers": 596,
      "Ġversion": 597,
      "Ġno": 598,
      "Ġdi": 599,
      "Ġsp": 600,
      "ated": 601,
      "eve": 602,
      "Ġaround": 603,
      "ive": 604,
      "Ġloo": 605,
      "inking": 606,
      "ra": 607,
      "Ġusu": 608,
      "Ġweird": 609,
      "Ġhad": 610,
      "Ġmost": 611,
      "im": 612,
      "thinking": 613,
      "Ġoverthinking": 614,
      "ers": 615,
      "Ġstu": 616,
      "ick": 617,
      "Ġbring": 618,
      "ff": 619,
      "ause": 620,
      "Ġhel": 621,
      "Ġbig": 622,
      "Ġhelp": 623,
      "yed": 624,
      "Ġthey": 625,
      "un": 626,
      "Ġbest": 627,
      "Ġbec": 628,
      "retty": 629,
      "Ġres": 630,
      "Ġint": 631,
      "Ġhas": 632,
      "Ġanno": 633,
      "Ġact": 634,
      "Ġyear": 635,
      "Ġsitting": 636,
      "act": 637,
      "ĠâĢĻ": 638,
      "wn": 639,
      "Ġapp": 640,
      "Ġannoyed": 641,
      "Ġusual": 642,
      "ation": 643,
      "Ġshare": 644,
      "Ġwhen": 645,
      "Ġnews": 646,
      "fore": 647,
      "Ġbecause": 648,
      "nts": 649,
      "Ġbefore": 650,
      "Ġche": 651,
      "Ġtime": 652,
      "Ġown": 653,
      "Ġdidn": 654,
      "ard": 655,
      "..": 656,
      "able": 657,
      "Ġshould": 658,
      "Ġpare": 659,
      "qu": 660,
      "ish": 661,
      "ĠT": 662,
      "Ġparents": 663,
      "Ġoff": 664,
      "ĠYou": 665,
      "ork": 666,
      "ince": 667,
      "Ġeveryone": 668,
      "her": 669,
      "ful": 670,
      "Ġresp": 671,
      "ject": 672,
      "Ġhaving": 673,
      "Ġlet": 674,
      "Ġstill": 675,
      "onn": 676,
      "Ġthings": 677,
      "andom": 678,
      "otion": 679,
      "Ġnever": 680,
      "The": 681,
      "ways": 682,
      "Ġend": 683,
      "eah": 684,
      "Ġinto": 685,
      "Ġalways": 686,
      "vi": 687,
      "int": 688,
      "Ġproject": 689,
      "This": 690,
      "Ġran": 691,
      "ually": 692,
      "ame": 693,
      "Ġpretty": 694,
      "Ġsc": 695,
      "Ġcow": 696,
      "Ġmean": 697,
      "pt": 698,
      "own": 699,
      "kay": 700,
      "ĠG": 701,
      "Ġcowork": 702,
      "Honest": 703,
      "Honestly": 704,
      "Ġwr": 705,
      "Ġchan": 706,
      "Ġsee": 707,
      "Ġsomeone": 708,
      "Ġanything": 709,
      "Ġcoworker": 710,
      "reci": 711,
      "ong": 712,
      "Ġlea": 713,
      "onight": 714,
      "Ġhours": 715,
      "Ġaway": 716,
      "'d": 717,
      "xt": 718,
      "Ġweeks": 719,
      "Ġsen": 720,
      "Ġlo": 721,
      "Ġgood": 722,
      "pect": 723,
      "ough": 724,
      "Ġsince": 725,
      "Ġfeels": 726,
      "Ġactually": 727,
      "orry": 728,
      "ater": 729,
      "ream": 730,
      "reciate": 731,
      "Ġreal": 732,
      "us": 733,
      "il": 734,
      "Ġbeli": 735,
      "Ġqu": 736,
      "Ġstuck": 737,
      "igure": 738,
      "uess": 739,
      "Ġcheck": 740,
      "Ġever": 741,
      "Ġstart": 742,
      "Ġbelieve": 743,
      "Ġlone": 744,
      "Ġended": 745,
      "Ġbad": 746,
      "Ġappreciate": 747,
      "ĠH": 748,
      "Ġlonely": 749,
      "Ġokay": 750,
      "Ġdown": 751,
      "ME": 752,
      "reat": 753,
      "Ġlooking": 754,
      "Ġrespond": 755,
      "eri": 756,
      "Ġwill": 757,
      "NA": 758,
      "Ġnights": 759,
      "Ġsm": 760,
      "ist": 761,
      "NAME": 762,
      "react": 763,
      "Ġoverreact": 764,
      "Ġfinally": 765,
      "Ġway": 766,
      "Ġdisc": 767,
      "Ġplan": 768,
      "Ġexpect": 769,
      "ument": 770,
      "sure": 771,
      "ating": 772,
      "Ġtonight": 773,
      "Ġen": 774,
      "Ġsom": 775,
      "iet": 776,
      "Ġro": 777,
      "Ġarg": 778,
      "ba": 779,
      "nder": 780,
      "ze": 781,
      "sec": 782,
      "Ġsound": 783,
      "ank": 784,
      "'ll": 785,
      "Ġcho": 786,
      "other": 787,
      "Ġargument": 788,
      "ec": 789,
      "Ġinsec": 790,
      "ment": 791,
      "Ġthank": 792,
      "Ġsa": 793,
      "Ġinsecure": 794,
      "Not": 795,
      "Ġgr": 796,
      "Ġpas": 797,
      "Ġunder": 798,
      "That": 799,
      "vice": 800,
      "Ġ!": 801,
      "Ġsick": 802,
      "Ġlater": 803,
      "aring": 804,
      "Ġunsure": 805,
      "Ġmee": 806,
      "ustr": 807,
      "Ġman": 808,
      "Ġcall": 809,
      "Ġforg": 810,
      "Ġyet": 811,
      "bably": 812,
      "Ġpoint": 813,
      "Ġwouldn": 814,
      "Good": 815,
      "Ġfrustr": 816,
      "Ġlow": 817,
      "Ġvul": 818,
      "Ġvulner": 819,
      "Ġmake": 820,
      "Ġvulnerable": 821,
      "âĢĻ": 822,
      "Ġprobably": 823,
      "Ġwrite": 824,
      "ected": 825,
      "ag": 826,
      "here": 827,
      "inner": 828,
      "Ġchecks": 829,
      "Ġfrustrated": 830,
      "Ġscare": 831,
      "eeling": 832,
      "Ġdisconn": 833,
      "Ġrat": 834,
      "Feeling": 835,
      "Ġdisconnected": 836,
      "Ġhelps": 837,
      "Ġdinner": 838,
      "Ġleast": 839,
      "Ugh": 840,
      "pr": 841,
      "Ġloud": 842,
      "ĠNo": 843,
      "Ġagain": 844,
      "view": 845,
      "Ġforgot": 846,
      "ainly": 847,
      "anted": 848,
      "Ġprom": 849,
      "So": 850,
      "Ġadm": 851,
      "Ġstarted": 852,
      "Ġunderst": 853,
      "Ġsense": 854,
      "Ġvery": 855,
      "Ġher": 856,
      "ĠMaybe": 857,
      "Do": 858,
      "Ġrepe": 859,
      "Ġworth": 860,
      "Ġsu": 861,
      "Ġcouldn": 862,
      "No": 863,
      "Ġsomew": 864,
      "Ġsol": 865,
      "Ġ[": 866,
      "Ġsize": 867,
      "Ġmove": 868,
      "Ġrepeat": 869,
      "Ġyeah": 870,
      "Ġmaybe": 871,
      "ĠBeen": 872,
      "ution": 873,
      "Ġty": 874,
      "Ġtelling": 875,
      "Ġmeeting": 876,
      "Ġasking": 877,
      "Ġsomewhere": 878,
      "Ġsil": 879,
      "Ġshort": 880,
      "Ġdele": 881,
      "ace": 882,
      "Ġpassed": 883,
      "ĠC": 884,
      "irc": 885,
      "ms": 886,
      "Ġdelete": 887,
      "ished": 888,
      "irst": 889,
      "Ġsilly": 890,
      "vor": 891,
      "Ġsharing": 892,
      "Ġanyway": 893,
      "Ġram": 894,
      "Ġsolution": 895,
      "Ġrandom": 896,
      "Ġshake": 897,
      "Ġgreat": 898,
      "Ġcirc": 899,
      "tling": 900,
      "Ġadvice": 901,
      "Ġseri": 902,
      "igured": 903,
      "ĠSorry": 904,
      "Ġrattling": 905,
      "Ġtype": 906,
      "Ġramble": 907,
      "Ġanyone": 908,
      "Yes": 909,
      "ously": 910,
      "ĠTake": 911,
      "Ġnoting": 912,
      "Ġtake": 913,
      "Ġtheme": 914,
      "Ġjo": 915,
      "ĠFigured": 916,
      "Ġplainly": 917,
      "Ġeating": 918,
      "ĠAm": 919,
      "ĠWanted": 920,
      "dd": 921,
      "Ġconsid": 922,
      "pris": 923,
      "Ġpromotion": 924,
      "aking": 925,
      "Ġcircling": 926,
      "ward": 927,
      "Ġoverreaction": 928,
      "Ġadmitting": 929,
      "ool": 930,
      "'re": 931,
      "ath": 932,
      "Ġfirst": 933,
      "urpris": 934,
      "Ġnext": 935,
      "Ġfinished": 936,
      "part": 937,
      "fe": 938,
      "ĠGuess": 939,
      "Ġyears": 940,
      "Ġroom": 941,
      "Ġheal": 942,
      "Ġreview": 943,
      "plete": 944,
      "Ġthoughts": 945,
      "Ġaw": 946,
      "bling": 947,
      "Been": 948,
      "reaming": 949,
      "Ġbo": 950,
      "Ġhealth": 951,
      "Ġseriously": 952,
      "ity": 953,
      "Ġsibling": 954,
      "Ġsch": 955,
      "Ġtr": 956,
      "pletely": 957,
      "Ġfound": 958,
      "pl": 959,
      "Ġunderstand": 960,
      "Ġcalled": 961,
      "Ġconsidering": 962,
      "Ġdayd": 963,
      "Ġdaydreaming": 964,
      "Ġgetting": 965,
      "Ġable": 966,
      "Ġapart": 967,
      "Ġchange": 968,
      "Ġinv": 969,
      "Ġhim": 970,
      "Ġthem": 971,
      "Ġcl": 972,
      "redi": 973,
      "igh": 974,
      "Ġbrought": 975,
      "Ġshe": 976,
      "credi": 977,
      "reme": 978,
      "ecret": 979,
      "ap": 980,
      "Ġhonestly": 981,
      "alling": 982,
      "ingly": 983,
      "enu": 984,
      "Ġvis": 985,
      "credibly": 986,
      "remely": 987,
      "Ġwell": 988,
      "Ġdone": 989,
      "Ġtri": 990,
      "icea": 991,
      "ietly": 992,
      "Ġhapp": 993,
      "iceably": 994,
      "ĠThe": 995,
      "Ġlot": 996,
      "enuine": 997,
      "sually": 998,
      "ddly": 999,
      "Ġjob": 1000,
      "Ġoutsid": 1001,
      "ecretly": 1002,
      "urprisingly": 1003,
      "enuinely": 1004,
      "Ġvisit": 1005,
      "usually": 1006,
      "Ġpart": 1007,
      "Ġinvol": 1008,
      "ices": 1009,
      "ook": 1010,
      "erv": 1011,
      "Ġfight": 1012,
      "Sp": 1013,
      "ĠP": 1014,
      "Had": 1015,
      "Ġfalling": 1016,
      "Ġinvolving": 1017,
      "Ġter": 1018,
      "Spent": 1019,
      "ase": 1020,
      "ult": 1021,
      "Ġput": 1022,
      "Ġem": 1023,
      "Thank": 1024,
      "Ġhit": 1025,
      "oke": 1026,
      "Ġim": 1027,
      "ild": 1028,
      "ven": 1029,
      "Ġbu": 1030,
      "Ġdivor": 1031,
      "Ġschool": 1032,
      "Ġve": 1033,
      "Ġunderstanding": 1034,
      "Ġdivorce": 1035,
      "Ġby": 1036,
      "erson": 1037,
      "Ġchoices": 1038,
      "Ġmom": 1039,
      "Ġdiff": 1040,
      "kward": 1041,
      "Ġcle": 1042,
      "Ġawkward": 1043,
      "ose": 1044,
      "eas": 1045,
      "Ġ3": 1046,
      "Ġgath": 1047,
      "Ġgathering": 1048,
      "Ġperson": 1049,
      "Ġtook": 1050,
      "Ġoutsider": 1051,
      "Ġgatherings": 1052,
      "mate": 1053,
      "Ġent": 1054,
      "Ġho": 1055,
      "Ġroommate": 1056,
      "Ġcol": 1057,
      "Ġlove": 1058,
      "Ġenough": 1059,
      "Ġcare": 1060,
      "Ġnerv": 1061,
      "Ġnervous": 1062,
      "Ġthinking": 1063,
      "Ġspea": 1064,
      "Ġmoving": 1065,
      "Ġcame": 1066,
      "Ġhear": 1067,
      "ors": 1068,
      "bo": 1069,
      "Ġlong": 1070,
      "ster": 1071,
      "ord": 1072,
      "Ġhis": 1073,
      "Ġago": 1074,
      "ep": 1075,
      "Ġ5": 1076,
      "Ġchild": 1077,
      "Ġvent": 1078,
      "Ġour": 1079,
      "Ġgu": 1080,
      "We": 1081,
      "Ġlife": 1082,
      "Ġclean": 1083,
      "Ġtaking": 1084,
      "ked": 1085,
      "ro": 1086,
      "ĠL": 1087,
      "ber": 1088,
      "Ġused": 1089,
      "Ġmonths": 1090,
      "ire": 1091,
      "Ġext": 1092,
      "Ġbrother": 1093,
      "off": 1094,
      "Ġcolle": 1095,
      "ia": 1096,
      "Ġtest": 1097,
      "Ġwere": 1098,
      "ait": 1099,
      "Ġeven": 1100,
      "alking": 1101,
      "do": 1102,
      "ighb": 1103,
      "Ġshow": 1104,
      "Ġneighb": 1105,
      "Ġke": 1106,
      "Ġmess": 1107,
      "Ġdri": 1108,
      "ree": 1109,
      "Ġconvers": 1110,
      "All": 1111,
      "Ġconversation": 1112,
      "la": 1113,
      "line": 1114,
      "Ġsmall": 1115,
      "Ġlist": 1116,
      "Ġcompletely": 1117,
      "redit": 1118,
      "lease": 1119,
      "Can": 1120,
      "he": 1121,
      "Ġcredit": 1122,
      "Ġfine": 1123,
      "Ġfa": 1124,
      "ions": 1125,
      "iz": 1126,
      "ĠO": 1127,
      "Ġcollege": 1128,
      "Sm": 1129,
      "Ġspeaking": 1130,
      "Ġsister": 1131,
      "iss": 1132,
      "Ġdad": 1133,
      "Ġgrand": 1134,
      "Ġ1": 1135,
      "Ġtheir": 1136,
      "Small": 1137,
      "Ġcli": 1138,
      "time": 1139,
      "Ġdiffic": 1140,
      "Ġmanag": 1141,
      "Ġdead": 1142,
      "Ġtra": 1143,
      "Ġcleaning": 1144,
      "Ġdifficult": 1145,
      "Ġterms": 1146,
      "Ġneighbor": 1147,
      "Ġdeep": 1148,
      "ost": 1149,
      "How": 1150,
      "Ġwait": 1151,
      "Ġboss": 1152,
      "ide": 1153,
      "Ġsmile": 1154,
      "Ġstep": 1155,
      "Ġhand": 1156,
      "Ġlook": 1157,
      "Ġmostly": 1158,
      "Ġdes": 1159,
      "op": 1160,
      "Ġcar": 1161,
      "Re": 1162,
      "Ġtea": 1163,
      "ĠE": 1164,
      "Ġtry": 1165,
      "Ġeas": 1166,
      "Ġsl": 1167,
      "Ġlay": 1168,
      "Ġkept": 1169,
      "Ġupd": 1170,
      "Ġdoes": 1171,
      "Ġ30": 1172,
      "Ġmanager": 1173,
      "Ġemotion": 1174,
      "bit": 1175,
      "Ġextremely": 1176,
      "Ġlear": 1177,
      "ady": 1178,
      "Ġupdate": 1179,
      "Ġstra": 1180,
      "Ġclient": 1181,
      "ng": 1182,
      "Ġrum": 1183,
      "box": 1184,
      "event": 1185,
      "Ġweirdly": 1186,
      "Ġph": 1187,
      "Ġrun": 1188,
      "ud": 1189,
      "ĠWe": 1190,
      "Ġdoing": 1191,
      "Ġpersonal": 1192,
      "Ġputting": 1193,
      "Ġincredibly": 1194,
      "ging": 1195,
      "Ġunevent": 1196,
      "Ġuneventful": 1197,
      "Ġsurprisingly": 1198,
      "Random": 1199,
      "Ġrumors": 1200,
      "Ġdeadline": 1201,
      "Ġlayoff": 1202,
      "hood": 1203,
      "atch": 1204,
      "Ġpre": 1205,
      "Ġstraight": 1206,
      "Ġovertime": 1207,
      "Ġinbox": 1208,
      "Ġgenuinely": 1209,
      "Well": 1210,
      "...": 1211,
      "stal": 1212,
      "sit": 1213,
      "Ġquietly": 1214,
      "Ġthen": 1215,
      "Ġeverything": 1216,
      "Oh": 1217,
      "ĠMy": 1218,
      "Ġemotional": 1219,
      "Ġoddly": 1220,
      "Ġnoticeably": 1221,
      "stalg": 1222,
      "ft": 1223,
      "Ġther": 1224,
      "Ġsecretly": 1225,
      "Ġspoke": 1226,
      "Ġtherap": 1227,
      "Kind": 1228,
      "Ġunusually": 1229,
      "ies": 1230,
      "ue": 1231,
      "Ġac": 1232,
      "Ġhitting": 1233,
      "Ġcomp": 1234,
      "Ġstar": 1235,
      "age": 1236,
      "app": 1237,
      "Ġhabit": 1238,
      "aught": 1239,
      "ĠJ": 1240,
      "Ġtherapist": 1241,
      "stalgia": 1242,
      "Ġhappy": 1243,
      "unch": 1244,
      "uck": 1245,
      "ved": 1246,
      "Nostalgia": 1247,
      "Ġchildhood": 1248,
      "Really": 1249,
      "Ġonly": 1250,
      "Ġwalk": 1251,
      "Ġuse": 1252,
      "Ġdrive": 1253,
      "Ġ2": 1254,
      "Ġbus": 1255,
      "Ġcity": 1256,
      "Ġus": 1257,
      "law": 1258,
      "Un": 1259,
      "Ġwent": 1260,
      "Ġtrave": 1261,
      "Ġtried": 1262,
      "row": 1263,
      "Ġplay": 1264,
      "Ġfl": 1265,
      "Ġentire": 1266,
      "Ġfive": 1267,
      "Ġcut": 1268,
      "Ġstarting": 1269,
      "ress": 1270,
      "so": 1271,
      "He": 1272,
      "Ġtw": 1273,
      "ĠHe": 1274,
      "Yeah": 1275,
      "mber": 1276,
      "Ġwithout": 1277,
      "led": 1278,
      "Ġmakes": 1279,
      "Why": 1280,
      "Ġplease": 1281,
      "ha": 1282,
      "ĠBut": 1283,
      "00": 1284,
      "Ġchoice": 1285,
      "Ġment": 1286,
      "Ġle": 1287,
      "Ġpick": 1288,
      "Ġtold": 1289,
      "ouse": 1290,
      "Ġwon": 1291,
      "Ġpol": 1292,
      "Ġapartment": 1293,
      "Ġlearning": 1294,
      "ac": 1295,
      "gan": 1296,
      "onna": 1297,
      "ave": 1298,
      "Ġkid": 1299,
      "Ġhope": 1300,
      "Qu": 1301,
      "In": 1302,
      "Ġrunning": 1303,
      "Ġsaving": 1304,
      "Ġgonna": 1305,
      "Ġrec": 1306,
      "Ġbl": 1307,
      "For": 1308,
      "ich": 1309,
      "ach": 1310,
      "imes": 1311,
      "Ġcome": 1312,
      "Ġtraveling": 1313,
      "Ġgive": 1314,
      "Ġopt": 1315,
      "Ġchanging": 1316,
      "Ġeasy": 1317,
      "Ġgir": 1318,
      "Ġentirely": 1319,
      "Ġliked": 1320,
      "Ġcook": 1321,
      "orm": 1322,
      "member": 1323,
      "ĠWhat": 1324,
      "Ġtalking": 1325,
      "Ġdisapp": 1326,
      "Ġfind": 1327,
      "Ġdream": 1328,
      "ands": 1329,
      "Ġteam": 1330,
      "Quietly": 1331,
      "Ġcareers": 1332,
      "irdly": 1333,
      "Ġlive": 1334,
      "ending": 1335,
      "Ġbunch": 1336,
      "oney": 1337,
      "Ġyoung": 1338,
      "ompletely": 1339,
      "Ġtrip": 1340,
      "Ġid": 1341,
      "ence": 1342,
      "ma": 1343,
      "Ġco": 1344,
      "Ġdec": 1345,
      "Unusually": 1346,
      "per": 1347,
      "Ġbeh": 1348,
      "mor": 1349,
      "arlier": 1350,
      "Ġsaid": 1351,
      "Ġhappen": 1352,
      "Ġhouse": 1353,
      "Ġdog": 1354,
      "Ġfriends": 1355,
      "sitive": 1356,
      "Ġbehind": 1357,
      "Ġremember": 1358,
      "err": 1359,
      "ary": 1360,
      "Ġnice": 1361,
      "Ġdesk": 1362,
      "ass": 1363,
      "Thanks": 1364,
      "xtremely": 1365,
      "cast": 1366,
      "ance": 1367,
      "izing": 1368,
      "cking": 1369,
      "Ġpay": 1370,
      "Ġsleep": 1371,
      "!!": 1372,
      "Earlier": 1373,
      "Ġclose": 1374,
      "urn": 1375,
      "Ġreci": 1376,
      "Ġmany": 1377,
      "Ġage": 1378,
      "Ġmist": 1379,
      "Ġsoon": 1380,
      "Ġerr": 1381,
      "Ġalso": 1382,
      "Ġmight": 1383,
      "Ġmoney": 1384,
      "inging": 1385,
      "ilt": 1386,
      "Ġrecipe": 1387,
      "ab": 1388,
      "Ġpod": 1389,
      "Ġmistake": 1390,
      "Ġfigure": 1391,
      "Ġrepl": 1392,
      "cept": 1393,
      "Ġnotice": 1394,
      "Ġsupp": 1395,
      "Every": 1396,
      "Ġguess": 1397,
      "Ġpodcast": 1398,
      "When": 1399,
      "Ġlie": 1400,
      "Ġerrands": 1401,
      "ganizing": 1402,
      "Ġwast": 1403,
      "Pretty": 1404,
      "ip": 1405,
      "Ġwatch": 1406,
      "ang": 1407,
      "ush": 1408,
      "Ġthough": 1409,
      "Ġexp": 1410,
      "Ġreor": 1411,
      "Ġreorganizing": 1412,
      "Ġworry": 1413,
      "Noticeably": 1414,
      "Ġthr": 1415,
      "Ġtwo": 1416,
      "Ġmiss": 1417,
      "Ġbinging": 1418,
      "oth": 1419,
      "Ġspace": 1420,
      "Ġwasn": 1421,
      "Ġsit": 1422,
      "Weirdly": 1423,
      "Ġacc": 1424,
      "Ġinter": 1425,
      "ĠHow": 1426,
      "Ġside": 1427,
      "Ġhandled": 1428,
      "Ġunc": 1429,
      "Secretly": 1430,
      "Completely": 1431,
      "Ġcont": 1432,
      "Ġreplace": 1433,
      "Ġbuilt": 1434,
      "Ġoptions": 1435,
      "Ġse": 1436,
      "ket": 1437,
      "ĠR": 1438,
      "Ġsw": 1439,
      "More": 1440,
      "Ġsensitive": 1441,
      "Ġguy": 1442,
      "Ġper": 1443,
      "Incredibly": 1444,
      "Deep": 1445,
      "ĠThey": 1446,
      "Genuinely": 1447,
      "Oddly": 1448,
      "Ġimp": 1449,
      "eared": 1450,
      "Ġoverreacting": 1451,
      "Ġmeant": 1452,
      "Extremely": 1453,
      "Ġthese": 1454,
      "Surprisingly": 1455,
      "Ġdisappeared": 1456,
      "Ġfun": 1457,
      "Ġsorry": 1458,
      "pa": 1459,
      "dy": 1460,
      "Ġinc": 1461,
      "ired": 1462,
      "sh": 1463,
      "ĠShe": 1464,
      "Ġseems": 1465,
      "Ġwasting": 1466,
      "Ġproble": 1467,
      "unt": 1468,
      "fort": 1469,
      "Ġmaking": 1470,
      "ne": 1471,
      "Ġconversations": 1472,
      "Ġpolite": 1473,
      "Ġcour": 1474,
      "oto": 1475,
      "Ġexc": 1476,
      "any": 1477,
      "Ġspe": 1478,
      "Ġcompl": 1479,
      "ĠMay": 1480,
      "Ġphoto": 1481,
      "Ġthrough": 1482,
      "Ġless": 1483,
      "Ġgl": 1484,
      "ail": 1485,
      "Ġdr": 1486,
      "ert": 1487,
      "Ġsong": 1488,
      "ise": 1489,
      "Ġrespon": 1490,
      "Ġsaw": 1491,
      "als": 1492,
      "sin": 1493,
      "Ġpartner": 1494,
      "riend": 1495,
      "Ġsho": 1496,
      "Ġland": 1497,
      "Ġthose": 1498,
      "less": 1499,
      "az": 1500,
      "Ġmar": 1501,
      "Ġcousin": 1502,
      "Ġcaught": 1503,
      "Ġquiet": 1504,
      "Ġtomor": 1505,
      "lex": 1506,
      "Ġleft": 1507,
      "Ġtomorrow": 1508,
      "oy": 1509,
      "ĠAnd": 1510,
      "Ġfavor": 1511,
      "Hi": 1512,
      "nal": 1513,
      "Ġop": 1514,
      "Ġits": 1515,
      "Ġstr": 1516,
      "Ġidea": 1517,
      "Ġjour": 1518,
      "ently": 1519,
      "Ġbuy": 1520,
      "Ġhigh": 1521,
      "ĠThank": 1522,
      "ĠCh": 1523,
      "Ġwaiting": 1524,
      "gg": 1525,
      "Ġuncle": 1526,
      "ie": 1527,
      "Ġsame": 1528,
      "Ġready": 1529,
      "Ġstop": 1530,
      "Last": 1531,
      "ordan": 1532,
      "ĠAlex": 1533,
      "Ġluck": 1534,
      "ash": 1535,
      "ya": 1536,
      "Ġmin": 1537,
      "Don": 1538,
      "Ġgrandma": 1539,
      "Ġgrandpa": 1540,
      "Ġ...": 1541,
      "Ġstay": 1542,
      "Ġaunt": 1543,
      "Ġmentor": 1544,
      "erest": 1545,
      "if": 1546,
      "Ġanother": 1547,
      "mom": 1548,
      "Ġchecking": 1549,
      "ĠPri": 1550,
      "icated": 1551,
      "Ġguard": 1552,
      "ife": 1553,
      "ited": 1554,
      "Ġyoungest": 1555,
      "ĠSo": 1556,
      "Ġstepmom": 1557,
      "Ġjournal": 1558,
      "ried": 1559,
      "oint": 1560,
      "lord": 1561,
      "ĠJordan": 1562,
      "door": 1563,
      "To": 1564,
      "ĠPriya": 1565,
      "ĠSam": 1566,
      "Ġfood": 1567,
      "ready": 1568,
      "cked": 1569,
      "dad": 1570,
      "Ġlandlord": 1571,
      "Ġcr": 1572,
      "Ġalready": 1573,
      "ute": 1574,
      "Ġfavorite": 1575,
      "Ġel": 1576,
      "Ġstepdad": 1577,
      "Ġsuch": 1578,
      "Ġfo": 1579,
      "Ġcomplicated": 1580,
      "ather": 1581,
      "Ġwhich": 1582,
      "Ġatt": 1583,
      "ctor": 1584,
      "Ġresponse": 1585,
      "Ġdoesn": 1586,
      "Ġcompany": 1587,
      "der": 1588,
      "ĠThis": 1589,
      "Ġplace": 1590,
      "Ġbusy": 1591,
      "Ġcourse": 1592,
      "Ġkids": 1593,
      "ĠV": 1594,
      "pping": 1595,
      "ello": 1596,
      "ned": 1597,
      "Ġtrying": 1598,
      "ny": 1599,
      "Ġfu": 1600,
      "Ġstuff": 1601,
      "Ġentry": 1602,
      "ans": 1603,
      "ĠDo": 1604,
      "Ġread": 1605,
      "Ġrest": 1606,
      "Ġproblem": 1607,
      "Ġinterest": 1608,
      "Ġgame": 1609,
      "og": 1610,
      "em": 1611,
      "Ġquite": 1612,
      "Ġgirl": 1613,
      "ðŁ": 1614,
      "ak": 1615,
      "ten": 1616,
      "ĠMaya": 1617,
      "Ġelse": 1618,
      "ied": 1619,
      "Ġwife": 1620,
      "ict": 1621,
      "each": 1622,
      "etimes": 1623,
      "ount": 1624,
      "ink": 1625,
      "Ġterri": 1626,
      "Ġmust": 1627,
      "Is": 1628,
      "Ġpu": 1629,
      "Ġscared": 1630,
      "Ġ\"": 1631,
      "Ġ:": 1632,
      "Ġser": 1633,
      "Ġask": 1634,
      "Ġlost": 1635,
      "Ġname": 1636,
      "Ġcoming": 1637,
      "Ġwin": 1638,
      "Ġhate": 1639,
      "Ġworking": 1640,
      "wh": 1641,
      "Ġtrue": 1642,
      "cial": 1643,
      "Ġpost": 1644,
      "ĠY": 1645,
      "erg": 1646,
      "Right": 1647,
      "Ġson": 1648,
      "lud": 1649,
      "Ġwish": 1650,
      "Ġsad": 1651,
      "Ġsec": 1652,
      "Ġtired": 1653,
      "Ġmovi": 1654,
      "Ġconf": 1655,
      "atever": 1656,
      "Ġisn": 1657,
      "Today": 1658,
      "Ġwrong": 1659,
      "Ġsir": 1660,
      "Ġdiffer": 1661,
      "ark": 1662,
      "Ġdoctor": 1663,
      "ens": 1664,
      "Ġ'": 1665,
      "Ġbother": 1666,
      "Ġclass": 1667,
      "Most": 1668,
      "Ġwonder": 1669,
      "raid": 1670,
      "Ġrecently": 1671,
      "most": 1672,
      "They": 1673,
      "Ġbre": 1674,
      "Ġafraid": 1675,
      "Yesterday": 1676,
      "OK": 1677,
      "irth": 1678,
      "ĠKind": 1679,
      "Ġinclud": 1680,
      "Ġleave": 1681,
      "Ġenj": 1682,
      "ren": 1683,
      "ushed": 1684,
      "ious": 1685,
      "edu": 1686,
      "But": 1687,
      "Ġsub": 1688,
      "Ġcomfort": 1689,
      "Ġlisten": 1690,
      "Ġlives": 1691,
      "Ġturn": 1692,
      "Ġanx": 1693,
      "Hello": 1694,
      "pped": 1695,
      "Ġexcept": 1696,
      "If": 1697,
      "ĠIn": 1698,
      "Ġbirth": 1699,
      "Ġalone": 1700,
      "Ġll": 1701,
      "ical": 1702,
      "use": 1703,
      "vy": 1704,
      "Ġsk": 1705,
      "ĠCan": 1706,
      "Hey": 1707,
      "med": 1708,
      "ntil": 1709,
      "Ġlol": 1710,
      "There": 1711,
      "Ġamaz": 1712,
      "Ġhea": 1713,
      "miss": 1714,
      "Since": 1715,
      "form": 1716,
      "ont": 1717,
      "Ġeat": 1718,
      "iness": 1719,
      "Ġglad": 1720,
      "ier": 1721,
      "ye": 1722,
      "Ġthanks": 1723,
      "Ġparty": 1724,
      "Ġdef": 1725,
      "Ġagree": 1726,
      "Ġorder": 1727,
      "Ġdaught": 1728,
      "Ġalmost": 1729,
      "Ġ4": 1730,
      "ump": 1731,
      "Ġservice": 1732,
      "du": 1733,
      "Ġbroke": 1734,
      "Ġbook": 1735,
      "ever": 1736,
      "Ġtimes": 1737,
      "Ġbothered": 1738,
      "Ġhus": 1739,
      "gn": 1740,
      "Ġhur": 1741,
      "Tonight": 1742,
      "fer": 1743,
      "Ġuntil": 1744,
      "Ġboy": 1745,
      "usted": 1746,
      "eet": 1747,
      "Over": 1748,
      "band": 1749,
      "Ġcount": 1750,
      "Ġheard": 1751,
      "mer": 1752,
      "Lately": 1753,
      "os": 1754,
      "Ġworld": 1755,
      "Ġlate": 1756,
      "Ġsecond": 1757,
      "ible": 1758,
      "Ġhaven": 1759,
      "Ġ$": 1760,
      "Ġwhatever": 1761,
      "Ġpass": 1762,
      "And": 1763,
      "Ġbirthday": 1764,
      "Ġmay": 1765,
      "ations": 1766,
      "Ġchar": 1767,
      "Ġhusband": 1768,
      "Ġcra": 1769,
      "lfriend": 1770,
      "ory": 1771,
      "up": 1772,
      "ery": 1773,
      "Ġexam": 1774,
      "Sure": 1775,
      "Ġphone": 1776,
      "ove": 1777,
      "Ġexperi": 1778,
      "set": 1779,
      "Ġadd": 1780,
      "les": 1781,
      "She": 1782,
      "Ġlooks": 1783,
      "Ġdont": 1784,
      "Ġusually": 1785,
      "cc": 1786,
      "Ġonce": 1787,
      "Ġgirlfriend": 1788,
      "ĠIf": 1789,
      "Ġfar": 1790,
      "ointment": 1791,
      "Everyone": 1792,
      "Ġunderstood": 1793,
      "Ġbought": 1794,
      "Ġimport": 1795,
      "ason": 1796,
      "com": 1797,
      "Ġhot": 1798,
      "Ġdaughter": 1799,
      "Ġheavy": 1800,
      "atter": 1801,
      "Talking": 1802,
      "ĠK": 1803,
      "Ġsal": 1804,
      "Ġinst": 1805,
      "Ġisol": 1806,
      "Ġsurpris": 1807,
      "Ġsto": 1808,
      "Ġappointment": 1809,
      "ident": 1810,
      "Ġrel": 1811,
      "Ġsounds": 1812,
      "Ġexcited": 1813,
      "Let": 1814,
      "Ġenerg": 1815,
      "missive": 1816,
      "Ġbab": 1817,
      "Ġcard": 1818,
      "ries": 1819,
      "ses": 1820,
      "Ġisolated": 1821,
      "Ġhu": 1822,
      "iv": 1823,
      "Ġcat": 1824,
      "Ġbrushed": 1825,
      "ision": 1826,
      "Ġgrad": 1827,
      "ĠMr": 1828,
      "Ġinterview": 1829,
      "Okay": 1830,
      "Ġeach": 1831,
      "Ġopen": 1832,
      "Ġsometimes": 1833,
      "Ġrep": 1834,
      "Ġset": 1835,
      "Ġnum": 1836,
      "ĠThere": 1837,
      "Ġseen": 1838,
      "Ġhor": 1839,
      "Ġlucky": 1840,
      "ars": 1841,
      "Ġthree": 1842,
      "anc": 1843,
      "Ġhappened": 1844,
      "Ġboth": 1845,
      "itch": 1846,
      "Ġgi": 1847,
      "Ġmood": 1848,
      "rect": 1849,
      "Nothing": 1850,
      "fect": 1851,
      "Ġoffer": 1852,
      "ressed": 1853,
      "Ġvac": 1854,
      "Ġsooner": 1855,
      "Ġimportant": 1856,
      "Ġdismissive": 1857,
      "ude": 1858,
      "Ġenjoy": 1859,
      "Ġtog": 1860,
      "Ġcomm": 1861,
      "Ġtogether": 1862,
      "Ġincluded": 1863,
      "od": 1864,
      "Ġresponded": 1865,
      "Ġreason": 1866,
      "ix": 1867,
      "Ġcor": 1868,
      "Ġexpl": 1869,
      "Ġrem": 1870,
      "br": 1871,
      "Ġdifferent": 1872,
      "eaut": 1873,
      "Ġamazing": 1874,
      "Ġfree": 1875,
      "Ġstore": 1876,
      "Ġknew": 1877,
      "Ġreg": 1878,
      "Ġ-": 1879,
      "Ġmoment": 1880,
      "ular": 1881,
      "iety": 1882,
      "ient": 1883,
      "].": 1884,
      "ateful": 1885,
      "aw": 1886,
      "Ġheart": 1887,
      "Ġmention": 1888,
      "Ġschedu": 1889,
      "Everything": 1890,
      "Ġmeet": 1891,
      "Ġple": 1892,
      "Are": 1893,
      "ĠWh": 1894,
      "ature": 1895,
      "Ġret": 1896,
      "Ġupset": 1897,
      "Ġ(": 1898,
      "Ġforward": 1899,
      "Ġmovie": 1900,
      "come": 1901,
      "ities": 1902,
      "Ġenergy": 1903,
      "Ġeve": 1904,
      "ph": 1905,
      "bs": 1906,
      "Ġwom": 1907,
      "Ġbeaut": 1908,
      "Ġconc": 1909,
      "Ġschedule": 1910,
      "Ġword": 1911,
      "Ġtrust": 1912,
      "Ġ10": 1913,
      "ĠU": 1914,
      "Ġstud": 1915,
      "Ġgrateful": 1916,
      "Ġbed": 1917,
      "icket": 1918,
      "Ġbaby": 1919,
      "Ġmis": 1920,
      "Ġnorm": 1921,
      "utes": 1922,
      "Ġbreak": 1923,
      "uring": 1924,
      "ize": 1925,
      "Ġsupport": 1926,
      "Ġdoll": 1927,
      "Ġte": 1928,
      "Ġanxiety": 1929,
      "Ex": 1930,
      "Ġdecision": 1931,
      "ĠIs": 1932,
      "Ġexha": 1933,
      "Ġsleeping": 1934,
      "Ġexperience": 1935,
      "gr": 1936,
      "Ġquest": 1937,
      "actly": 1938,
      "Ġsuper": 1939,
      "my": 1940,
      "Ġticket": 1941,
      "Ġwre": 1942,
      "ĠThanks": 1943,
      "ĠLet": 1944,
      "Ġlistening": 1945,
      "iful": 1946,
      "Ġtur": 1947,
      "ĠVe": 1948,
      "ition": 1949,
      "inite": 1950,
      "Ġbusiness": 1951,
      "osed": 1952,
      "coming": 1953,
      "yes": 1954,
      "Ġminutes": 1955,
      "ĠSt": 1956,
      "Ġexhausted": 1957,
      "Have": 1958,
      "ided": 1959,
      "Ġpa": 1960,
      "Ġpres": 1961,
      "gry": 1962,
      "ates": 1963,
      "Ġtrain": 1964,
      "Ġoffice": 1965,
      "Ġpain": 1966,
      "ian": 1967,
      "Ġmeaning": 1968,
      "Ġ20": 1969,
      "ache": 1970,
      "Ġsum": 1971,
      "alf": 1972,
      "olute": 1973,
      "initely": 1974,
      "Ġcant": 1975,
      "Ġspeak": 1976,
      "lish": 1977,
      "oc": 1978,
      "ange": 1979,
      "Ġoften": 1980,
      "Ġsn": 1981,
      "Ġterrible": 1982,
      "Ġcool": 1983,
      "Ġface": 1984,
      "Ġupcoming": 1985,
      "ness": 1986,
      "Ġmatter": 1987,
      "ves": 1988,
      "Ġgen": 1989,
      "Ġhurt": 1990,
      "Ġ6": 1991,
      "Ġfact": 1992,
      "Ġposs": 1993,
      "ger": 1994,
      "Ġins": 1995,
      "Ġbeautiful": 1996,
      "ative": 1997,
      "Ġfront": 1998,
      "ons": 1999,
      "Ġass": 2000,
      "ball": 2001,
      "iday": 2002,
      "Ġvacation": 2003,
      "ys": 2004,
      "Ġweather": 2005,
      "Ġtalked": 2006,
      "Ġnumber": 2007,
      "ipping": 2008,
      "ĠðŁ": 2009,
      "Ġmeals": 2010,
      "Ġdep": 2011,
      "ike": 2012,
      "Ġprodu": 2013,
      "cially": 2014,
      "Tell": 2015,
      "Ġgave": 2016,
      "enc": 2017,
      "Ġheadache": 2018,
      "side": 2019,
      "ments": 2020,
      "Ġtot": 2021,
      "Ġbor": 2022,
      "ĠčĊ": 2023,
      "ither": 2024,
      "ically": 2025,
      "Ġmus": 2026,
      "One": 2027,
      "aur": 2028,
      "Ġmed": 2029,
      "ug": 2030,
      "ouble": 2031,
      "Ġdidnt": 2032,
      "ĠEng": 2033,
      "Ġeasier": 2034,
      "ping": 2035,
      "Ġfre": 2036,
      "Ġdrink": 2037,
      "Ġexplain": 2038,
      "Be": 2039,
      "ics": 2040,
      "Ġnormal": 2041,
      "Ġspend": 2042,
      "ual": 2043,
      "oh": 2044,
      "ock": 2045,
      "Ġmother": 2046,
      "Ġfore": 2047,
      "Ġduring": 2048,
      "Ġhalf": 2049,
      "Could": 2050,
      "Ġyes": 2051,
      "Ġsim": 2052,
      "uation": 2053,
      "Ġperfect": 2054,
      "Ġrece": 2055,
      "Ġshook": 2056,
      "zy": 2057,
      "Ġwrecked": 2058,
      "ensive": 2059,
      "Ġwonderful": 2060,
      "Ġbas": 2061,
      "Ġdate": 2062,
      "Ġoutside": 2063,
      "olutely": 2064,
      "Ġpat": 2065,
      "room": 2066,
      "Ġmentioned": 2067,
      "Ġpar": 2068,
      "ract": 2069,
      "Ġcountry": 2070,
      "ames": 2071,
      "Ġyourself": 2072,
      "ale": 2073,
      "Ġteach": 2074,
      "Ġ8": 2075,
      "Ġra": 2076,
      "Ġwater": 2077,
      "Ġplaying": 2078,
      "Ġflaring": 2079,
      "ship": 2080,
      "aurant": 2081,
      "fied": 2082,
      "Ġpleas": 2083,
      "iting": 2084,
      "Ġart": 2085,
      "Wow": 2086,
      "body": 2087,
      "Ġcert": 2088,
      "Ġcur": 2089,
      "Ġgets": 2090,
      "Ġasked": 2091,
      "Ġsat": 2092,
      "Ġnear": 2093,
      "llow": 2094,
      "Ġwatching": 2095,
      "ged": 2096,
      "lect": 2097,
      "Ġind": 2098,
      "Ġwear": 2099,
      "Ġspecial": 2100,
      "ats": 2101,
      "ents": 2102,
      "Your": 2103,
      "Ġdro": 2104,
      "ized": 2105,
      "Ġsummer": 2106,
      "Ġref": 2107,
      "ĠFeeling": 2108,
      "illed": 2109,
      "Ġstand": 2110,
      "Ġaccept": 2111,
      "ĠSk": 2112,
      "ĠWhen": 2113,
      "Ġinform": 2114,
      "Ġdecided": 2115,
      "Ġrestaurant": 2116,
      "Ġhi": 2117,
      "ign": 2118,
      "Ġsing": 2119,
      "Ġdied": 2120,
      "eason": 2121,
      "Maybe": 2122,
      "Ġlau": 2123,
      "Ġfull": 2124,
      "Ġsy": 2125,
      "fully": 2126,
      "ivers": 2127,
      "Ġdefinitely": 2128,
      "Some": 2129,
      "Ġturning": 2130,
      "ming": 2131,
      "Ġwar": 2132,
      "Ġstre": 2133,
      "lic": 2134,
      "icture": 2135,
      "Ġdollars": 2136,
      "ote": 2137,
      "Ġdist": 2138,
      "Ġrather": 2139,
      "Here": 2140,
      "Ġworried": 2141,
      "ĠEnglish": 2142,
      "Ġdoor": 2143,
      "Ġvid": 2144,
      "Ġair": 2145,
      "Ġcam": 2146,
      "ane": 2147,
      "ĠNow": 2148,
      "ggest": 2149,
      "Ġpicture": 2150,
      "Ġjud": 2151,
      "Ġsuggest": 2152,
      "elf": 2153,
      "Ġdam": 2154,
      "Ġworries": 2155,
      "Ġmine": 2156,
      "Ġeff": 2157,
      "not": 2158,
      "Ġes": 2159,
      "Ġopin": 2160,
      "Would": 2161,
      "Ġma": 2162,
      "Ġir": 2163,
      "Ġprice": 2164,
      "ĠSkipping": 2165,
      "friend": 2166,
      "pid": 2167,
      "Ġworked": 2168,
      "Ġfast": 2169,
      "Ġhum": 2170,
      "Ġexactly": 2171,
      "Ġstudy": 2172,
      "Ġloc": 2173,
      "ade": 2174,
      "Ġprep": 2175,
      "Of": 2176,
      "Ġseem": 2177,
      "ying": 2178,
      "rew": 2179,
      "Ġangry": 2180,
      "pecially": 2181,
      "Ġvideo": 2182,
      "Ġsur": 2183,
      "esome": 2184,
      "Ġsign": 2185,
      "Ġinteresting": 2186,
      "Ok": 2187,
      "bb": 2188,
      "Ġfix": 2189,
      "Ġleg": 2190,
      "offee": 2191,
      "Ġcomput": 2192,
      "angu": 2193,
      "more": 2194,
      "Ġproduct": 2195,
      "Did": 2196,
      "let": 2197,
      "ru": 2198,
      "irt": 2199,
      "eal": 2200,
      "its": 2201,
      "Ġcost": 2202,
      "Ġmet": 2203,
      "Ġissu": 2204,
      "Ġgener": 2205,
      "Ġsurprised": 2206,
      "Ġaccident": 2207,
      "ĠSp": 2208,
      "Ġ*": 2209,
      "Ġlight": 2210,
      "Ġmusic": 2211,
      "Ġtop": 2212,
      "Ġstupid": 2213,
      "bye": 2214,
      "Ġbot": 2215,
      "Ġchildren": 2216,
      "],": 2217,
      "oor": 2218,
      "Ġbill": 2219,
      "Ġlangu": 2220,
      "Ġfoot": 2221,
      "amed": 2222,
      "ross": 2223,
      "Ġhorri": 2224,
      "Please": 2225,
      "ial": 2226,
      "Ġguys": 2227,
      "Ġav": 2228,
      "Exc": 2229,
      "Ġvi": 2230,
      "Ġquick": 2231,
      "Ġcase": 2232,
      "ĠHave": 2233,
      "mm": 2234,
      "Ġbar": 2235,
      "Ġfe": 2236,
      "Ġpossible": 2237,
      "ounds": 2238,
      "Ġinstead": 2239,
      "....": 2240,
      "aper": 2241,
      "Ġanymore": 2242,
      "Ġseason": 2243,
      "Ġdet": 2244,
      "Ġ7": 2245,
      "Ġcomes": 2246,
      "Ġaccount": 2247,
      "eric": 2248,
      "Ġpur": 2249,
      "Care": 2250,
      "Ġliving": 2251,
      "ĠHere": 2252,
      "Ġ:)": 2253,
      "Ġcrazy": 2254,
      "ower": 2255,
      "rist": 2256,
      "Ġprefer": 2257,
      "Careful": 2258,
      "Ġabs": 2259,
      "Ġopinion": 2260,
      "ah": 2261,
      "ps": 2262,
      "Ġinside": 2263,
      "Ġru": 2264,
      "Ġneeds": 2265,
      "Ġmeans": 2266,
      "Ġdel": 2267,
      "Ġeither": 2268,
      "Ġwind": 2269,
      "Ġob": 2270,
      "ital": 2271,
      "Ġseeing": 2272,
      "used": 2273,
      "Ġgone": 2274,
      "ĠFr": 2275,
      "Ġself": 2276,
      "Ġline": 2277,
      "Ġhandle": 2278,
      "port": 2279,
      "ina": 2280,
      "Ġscares": 2281,
      "Ġrecei": 2282,
      "Ġsweet": 2283,
      "Ġwalking": 2284,
      "âĢĿ": 2285,
      "Ġwel": 2286,
      "Ġemb": 2287,
      "the": 2288,
      "Ġmoved": 2289,
      "Ġearly": 2290,
      "ding": 2291,
      "ared": 2292,
      "Ġsituation": 2293,
      "ope": 2294,
      "oss": 2295,
      "Ġten": 2296,
      "Where": 2297,
      "Ġ9": 2298,
      "Ġhair": 2299,
      "Ġcold": 2300,
      "Ġroad": 2301,
      "Ġcomputer": 2302,
      "ered": 2303,
      "Ġstate": 2304,
      "gin": 2305,
      "Ġsupposed": 2306,
      "Ġtrans": 2307,
      "ced": 2308,
      "Ġok": 2309,
      "Ġboyfriend": 2310,
      "Ġslow": 2311,
      "Ġmarried": 2312,
      "Ġpatient": 2313,
      "Ġdriving": 2314,
      "ages": 2315,
      "Ġsent": 2316,
      "inese": 2317,
      "sp": 2318,
      "Ġrain": 2319,
      "Ġate": 2320,
      "Ġfeature": 2321,
      "sw": 2322,
      "Ġawesome": 2323,
      "Excuse": 2324,
      "Ġcoffee": 2325,
      "Ġothers": 2326,
      "Ġloved": 2327,
      "ax": 2328,
      "mb": 2329,
      "Ġpet": 2330,
      "arr": 2331,
      "air": 2332,
      "Ġbag": 2333,
      "len": 2334,
      "Ġinterested": 2335,
      "Ġposit": 2336,
      "Ġpresent": 2337,
      "rit": 2338,
      "ĠWhy": 2339,
      "Ġlunch": 2340,
      "Ġfeelings": 2341,
      "000": 2342,
      "Ġinformation": 2343,
      "Sorry": 2344,
      "Ġfell": 2345,
      "ĠAl": 2346,
      "Ġfunny": 2347,
      "Ġgift": 2348,
      "ility": 2349,
      "Ġcorrect": 2350,
      "Ġevening": 2351,
      "Ġlaugh": 2352,
      "cess": 2353,
      "Ġcu": 2354,
      "Ġtown": 2355,
      "ĠAre": 2356,
      "Ġimpr": 2357,
      "lent": 2358,
      "Ġintern": 2359,
      "Ġred": 2360,
      "Ġhold": 2361,
      "Ġfail": 2362,
      "man": 2363,
      "Ġgre": 2364,
      "Ġpop": 2365,
      "sing": 2366,
      "uture": 2367,
      "Ġrid": 2368,
      "Ġsever": 2369,
      "Ġstrong": 2370,
      "cri": 2371,
      "Ġpack": 2372,
      "ĠAmeric": 2373,
      "ploy": 2374,
      "Wanted": 2375,
      "lying": 2376,
      "anish": 2377,
      "Ġtru": 2378,
      "ĠAll": 2379,
      "Ġtable": 2380,
      "ĠChinese": 2381,
      "Ġpaid": 2382,
      "Ġrela": 2383,
      "olog": 2384,
      "Ġlar": 2385,
      "Ġrelax": 2386,
      "Ġsend": 2387,
      "Ġlooked": 2388,
      "oup": 2389,
      "Ġlonger": 2390,
      "Ġespecially": 2391,
      "Ġrequ": 2392,
      "ex": 2393,
      "ouch": 2394,
      "Ġfuture": 2395,
      "ism": 2396,
      "Ġstreet": 2397,
      "Ġlaw": 2398,
      "Ġfollow": 2399,
      "ili": 2400,
      "atur": 2401,
      "ants": 2402,
      "Ġcloth": 2403,
      "Ġaren": 2404,
      "Ġval": 2405,
      "Ġprov": 2406,
      "get": 2407,
      "Ġansw": 2408,
      "Ġreturn": 2409,
      "ense": 2410,
      "iter": 2411,
      "Ġrelation": 2412,
      "fter": 2413,
      "Ġgoes": 2414,
      "Ġspent": 2415,
      "Ġexpensive": 2416,
      "Ġshocked": 2417,
      "ecause": 2418,
      "ots": 2419,
      "ings": 2420,
      "ĠSh": 2421,
      "Ġfuck": 2422,
      "Ġdra": 2423,
      "cks": 2424,
      "Ġchance": 2425,
      "ĠâĢľ": 2426,
      "Ġposition": 2427,
      "where": 2428,
      "ined": 2429,
      "Ġshaken": 2430,
      "Ġfloor": 2431,
      "ustom": 2432,
      "Ġform": 2433,
      "unk": 2434,
      "ob": 2435,
      "Ġcanc": 2436,
      "Ġlearn": 2437,
      "Ġquestion": 2438,
      "Ġtotally": 2439,
      "Ġopp": 2440,
      "ĠSpanish": 2441,
      "Ġwelcome": 2442,
      "ween": 2443,
      "Ġmemor": 2444,
      "right": 2445,
      "Ġgames": 2446,
      "Ġlose": 2447,
      "Ġbank": 2448,
      "Ġcomment": 2449,
      "appy": 2450,
      "Ġshit": 2451,
      "Great": 2452,
      "Ġfather": 2453,
      "Ġwoman": 2454,
      "Ġmid": 2455,
      "Ġhuge": 2456,
      "Ġgradu": 2457,
      "Ġrelationship": 2458,
      "lled": 2459,
      "Ġwants": 2460,
      "fortun": 2461,
      "outh": 2462,
      "vel": 2463,
      "Ġassist": 2464,
      "Ġtrouble": 2465,
      "Ġlocal": 2466,
      "Ġhorrible": 2467,
      "ĠBe": 2468,
      "Ġresult": 2469,
      "Ġremind": 2470,
      "Any": 2471,
      "uss": 2472,
      "Ġqual": 2473,
      "Ġcover": 2474,
      "Ġbetween": 2475,
      "Ġsort": 2476,
      "wards": 2477,
      "Ġagainst": 2478,
      "Ġcry": 2479,
      "Ġcatch": 2480,
      "umb": 2481,
      "ĠWould": 2482,
      "za": 2483,
      "ĠThen": 2484,
      "Ġforget": 2485,
      "Ġwords": 2486,
      "ues": 2487,
      "ugg": 2488,
      "Ġsingle": 2489,
      "Ġap": 2490,
      "astic": 2491,
      "Ġaff": 2492,
      "Ġbecome": 2493,
      "Ġappro": 2494,
      "App": 2495,
      "Ġworst": 2496,
      "ĠDon": 2497,
      "work": 2498,
      "vious": 2499,
      "Ġhoping": 2500,
      "Ġweight": 2501,
      "Ġworse": 2502,
      "ational": 2503,
      "Ġsucc": 2504,
      "ĠPlease": 2505,
      "Ġclear": 2506,
      "ĠNew": 2507,
      "pend": 2508,
      "Ġfour": 2509,
      "Then": 2510,
      "ention": 2511,
      "Ġones": 2512,
      "iece": 2513,
      "ĠReally": 2514,
      "mas": 2515,
      "Ġbur": 2516,
      "Ġkill": 2517,
      "ffic": 2518,
      "rent": 2519,
      "Ġcustom": 2520,
      "ised": 2521,
      "ĠTH": 2522,
      "Ġgrow": 2523,
      "Ġextra": 2524,
      "Ġshopping": 2525,
      "Ġcake": 2526,
      "Ġturned": 2527,
      "Ha": 2528,
      "Ġbreat": 2529,
      "Ġclothes": 2530,
      "Ġcash": 2531,
      "ĠMore": 2532,
      "ĠGood": 2533,
      "aged": 2534,
      "Ġsex": 2535,
      "Ġbox": 2536,
      "Ġembarr": 2537,
      "Ġsays": 2538,
      "Ġfinal": 2539,
      "Ġexpected": 2540,
      "Ġfair": 2541,
      "Ġpub": 2542,
      "Ġallow": 2543,
      "mend": 2544,
      "Ġprof": 2545,
      "Ġpark": 2546,
      "Ġrent": 2547,
      "ific": 2548,
      "ks": 2549,
      "Ġproblems": 2550,
      "Ġlanguage": 2551,
      "tle": 2552,
      "Ġce": 2553,
      "iced": 2554,
      "uan": 2555,
      "!!!": 2556,
      "sur": 2557,
      "Ġworks": 2558,
      "Ġbuild": 2559,
      "Ġusing": 2560,
      "Ġseveral": 2561,
      "Ġhelpful": 2562,
      "how": 2563,
      "Ġeyes": 2564,
      "ĠOK": 2565,
      "ub": 2566,
      "ines": 2567,
      "Ġstory": 2568,
      "Ġcontr": 2569,
      "Ġla": 2570,
      "Ġgod": 2571,
      "Ġash": 2572,
      "izza": 2573,
      "Ġflight": 2574,
      "Ġswitch": 2575,
      "head": 2576,
      "read": 2577,
      "Ġsatis": 2578,
      "Ġpract": 2579,
      "ĠOh": 2580,
      "erve": 2581,
      "Ġfil": 2582,
      "Ġbegin": 2583,
      "Ġalong": 2584,
      "hh": 2585,
      "over": 2586,
      "Ġscary": 2587,
      "ĠCould": 2588,
      "On": 2589,
      "Ġthrow": 2590,
      "erc": 2591,
      "Ġinf": 2592,
      "Ġcannot": 2593,
      "ĠEvery": 2594,
      "Ġmissed": 2595,
      "Appreciate": 2596,
      "Ġsell": 2597,
      "Ġpaper": 2598,
      "Ġbel": 2599,
      "Ġsave": 2600,
      "Ġ15": 2601,
      "Ġbroken": 2602,
      "Ġreading": 2603,
      "oun": 2604,
      "ointed": 2605,
      "Ġawful": 2606,
      "Ġexpecting": 2607,
      "Al": 2608,
      "ef": 2609,
      "earch": 2610,
      "Ġpartic": 2611,
      "anger": 2612,
      "iversity": 2613,
      "Ġabsolutely": 2614,
      "ĠUn": 2615,
      "Ġcal": 2616,
      "Ġdeli": 2617,
      "ĠIncredibly": 2618,
      "Me": 2619,
      "Ġcond": 2620,
      "Ġeng": 2621,
      "May": 2622,
      "Ġcute": 2623,
      "Ġwomen": 2624,
      "Ġlarge": 2625,
      "Ġhom": 2626,
      "ometimes": 2627,
      "Ġarea": 2628,
      "Ġonline": 2629,
      "Ġemploy": 2630,
      "Ġwindow": 2631,
      "ai": 2632,
      "old": 2633,
      "Ġcre": 2634,
      "Ġreli": 2635,
      "ristmas": 2636,
      "Ġbath": 2637,
      "Ġcalling": 2638,
      "rious": 2639,
      "aps": 2640,
      "Ġimprove": 2641,
      "RE": 2642,
      "Ġhaha": 2643,
      "agine": 2644,
      "ĠPretty": 2645,
      "Ġleaving": 2646,
      "Ġwatched": 2647,
      "rench": 2648,
      "Ġadmit": 2649,
      "Ġtaken": 2650,
      "ib": 2651,
      "Ġsun": 2652,
      "ĠFor": 2653,
      "dle": 2654,
      "Ġz": 2655,
      "Ġthankful": 2656,
      "ĠðŁĺ": 2657,
      "ĠOddly": 2658,
      "Ġgirls": 2659,
      "Ġashamed": 2660,
      "Didn": 2661,
      "und": 2662,
      "Ġfootball": 2663,
      "ommend": 2664,
      "Ġchat": 2665,
      "ended": 2666,
      "Ġminute": 2667,
      "bt": 2668,
      "Ġtast": 2669,
      "ees": 2670,
      "ety": 2671,
      "Ġrecommend": 2672,
      "Ġdisappointed": 2673,
      "As": 2674,
      "sel": 2675,
      "ĠCompletely": 2676,
      "See": 2677,
      "Ġpizza": 2678,
      "Ġdirect": 2679,
      "Ġdude": 2680,
      "irty": 2681,
      "Ġdisg": 2682,
      "Ġdish": 2683,
      "ĠWeirdly": 2684,
      "ction": 2685,
      "Ġmovies": 2686,
      "Ġtour": 2687,
      "Ġserious": 2688,
      "Ġdark": 2689,
      "Ġanim": 2690,
      "Ġbody": 2691,
      "Ġtraffic": 2692,
      "icke": 2693,
      "Ġfall": 2694,
      "lebr": 2695,
      "Ġdress": 2696,
      "ongr": 2697,
      "Ġconcer": 2698,
      "ĠTV": 2699,
      "Ġsyst": 2700,
      "Ġcelebr": 2701,
      "Ġ/": 2702,
      "ppy": 2703,
      "Ġperform": 2704,
      "Ġmen": 2705,
      "Ġjudging": 2706,
      "Ġmaj": 2707,
      "Ġfear": 2708,
      "Ġfill": 2709,
      "oted": 2710,
      "that": 2711,
      "ĠWell": 2712,
      "Ġrealize": 2713,
      "oyed": 2714,
      "ric": 2715,
      "ters": 2716,
      "Ġtakes": 2717,
      "IN": 2718,
      "Now": 2719,
      "unity": 2720,
      "when": 2721,
      "Ġreach": 2722,
      "Ġill": 2723,
      "ĠChina": 2724,
      "whel": 2725,
      "Ġmain": 2726,
      "Ġball": 2727,
      "Ġcurrent": 2728,
      "ĠQuietly": 2729,
      "res": 2730,
      "lling": 2731,
      "ĠSome": 2732,
      "Ġfucking": 2733,
      "ĠHonestly": 2734,
      "Ġcause": 2735,
      "Ġcop": 2736,
      "eak": 2737,
      "Ġgross": 2738,
      "Ġconsider": 2739,
      "Ġcontin": 2740,
      "Ġ:(": 2741,
      "Ġcontrol": 2742,
      "ĠDeep": 2743,
      "Ġpress": 2744,
      "na": 2745,
      "Ġtouch": 2746,
      "orn": 2747,
      "Ġoverwhel": 2748,
      "Ġmod": 2749,
      "ins": 2750,
      "Ġadv": 2751,
      "Ġpan": 2752,
      "Ġstrange": 2753,
      "Look": 2754,
      "tt": 2755,
      "Ġjump": 2756,
      "ides": 2757,
      "Ġive": 2758,
      "Ġanxious": 2759,
      "fortunately": 2760,
      "St": 2761,
      "ĠNoticeably": 2762,
      "Ġdepart": 2763,
      "Ġsafe": 2764,
      "Ġforever": 2765,
      "ĠUnusually": 2766,
      "ĠSecretly": 2767,
      "orts": 2768,
      "Ġjoke": 2769,
      "Ġavail": 2770,
      "ctually": 2771,
      "Ġquestions": 2772,
      "ĠId": 2773,
      "Ġliter": 2774,
      "Ġcap": 2775,
      "oop": 2776,
      "ĠMon": 2777,
      "Ġsuccess": 2778,
      "Ġtax": 2779,
      "ĠAs": 2780,
      "Ġchea": 2781,
      "ored": 2782,
      "Ġattention": 2783,
      "Ġsme": 2784,
      "ĠExtremely": 2785,
      "land": 2786,
      "Ġahead": 2787,
      "Ġwed": 2788,
      "Ġteacher": 2789,
      "Someone": 2790,
      "Ġmiddle": 2791,
      "Ġtreat": 2792,
      "aster": 2793,
      "ney": 2794,
      "Ġmarket": 2795,
      "Ġach": 2796,
      "Ġfant": 2797,
      "asses": 2798,
      "Ġcons": 2799,
      "Ġhappens": 2800,
      "Ġgiving": 2801,
      "oliday": 2802,
      "Ġrealized": 2803,
      "Ġcharge": 2804,
      "Ġmajor": 2805,
      "Because": 2806,
      "Ġpot": 2807,
      "Ġgra": 2808,
      "ilar": 2809,
      "Ġfaith": 2810,
      "Ġwoke": 2811,
      "Ġfinish": 2812,
      "Ġhelped": 2813,
      "to": 2814,
      "Ġchoo": 2815,
      "Ġarri": 2816,
      "Ġsuit": 2817,
      "Ġsurprise": 2818,
      "Ġirrit": 2819,
      "Ġinternet": 2820,
      "Ġsystem": 2821,
      "Guess": 2822,
      "Ġdumb": 2823,
      "Ġbeat": 2824,
      "Ġant": 2825,
      "Ġpoor": 2826,
      "Ġ12": 2827,
      "Ġblack": 2828,
      "Ġcharact": 2829,
      "Ġhotel": 2830,
      "ĠFrench": 2831,
      "Ġplayed": 2832,
      "Ġbooks": 2833,
      "Ġpublic": 2834,
      "Ġwalked": 2835,
      "Ġdogs": 2836,
      "gram": 2837,
      "ON": 2838,
      "Ġann": 2839,
      "etic": 2840,
      "istic": 2841,
      "Ġ100": 2842,
      "Ġprepared": 2843,
      "Ġavailable": 2844,
      "oid": 2845,
      "ills": 2846,
      "Ġdue": 2847,
      "Ġamount": 2848,
      "Ġlearned": 2849,
      "Ġconfident": 2850,
      "ĠFriday": 2851,
      "mp": 2852,
      "oved": 2853,
      "Ġhosp": 2854,
      "dit": 2855,
      "Ġgiven": 2856,
      "Ġstole": 2857,
      "Ġmail": 2858,
      "ooking": 2859,
      "Ġdetail": 2860,
      "ted": 2861,
      "io": 2862,
      "Ġpower": 2863,
      "Ġsix": 2864,
      "Who": 2865,
      "haha": 2866,
      "At": 2867,
      "Ġfit": 2868,
      "Ġkeeps": 2869,
      "Ġoption": 2870,
      "fic": 2871,
      "retch": 2872,
      "ĠGenuinely": 2873,
      "ĠUS": 2874,
      "Ġafford": 2875,
      "yle": 2876,
      "Goodbye": 2877,
      "Ġeasily": 2878,
      "surance": 2879,
      "Ġbase": 2880,
      "Ġholiday": 2881,
      "Ġpregn": 2882,
      "Ġbeach": 2883,
      "Ġelect": 2884,
      "Ġexerc": 2885,
      "antly": 2886,
      "ield": 2887,
      "Ġreceived": 2888,
      "Ġfeet": 2889,
      "Ġpositive": 2890,
      "haps": 2891,
      "osit": 2892,
      "Ġshop": 2893,
      "Ġprogram": 2894,
      "Ġimpressed": 2895,
      "ify": 2896,
      "ĠWhere": 2897,
      "Ġtickets": 2898,
      "Ġfeatures": 2899,
      "we": 2900,
      "ured": 2901,
      "assed": 2902,
      "ĠDid": 2903,
      "Ġkinda": 2904,
      "ises": 2905,
      "Ġpiece": 2906,
      "Ġstretch": 2907,
      "Ġplans": 2908,
      "Ġhands": 2909,
      "ta": 2910,
      "Ġmach": 2911,
      "Ġlead": 2912,
      "ĠIts": 2913,
      "Ġseat": 2914,
      "selves": 2915,
      "Ġwedding": 2916,
      "ym": 2917,
      "Ġhell": 2918,
      "ened": 2919,
      "icy": 2920,
      "Ġcounts": 2921,
      "evel": 2922,
      "ists": 2923,
      "Ġpaying": 2924,
      "ohn": 2925,
      "Ġsatisfied": 2926,
      "icken": 2927,
      "Ġsmo": 2928,
      "Ġswim": 2929,
      "cent": 2930,
      "Ġ;": 2931,
      "Ġcent": 2932,
      "Ġgotten": 2933,
      "Ġanswer": 2934,
      "Ġoverwhelmed": 2935,
      "con": 2936,
      "ator": 2937,
      "icious": 2938,
      "Ġcompet": 2939,
      "Ġice": 2940,
      "amn": 2941,
      "Ġpolice": 2942,
      "Ġblood": 2943,
      "Ġtor": 2944,
      "Ġshut": 2945,
      "ces": 2946,
      "Ġyell": 2947,
      "ĠSurprisingly": 2948,
      "Ġroll": 2949,
      "Ġresults": 2950,
      "Ġparticular": 2951,
      "Ġtem": 2952,
      "Ġinsurance": 2953,
      "icle": 2954,
      "Ġdamn": 2955,
      "ellent": 2956,
      "ĠSm": 2957,
      "Ġissue": 2958,
      "ift": 2959,
      "Ġdiscuss": 2960,
      "Ġyounger": 2961,
      "Ġshoes": 2962,
      "Ġfan": 2963,
      "Ġfire": 2964,
      "Ġjeal": 2965,
      "Ġwriting": 2966,
      "Ġordered": 2967,
      "Sh": 2968,
      "Ġlovely": 2969,
      "ĠYour": 2970,
      "Ġpopular": 2971,
      "Ġhospital": 2972,
      "Ġjealous": 2973,
      "Ġproper": 2974,
      "Ġgroc": 2975,
      "Ġquickly": 2976,
      "you": 2977,
      "Ġed": 2978,
      "Ġrate": 2979,
      "Ġharder": 2980,
      "âł": 2981,
      "Ġhun": 2982,
      "Ġthrew": 2983,
      "Ġwhenever": 2984,
      "Ġuniversity": 2985,
      "Ġsmart": 2986,
      "Ġtraining": 2987,
      "mother": 2988,
      "amp": 2989,
      "Ġreserv": 2990,
      "Ġprovide": 2991,
      "ER": 2992,
      "Ġhist": 2993,
      "Ġnoticed": 2994,
      "elcome": 2995,
      "AT": 2996,
      "Ġcand": 2997,
      "Ġride": 2998,
      "Ġstudied": 2999,
      "min": 3000,
      "Ġmatch": 3001,
      "Ġca": 3002,
      "oooo": 3003,
      "Ġconst": 3004,
      "Ġreport": 3005,
      "Ġconcert": 3006,
      "Ġwake": 3007,
      "Ġwhite": 3008,
      "Ġinve": 3009,
      "Ġsocial": 3010,
      "iles": 3011,
      "Ġappli": 3012,
      "Ġlots": 3013,
      "Ġimagine": 3014,
      "Ġcertainly": 3015,
      "Ġneg": 3016,
      "ilities": 3017,
      "Ġgroup": 3018,
      "Lol": 3019,
      "Ġmag": 3020,
      "Ġsuppose": 3021,
      "Ġskin": 3022,
      "Ġplac": 3023,
      "Ġshouldn": 3024,
      "Ġcolor": 3025,
      "Ġtravel": 3026,
      "Ġcomfortable": 3027,
      "itchen": 3028,
      "Ġpictures": 3029,
      "Ġstudying": 3030,
      "Ġchoose": 3031,
      "OU": 3032,
      "Very": 3033,
      "book": 3034,
      "Ġlevel": 3035,
      "Ġcup": 3036,
      "Ġdev": 3037,
      "Ġprocess": 3038,
      "Ġfantastic": 3039,
      "reen": 3040,
      "Ġpret": 3041,
      "ased": 3042,
      "but": 3043,
      "Ġrush": 3044,
      "pected": 3045,
      "Ġmemories": 3046,
      "ĠIdeas": 3047,
      "??": 3048,
      "dden": 3049,
      "Ġphys": 3050,
      "Ġview": 3051,
      "Ġgar": 3052,
      "Ġacross": 3053,
      "Ġfoc": 3054,
      "Ġbathroom": 3055,
      "Ġhon": 3056,
      "Ġpea": 3057,
      "vern": 3058,
      "tern": 3059,
      "Ġplanning": 3060,
      "Ġrespons": 3061,
      "ency": 3062,
      "Ġraise": 3063,
      "Ah": 3064,
      "Im": 3065,
      "cy": 3066,
      "Ġkitchen": 3067,
      "mester": 3068,
      "ession": 3069,
      "bsolutely": 3070,
      "Ġtre": 3071,
      "Ġchicken": 3072,
      "Ġcouldnt": 3073,
      "Does": 3074,
      "Ġwal": 3075,
      "ishing": 3076,
      "Ġdest": 3077,
      "Ġcomplain": 3078,
      "Ġissues": 3079,
      "Ġdepartment": 3080,
      "ĠIm": 3081,
      "Ġchanged": 3082,
      "mon": 3083,
      "Ġbless": 3084,
      "Which": 3085,
      "Ġneighbors": 3086,
      "Ġsemester": 3087,
      "Ġliterally": 3088,
      "cl": 3089,
      "Ġdou": 3090,
      "Ġgas": 3091,
      "Ġbrand": 3092,
      "what": 3093,
      "Ġenjoyed": 3094,
      "ton": 3095,
      "Ġfeed": 3096,
      "Ġep": 3097,
      "Ġaccepted": 3098,
      "ges": 3099,
      "vid": 3100,
      "ĠChristmas": 3101,
      "Nice": 3102,
      "OO": 3103,
      "go": 3104,
      "Ġsales": 3105,
      "Ġborn": 3106,
      "Ġstress": 3107,
      "ĠSee": 3108,
      "Ġolder": 3109,
      "ĠTo": 3110,
      "Ġopport": 3111,
      "hale": 3112,
      "sy": 3113,
      "ories": 3114,
      "Ġdiet": 3115,
      "ilty": 3116,
      "Ġblue": 3117,
      "ertainly": 3118,
      "Ġconcerned": 3119,
      "Ġshirt": 3120,
      "Ġgovern": 3121,
      "Ġhelping": 3122,
      "alent": 3123,
      "Ġgym": 3124,
      "Ġcarry": 3125,
      "Ġtough": 3126,
      "Ġmot": 3127,
      "ears": 3128,
      "Ġpleasure": 3129,
      "back": 3130,
      "mo": 3131,
      "Ġdoc": 3132,
      "Ġhealthy": 3133,
      "Ġkey": 3134,
      "Ġproducts": 3135,
      "Congr": 3136,
      "oom": 3137,
      "ĠMonday": 3138,
      "Absolutely": 3139,
      "Ġlady": 3140,
      "Ġguilty": 3141,
      "Ġgrandmother": 3142,
      "Ġcontract": 3143,
      "LL": 3144,
      "hip": 3145,
      "lies": 3146,
      "Ġcoun": 3147,
      "Ġemp": 3148,
      "Ġembarrassed": 3149,
      "Fine": 3150,
      "Ġhimself": 3151,
      "ones": 3152,
      "Ġeye": 3153,
      "Ġpriv": 3154,
      "Ġdeg": 3155,
      "Ġcontact": 3156,
      "?!": 3157,
      "cle": 3158,
      "Ġtruck": 3159,
      "Ġspeci": 3160,
      "Certainly": 3161,
      "ts": 3162,
      "Ġsand": 3163,
      "Ġsudden": 3164,
      "mao": 3165,
      "Ġquality": 3166,
      "Ġsmell": 3167,
      "ape": 3168,
      "Ġpeace": 3169,
      "Ġmil": 3170,
      "Ġpoop": 3171,
      "tery": 3172,
      "ĠAt": 3173,
      "ection": 3174,
      "ĠBr": 3175,
      "Ġdie": 3176,
      "ðŁĺ": 3177,
      "col": 3178,
      "Ġyuan": 3179,
      "Ġcontent": 3180,
      "ences": 3181,
      "Ġwithin": 3182,
      "Ġhuman": 3183,
      "Ġaccidentally": 3184,
      "Go": 3185,
      "Ġmill": 3186,
      "Ġtowards": 3187,
      "ndred": 3188,
      "Ġhundred": 3189,
      "Ġevent": 3190,
      "ems": 3191,
      "Ġmath": 3192,
      "orting": 3193,
      "Ġcreat": 3194,
      "Ġspr": 3195,
      "Ġground": 3196,
      "Ġexample": 3197,
      "Ġslowly": 3198,
      "Ġcancer": 3199,
      "Ġpregnant": 3200,
      "Ġpants": 3201,
      "Ġdepend": 3202,
      "ified": 3203,
      "Ġstudents": 3204,
      "Ġattack": 3205,
      "ances": 3206,
      "Ġdeposit": 3207,
      "Ġstretched": 3208,
      "Our": 3209,
      "ij": 3210,
      "well": 3211,
      "Ġsqu": 3212,
      "Ġsecret": 3213,
      "Ġcross": 3214,
      "ĠHope": 3215,
      "Ġwinter": 3216,
      "Ġtotal": 3217,
      "Ġcertain": 3218,
      "Ġeffect": 3219,
      "aturday": 3220,
      "Sounds": 3221,
      "aa": 3222,
      "Ġ%": 3223,
      "Ġaut": 3224,
      "Ġequ": 3225,
      "Ġshot": 3226,
      "akes": 3227,
      "ained": 3228,
      "Ġ50": 3229,
      "Ġblog": 3230,
      "Ġfresh": 3231,
      "Ġrequest": 3232,
      "velop": 3233,
      "Ġinvest": 3234,
      "Ġwall": 3235,
      "ĠWill": 3236,
      "Ġletter": 3237,
      "Ġmissing": 3238,
      "Ġgraduated": 3239,
      "Ġbuilding": 3240,
      "iling": 3241,
      "Ġdeath": 3242,
      "Ġrecord": 3243,
      "Ġdoubt": 3244,
      "Ġdating": 3245,
      "Ġidi": 3246,
      "Ġtruly": 3247,
      "**": 3248,
      "Yea": 3249,
      "Ġcried": 3250,
      "ĠOne": 3251,
      "Ġcurious": 3252,
      "Ġhistory": 3253,
      "Ġfat": 3254,
      "issed": 3255,
      "Ġmeal": 3256,
      "ulous": 3257,
      "ains": 3258,
      "Ġboard": 3259,
      "Ġali": 3260,
      "Ġdouble": 3261,
      "Ġthats": 3262,
      "Ġbro": 3263,
      "Ġorgan": 3264,
      "Ġlottery": 3265,
      "Ġparking": 3266,
      "Ġexercise": 3267,
      "An": 3268,
      "Ġpen": 3269,
      "Ġgoal": 3270,
      "Ġsup": 3271,
      "Ġtrash": 3272,
      "educ": 3273,
      "Ġgovernment": 3274,
      "gress": 3275,
      "ining": 3276,
      "Ġhes": 3277,
      "Ġyard": 3278,
      "irm": 3279,
      "ĠAfter": 3280,
      "Ġclasses": 3281,
      "Ġstopped": 3282,
      "ays": 3283,
      "Ġstressed": 3284,
      "Ġstyle": 3285,
      "even": 3286,
      "Ġexcellent": 3287,
      "Ġgun": 3288,
      "ĠSaturday": 3289,
      "ĠJohn": 3290,
      "Ġtech": 3291,
      "ĠAmerica": 3292,
      "Ġnon": 3293,
      "ising": 3294,
      "Ġclar": 3295,
      "Ġconfused": 3296,
      "Ġappreci": 3297,
      "Ġseemed": 3298,
      "Ġpuppy": 3299,
      "Ġtext": 3300,
      "Ġpair": 3301,
      "Will": 3302,
      "Ġtend": 3303,
      "Ġfur": 3304,
      "Ġattract": 3305,
      "Ġdifference": 3306,
      "Ġ201": 3307,
      "usting": 3308,
      "vent": 3309,
      "Ġbene": 3310,
      "Ġstorm": 3311,
      "ĠMary": 3312,
      "Ġdevelop": 3313,
      "Ġeveryday": 3314,
      "ĠOn": 3315,
      "ĠSmith": 3316,
      "50": 3317,
      "pose": 3318,
      "Ġdance": 3319,
      "Ġbeer": 3320,
      "els": 3321,
      "urch": 3322,
      "Ġhasn": 3323,
      "Ġstarts": 3324,
      "Ġmanage": 3325,
      "Ġmachine": 3326,
      "ior": 3327,
      "oof": 3328,
      "Ġknowing": 3329,
      "ption": 3330,
      "Ġapplied": 3331,
      "Actually": 3332,
      "lad": 3333,
      "ror": 3334,
      "ĠRe": 3335,
      "Ġstation": 3336,
      "Ġspot": 3337,
      "Ġspeed": 3338,
      "Ġ200": 3339,
      "Ġapproach": 3340,
      "Ġfocus": 3341,
      "Ġflying": 3342,
      "Ġdanger": 3343,
      "oting": 3344,
      "lev": 3345,
      "Wait": 3346,
      "Ġcream": 3347,
      "Ġenvious": 3348,
      "Ġpolit": 3349,
      "Ġdropped": 3350,
      "Ġapolog": 3351,
      "anna": 3352,
      "Ġprot": 3353,
      "ulations": 3354,
      "Ġloves": 3355,
      "ĠTHE": 3356,
      "Ġhang": 3357,
      "vert": 3358,
      "ĠTr": 3359,
      "Ġdecide": 3360,
      "Ġmedic": 3361,
      "Ġtruth": 3362,
      "Ġcustomer": 3363,
      "Ġdocument": 3364,
      "gs": 3365,
      "mit": 3366,
      "Ġow": 3367,
      "Ġdescri": 3368,
      "Ġterrified": 3369,
      "Ġgrade": 3370,
      "Ġwarm": 3371,
      "Ġeduc": 3372,
      "Ġful": 3373,
      "Ġdent": 3374,
      "Ġjoy": 3375,
      "Ġshows": 3376,
      "Ġswe": 3377,
      "Ġboring": 3378,
      "sume": 3379,
      "Ġconn": 3380,
      "Ġscen": 3381,
      "airs": 3382,
      "Ġperformance": 3383,
      "ijing": 3384,
      "lo": 3385,
      "orth": 3386,
      "Ġfinan": 3387,
      "Ġconv": 3388,
      "ĠLook": 3389,
      "Ġfault": 3390,
      "Ġbuying": 3391,
      "Ġregret": 3392,
      "Ġfailed": 3393,
      "Ġea": 3394,
      "Ġhtt": 3395,
      "Ġrude": 3396,
      "ĠGo": 3397,
      "Ġjobs": 3398,
      "Ġborrow": 3399,
      "Ġdelicious": 3400,
      "Ġplaces": 3401,
      "Ġwine": 3402,
      "atic": 3403,
      "Ġhated": 3404,
      "Ġrich": 3405,
      "Ġphotos": 3406,
      "Ġsli": 3407,
      "thank": 3408,
      "Ġpray": 3409,
      "Ġannoying": 3410,
      "Ġcheated": 3411,
      "Ġcalls": 3412,
      "Ġpayment": 3413,
      "ancy": 3414,
      "Ġstudent": 3415,
      "ply": 3416,
      "Ġban": 3417,
      "Ġkick": 3418,
      "Ġshall": 3419,
      "Ġlikes": 3420,
      "Ġflow": 3421,
      "Ġregular": 3422,
      "Ġjudge": 3423,
      "ĠAmerican": 3424,
      "ĠBeijing": 3425,
      "aff": 3426,
      "ionate": 3427,
      "Ġwearing": 3428,
      "Ġreservation": 3429,
      "Ġpush": 3430,
      "key": 3431,
      "Ġchurch": 3432,
      "Ġgold": 3433,
      "Ġsaf": 3434,
      "Ġsucks": 3435,
      "Ġimpress": 3436,
      "Ġdrop": 3437,
      "Ġtaste": 3438,
      "Sometimes": 3439,
      "bout": 3440,
      "oice": 3441,
      "Ġbal": 3442,
      "omp": 3443,
      "Ġbeha": 3444,
      "Ġwasnt": 3445,
      "Ġchee": 3446,
      "Ġslight": 3447,
      "Ġplayer": 3448,
      "Ġdrunk": 3449,
      "Ġsimple": 3450,
      "pes": 3451,
      "Ġstick": 3452,
      "Ġsoft": 3453,
      "Ġcomments": 3454,
      "Ġscr": 3455,
      "ĠYork": 3456,
      "Ġsale": 3457,
      "Come": 3458,
      "Its": 3459,
      "pted": 3460,
      "Ġquit": 3461,
      "Ġdeserve": 3462,
      "Ġcars": 3463,
      "Ġsalary": 3464,
      "Ġhttp": 3465,
      "gest": 3466,
      "ium": 3467,
      "Ġserv": 3468,
      "Ġpic": 3469,
      "Ġdepressed": 3470,
      "Ġsci": 3471,
      "arely": 3472,
      "eriod": 3473,
      "Ġwallet": 3474,
      "Ġocc": 3475,
      "Ġdriver": 3476,
      "ĠOr": 3477,
      "Ġ40": 3478,
      "fast": 3479,
      "Ġpissed": 3480,
      "Ġet": 3481,
      "Ġsports": 3482,
      "Ġintro": 3483,
      "Ġtwice": 3484,
      "Ġexciting": 3485,
      "Ġbott": 3486,
      "yeah": 3487,
      "Ġways": 3488,
      "Ġneighborhood": 3489,
      "Ġdrug": 3490,
      "Ġcancel": 3491,
      "Haha": 3492,
      "Ġfilm": 3493,
      "ued": 3494,
      "Ġ)": 3495,
      "Ġsteal": 3496,
      "Ġdem": 3497,
      "Ġlosing": 3498,
      "Ġgives": 3499,
      "Ġlived": 3500,
      "Ġrespect": 3501,
      "action": 3502,
      "ĠOP": 3503,
      "Ġstrugg": 3504,
      "uesday": 3505,
      "Ġgrocery": 3506,
      "oul": 3507,
      "Ġband": 3508,
      "Ġperiod": 3509,
      "Ġround": 3510,
      "vil": 3511,
      "Ġeffort": 3512,
      "by": 3513,
      "isod": 3514,
      "Ġkilled": 3515,
      "Ġmeat": 3516,
      "Ġuns": 3517,
      "Ġ19": 3518,
      "Ġsafety": 3519,
      "Damn": 3520,
      "Ġmater": 3521,
      "though": 3522,
      "itten": 3523,
      "Ġeverywhere": 3524,
      "Ġplanned": 3525,
      "Ġsuff": 3526,
      "ĠPeople": 3527,
      "Ġ18": 3528,
      "!!!!": 3529,
      "Ġcris": 3530,
      "Ġpleased": 3531,
      "Ġpackage": 3532,
      "bed": 3533,
      "Ġdeliver": 3534,
      "Ġdegree": 3535,
      "leep": 3536,
      "ull": 3537,
      "Ġtalent": 3538,
      "Ġig": 3539,
      "Ġvar": 3540,
      "Ġkinds": 3541,
      "ĠTom": 3542,
      "Ġchocol": 3543,
      "acking": 3544,
      "Ġlab": 3545,
      "uts": 3546,
      "Ġnecess": 3547,
      "Ġunless": 3548,
      "sident": 3549,
      "Ġtrad": 3550,
      "Ġcareer": 3551,
      "Ġmessage": 3552,
      "Ġremembered": 3553,
      "Ġcrying": 3554,
      "Ġbon": 3555,
      "anch": 3556,
      "enty": 3557,
      "viously": 3558,
      "Ġposted": 3559,
      "medi": 3560,
      "Ġfield": 3561,
      "Ġpool": 3562,
      "ĠSund": 3563,
      "Ġskills": 3564,
      "Ġbreakfast": 3565,
      "Ġthous": 3566,
      "Ġwanna": 3567,
      "Ġfish": 3568,
      "Ġju": 3569,
      "Ġstom": 3570,
      "Ġwash": 3571,
      "chool": 3572,
      "ĠBy": 3573,
      "Ġdisag": 3574,
      "Ġresearch": 3575,
      "Ġapplic": 3576,
      "Ġplane": 3577,
      "Ġplayers": 3578,
      "ertain": 3579,
      "Ġattend": 3580,
      "Ġanimals": 3581,
      "Ġepisod": 3582,
      "Ġthird": 3583,
      "Ġanywhere": 3584,
      "Ġapply": 3585,
      "Ġchecked": 3586,
      "Ġthemselves": 3587,
      "Ġgeneral": 3588,
      "Ġpurch": 3589,
      "Ġdestro": 3590,
      "ES": 3591,
      "IS": 3592,
      "Mr": 3593,
      "ience": 3594,
      "orge": 3595,
      "Ġur": 3596,
      "ama": 3597,
      "ĠDe": 3598,
      "Ġoffic": 3599,
      "Ġjoin": 3600,
      "Ġpull": 3601,
      "Ġsimply": 3602,
      "After": 3603,
      "ref": 3604,
      "Ġste": 3605,
      "Ġwanting": 3606,
      "Ġloss": 3607,
      "Ġcareful": 3608,
      "Ġcru": 3609,
      "Ġinsp": 3610,
      "ĠAlso": 3611,
      "Man": 3612,
      "OL": 3613,
      "ieve": 3614,
      "lack": 3615,
      "erhaps": 3616,
      "Ġmouth": 3617,
      "Ġda": 3618,
      "Ġcau": 3619,
      "Ġnumb": 3620,
      "Ġbasically": 3621,
      "Ġdraw": 3622,
      "gic": 3623,
      "lor": 3624,
      "Ġseven": 3625,
      "Ġfly": 3626,
      "Ġcommun": 3627,
      "Ġcamer": 3628,
      "Ġallowed": 3629,
      "aked": 3630,
      "wo": 3631,
      "wise": 3632,
      "Ġegg": 3633,
      "Ġneph": 3634,
      "Ġcla": 3635,
      "Ġstaying": 3636,
      "ibility": 3637,
      "Ġcontinue": 3638,
      "Ġnephew": 3639,
      "30": 3640,
      "ober": 3641,
      "Ġoh": 3642,
      "iron": 3643,
      "Ġfamili": 3644,
      "Ġloving": 3645,
      "Ġimmedi": 3646,
      "Ġaccom": 3647,
      "Ġsurg": 3648,
      "Ġcheap": 3649,
      "âłĢ": 3650,
      "Ġopportunity": 3651,
      "Ġempty": 3652,
      "10": 3653,
      "IT": 3654,
      "Yep": 3655,
      "ipped": 3656,
      "Ġmiles": 3657,
      "Ġbike": 3658,
      "ison": 3659,
      "arent": 3660,
      "nty": 3661,
      "Ġinvited": 3662,
      "ĠWho": 3663,
      "Ġsnow": 3664,
      "Ġpanic": 3665,
      "Ġstomach": 3666,
      "por": 3667,
      "Ġtip": 3668,
      "Ġlied": 3669,
      "Ġsold": 3670,
      "Ġsomehow": 3671,
      "Ġbudd": 3672,
      "Ġuseful": 3673,
      "Ġdetails": 3674,
      "Ġetc": 3675,
      "AN": 3676,
      "ĠZ": 3677,
      "ĠYes": 3678,
      "Ġteen": 3679,
      "eech": 3680,
      "Ġhy": 3681,
      "Ġitems": 3682,
      "Ġshame": 3683,
      "antic": 3684,
      "igin": 3685,
      "Ġuser": 3686,
      "Ġwont": 3687,
      "Ġcorner": 3688,
      "Ġregist": 3689,
      "Ġprofession": 3690,
      "Ġfurther": 3691,
      "erm": 3692,
      "erves": 3693,
      "Ġcooking": 3694,
      "ley": 3695,
      "ĠMiss": 3696,
      "Ġchal": 3697,
      "Ġscore": 3698,
      "Ġfinding": 3699,
      "Ġaddress": 3700,
      "ING": 3701,
      "Ġblessed": 3702,
      "Ġlic": 3703,
      "Ġvoice": 3704,
      "arden": 3705,
      "ĠOur": 3706,
      "Ġuncom": 3707,
      "Ġplenty": 3708,
      "Ġsimilar": 3709,
      "Ġpurpose": 3710,
      "conom": 3711,
      "Ġmillion": 3712,
      "hi": 3713,
      "iqu": 3714,
      "Ġmult": 3715,
      "Ġhello": 3716,
      "Ġsoci": 3717,
      "Ġbecom": 3718,
      "athetic": 3719,
      "ĠEx": 3720,
      "Ġhigher": 3721,
      "Ġstayed": 3722,
      "Ġcountries": 3723,
      "ĠWhich": 3724,
      "Ġbills": 3725,
      "Ġsuccessful": 3726,
      "About": 3727,
      "Ġexist": 3728,
      "Ġloan": 3729,
      "Ġveget": 3730,
      "Ġincre": 3731,
      "Ġcommon": 3732,
      "Ġsuddenly": 3733,
      "Ġclaim": 3734,
      "itle": 3735,
      "Ġhref": 3736,
      "Ġinj": 3737,
      "Ġnote": 3738,
      "Ġconven": 3739,
      "ĠTuesday": 3740,
      "Ġshowed": 3741,
      "Ġbeginning": 3742,
      "Ġdisagree": 3743,
      "yea": 3744,
      "owl": 3745,
      "Ġdoesnt": 3746,
      "Ġpulled": 3747,
      "Ġpresentation": 3748,
      "Ġchocolate": 3749,
      "¸ı": 3750,
      "ï¸ı": 3751,
      "Ġwood": 3752,
      "ĠMar": 3753,
      "urs": 3754,
      "Ġbadly": 3755,
      "Ġlower": 3756,
      "Ġcourage": 3757,
      "Ġtransfer": 3758,
      "Ġcreep": 3759,
      "Ġdangerous": 3760,
      "OT": 3761,
      "light": 3762,
      "Ġmix": 3763,
      "Ġfing": 3764,
      "Ġfake": 3765,
      "atulations": 3766,
      "Ġcri": 3767,
      "Ġcult": 3768,
      "leg": 3769,
      "Ġrad": 3770,
      "like": 3771,
      "Ġunh": 3772,
      "Ġord": 3773,
      "Ġcompan": 3774,
      "ashion": 3775,
      "Ġcrash": 3776,
      "Ġamazed": 3777,
      "Ġidiot": 3778,
      "Ġclarify": 3779,
      "Ġbenef": 3780,
      "20": 3781,
      "ext": 3782,
      "gly": 3783,
      "ube": 3784,
      "Ġsearch": 3785,
      "Ġbum": 3786,
      "Ġdump": 3787,
      "Ġcrow": 3788,
      "cist": 3789,
      "Ġnoise": 3790,
      "Ġemail": 3791,
      "Ġhearing": 3792,
      "board": 3793,
      "Ġoffered": 3794,
      "Ġforeign": 3795,
      "Ġgreen": 3796,
      "Ġsurgery": 3797,
      "--": 3798,
      "den": 3799,
      "Ġorigin": 3800,
      "Ġtwenty": 3801,
      "Tr": 3802,
      "uct": 3803,
      "Ġthirty": 3804,
      "itty": 3805,
      "ancing": 3806,
      "Exactly": 3807,
      "Congrats": 3808,
      "ĠSunday": 3809,
      "uit": 3810,
      "Ġrace": 3811,
      "Ġcomplete": 3812,
      "ĠPro": 3813,
      "Ġshower": 3814,
      "bby": 3815,
      "Ġswimming": 3816,
      "Ġdevast": 3817,
      "Ġscratch": 3818,
      "Ġigno": 3819,
      "IG": 3820,
      "]!": 3821,
      "Ġtv": 3822,
      "inc": 3823,
      "Ġsoup": 3824,
      "Ġbear": 3825,
      "Ġknown": 3826,
      "Ġasleep": 3827,
      "Ġunf": 3828,
      "Ġvol": 3829,
      "Ġspeech": 3830,
      "sured": 3831,
      "Ġarticle": 3832,
      "Ġavoid": 3833,
      "Ġridic": 3834,
      "Ġbreathe": 3835,
      "Ġachieve": 3836,
      "Happy": 3837,
      "att": 3838,
      "Ġcomple": 3839,
      "ketch": 3840,
      "Ġterribly": 3841,
      "bbed": 3842,
      "expected": 3843,
      "lol": 3844,
      "mg": 3845,
      "sters": 3846,
      "Ġpun": 3847,
      "Ġkeeping": 3848,
      "Ġdisgusting": 3849,
      "Ġcharacter": 3850,
      "Ġslightly": 3851,
      "iest": 3852,
      "Ġtree": 3853,
      "Ġcore": 3854,
      "etime": 3855,
      "Ġbiggest": 3856,
      "ĠLi": 3857,
      "Ġhurts": 3858,
      "Ġspending": 3859,
      "Ġhungry": 3860,
      "Ġcrisis": 3861,
      "^^": 3862,
      "gra": 3863,
      "ination": 3864,
      "Ġsketch": 3865,
      "Ġenv": 3866,
      "Ġfixing": 3867,
      "Ġirritated": 3868,
      "aly": 3869,
      "ev": 3870,
      "Ġmount": 3871,
      "ĠSu": 3872,
      "Ġscreen": 3873,
      "Ġenc": 3874,
      "Ġsaved": 3875,
      "Ġfrustrating": 3876,
      "ĠLike": 3877,
      "fortable": 3878,
      "ĠDoes": 3879,
      "Ġsubject": 3880,
      "Ġbedroom": 3881,
      "Ġcalm": 3882,
      "clock": 3883,
      "MY": 3884,
      "itude": 3885,
      "Ġfurn": 3886,
      "Ġpounds": 3887,
      "ado": 3888,
      "Ġsig": 3889,
      "Ġbud": 3890,
      "acy": 3891,
      "Ġassistance": 3892,
      "Ġpractice": 3893,
      "Ġcrowd": 3894,
      "some": 3895,
      "Ġau": 3896,
      "Ġnatur": 3897,
      "Ġcart": 3898,
      "Ġpi": 3899,
      "Ġarr": 3900,
      "Ġcoworkers": 3901,
      "Ġ11": 3902,
      "Pro": 3903,
      "Ġtho": 3904,
      "Ġsea": 3905,
      "Ġsus": 3906,
      "Ġship": 3907,
      "Ġbrain": 3908,
      "Ġadult": 3909,
      "Ġclearly": 3910,
      "Ġgrowing": 3911,
      "Ġemployees": 3912,
      "Ġpressure": 3913,
      "IB": 3914,
      "Ġbi": 3915,
      "Ġbird": 3916,
      "orrow": 3917,
      "Ġlink": 3918,
      "asty": 3919,
      "idge": 3920,
      "Ġunexpected": 3921,
      "Ġhadn": 3922,
      "Ġpromise": 3923,
      "Ġtrade": 3924,
      "Ġclos": 3925,
      "ording": 3926,
      "Ġkidding": 3927,
      "ĠYOU": 3928,
      "Ġrequire": 3929,
      "Ġaccompl": 3930,
      "Ġuncomfortable": 3931,
      "EE": 3932,
      "reed": 3933,
      "Ġdear": 3934,
      "Ġcas": 3935,
      "Ġoil": 3936,
      "this": 3937,
      "itted": 3938,
      "Ġdelivery": 3939,
      "VE": 3940,
      "]?": 3941,
      "Ġtill": 3942,
      "Ġthread": 3943,
      "rest": 3944,
      "Ġfool": 3945,
      "Ġlaz": 3946,
      "Ġunfortunately": 3947,
      "others": 3948,
      "Ġglass": 3949,
      "Ġcats": 3950,
      "Ġlanguages": 3951,
      "Ġcondition": 3952,
      "Ġbuddy": 3953,
      "EA": 3954,
      "Get": 3955,
      "Ġwer": 3956,
      "ony": 3957,
      "ato": 3958,
      "ald": 3959,
      "Ġrefer": 3960,
      "riage": 3961,
      "Ġgotta": 3962,
      "Ġnose": 3963,
      "ĠHa": 3964,
      "Ġhopeful": 3965,
      "Ġoptim": 3966,
      "Ġexpress": 3967,
      "Ġnearly": 3968,
      "Anyone": 3969,
      "Ġbottom": 3970,
      "mar": 3971,
      "erable": 3972,
      "Ġugly": 3973,
      "Ġrom": 3974,
      "iding": 3975,
      "Ġalright": 3976,
      "Ġhappening": 3977,
      "Ġairport": 3978,
      "Ġreceipt": 3979,
      "Alright": 3980,
      "sych": 3981,
      "Ġfinancial": 3982,
      "HH": 3983,
      "mpt": 3984,
      "val": 3985,
      "Ġbrave": 3986,
      "Whatever": 3987,
      "ners": 3988,
      "acks": 3989,
      "iment": 3990,
      "Ġ25": 3991,
      "Was": 3992,
      "ped": 3993,
      "Ġx": 3994,
      "Ġtitle": 3995,
      "Ġmass": 3996,
      "ows": 3997,
      "Ġearned": 3998,
      "Ġadvert": 3999,
      "Ġcheating": 4000,
      "Ġwilling": 4001,
      "ĠRed": 4002,
      "Ġdrinking": 4003,
      "Ġvio": 4004,
      "Ġintrodu": 4005,
      "ironment": 4006,
      "Ġimmediately": 4007,
      "Ġmulti": 4008,
      "de": 4009,
      "just": 4010,
      "ĠĠ": 4011,
      "itter": 4012,
      "Ġfans": 4013,
      "Ġprop": 4014,
      "Ġmanaged": 4015,
      "Ġexcuse": 4016,
      "Ġcommunity": 4017,
      "Ġstatement": 4018,
      "Ġmilk": 4019,
      "face": 4020,
      "nes": 4021,
      "ration": 4022,
      "inge": 4023,
      "Ġnur": 4024,
      "Ġcaring": 4025,
      "Ġrough": 4026,
      "Ġshift": 4027,
      "Ġlikely": 4028,
      "Ġyours": 4029,
      "Ġgoods": 4030,
      "usion": 4031,
      "Ġideas": 4032,
      "Ġcelebration": 4033,
      "Ġalive": 4034,
      "Ġflowers": 4035,
      "iving": 4036,
      "Ġgarden": 4037,
      "Ġring": 4038,
      "Ġeight": 4039,
      "Ġstories": 4040,
      "Ġstaff": 4041,
      "ada": 4042,
      "Ġfamous": 4043,
      "ilet": 4044,
      "Ġpromised": 4045,
      "Ġinvolved": 4046,
      "Ġprivate": 4047,
      "Ġfully": 4048,
      "Ġenvironment": 4049,
      "Got": 4050,
      "cing": 4051,
      "iver": 4052,
      "ayed": 4053,
      "Ġest": 4054,
      "ctober": 4055,
      "Ġneck": 4056,
      "ĠSometimes": 4057,
      "Ġnobody": 4058,
      "Ġsafer": 4059,
      "Ġrooms": 4060,
      "ĠLove": 4061,
      "Ġwaste": 4062,
      "Ġpassionate": 4063,
      "Ġunhappy": 4064,
      "By": 4065,
      "oly": 4066,
      "Ġbee": 4067,
      "orld": 4068,
      "che": 4069,
      "iring": 4070,
      "Ġarm": 4071,
      "Ġfriendly": 4072,
      "ĠGr": 4073,
      "Ġ16": 4074,
      "Ġblock": 4075,
      "Ġpercent": 4076,
      "mbers": 4077,
      "Ġconstantly": 4078,
      "arently": 4079,
      "Love": 4080,
      "ler": 4081,
      "pri": 4082,
      "ury": 4083,
      "Ġdirty": 4084,
      "change": 4085,
      "ondon": 4086,
      "ĠWas": 4087,
      "Ġdesign": 4088,
      "ground": 4089,
      "Ġlaughing": 4090,
      "Ġtemper": 4091,
      "Ġbonus": 4092,
      "Ġthousand": 4093,
      "Welcome": 4094,
      "Ġreject": 4095,
      "Ġprogress": 4096,
      "Ġpoints": 4097,
      "ledge": 4098,
      "atives": 4099,
      "Ġperfectly": 4100,
      "Ġcamp": 4101,
      "Or": 4102,
      "hile": 4103,
      "Ġburn": 4104,
      "reh": 4105,
      "Ġjer": 4106,
      "une": 4107,
      "Ġdiscount": 4108,
      "Ġclub": 4109,
      "ĠLast": 4110,
      "ĠEven": 4111,
      "Ġcrit": 4112,
      "ĠIntern": 4113,
      "Ġpassport": 4114,
      "Ġmiserable": 4115,
      "Ġdrinks": 4116,
      "Ġfixed": 4117,
      "Ġgraduate": 4118,
      "Ġapplication": 4119,
      "gar": 4120,
      "under": 4121,
      "Ġbarely": 4122,
      "ĠIT": 4123,
      "Ġnet": 4124,
      "Ġredd": 4125,
      "ards": 4126,
      "ĠGet": 4127,
      "Ġdownv": 4128,
      "eries": 4129,
      "itional": 4130,
      "Ġpleasant": 4131,
      "Ġcounter": 4132,
      "Ġpooped": 4133,
      "Ġbehavi": 4134,
      "eved": 4135,
      "gy": 4136,
      "wich": 4137,
      "yal": 4138,
      "Ġfla": 4139,
      "Ġdry": 4140,
      "Ġpe": 4141,
      "Ġeconom": 4142,
      "ures": 4143,
      "Ġprices": 4144,
      "pless": 4145,
      "ĠMost": 4146,
      "Ġvote": 4147,
      "Ġbigger": 4148,
      "Ġactiv": 4149,
      "Ġsupporting": 4150,
      "Ġfund": 4151,
      "Ġcards": 4152,
      "Ġdollar": 4153,
      "Ġbased": 4154,
      "Ġdepends": 4155,
      "Ġdevastated": 4156,
      "Tom": 4157,
      "fying": 4158,
      "pet": 4159,
      "Ġsau": 4160,
      "Ġfashion": 4161,
      "Ġbey": 4162,
      "sess": 4163,
      "ĠThose": 4164,
      "Ġcollect": 4165,
      "Ġ14": 4166,
      "Ġdesp": 4167,
      "Ġopened": 4168,
      "Ġsmoking": 4169,
      "Ġepisode": 4170,
      "gle": 4171,
      "oll": 4172,
      "aying": 4173,
      "Ġabove": 4174,
      "icate": 4175,
      "Ġspir": 4176,
      "Ġactual": 4177,
      "Ġseries": 4178,
      "Ġhurry": 4179,
      "Ġboys": 4180,
      "Ġlatest": 4181,
      "Ġprepare": 4182,
      "Ġdisgusted": 4183,
      "Ġlicense": 4184,
      "dra": 4185,
      "Ġrout": 4186,
      "Ġlif": 4187,
      "âĢľ": 4188,
      "eces": 4189,
      "Ġaware": 4190,
      "apers": 4191,
      "Ġguest": 4192,
      "Ġflat": 4193,
      "Ġcourt": 4194,
      "Ġmedical": 4195,
      "iversary": 4196,
      "Ġengaged": 4197,
      "Ġdishes": 4198,
      "Ġtorn": 4199,
      "Ġeducation": 4200,
      "Ġlazy": 4201,
      "Ġreddit": 4202,
      "Ch": 4203,
      "ials": 4204,
      "Ġthreat": 4205,
      "ero": 4206,
      "Ġcell": 4207,
      "Ġoper": 4208,
      "idence": 4209,
      "ĠNever": 4210,
      "esides": 4211,
      "ĠAr": 4212,
      "ĠDis": 4213,
      "ables": 4214,
      "Ġpicked": 4215,
      "Ġmarriage": 4216,
      "Ġdepress": 4217,
      "Ġbasket": 4218,
      "Ġsuggestion": 4219,
      "Ġrelaxed": 4220,
      "Ġanimal": 4221,
      "Take": 4222,
      "zz": 4223,
      "lew": 4224,
      "Ġearth": 4225,
      "bage": 4226,
      "Ġsky": 4227,
      ").": 4228,
      "ibly": 4229,
      "now": 4230,
      "Ġlibr": 4231,
      "Ġprint": 4232,
      "Ġhelpless": 4233,
      "Nope": 4234,
      "oken": 4235,
      "uckily": 4236,
      "assing": 4237,
      "abilities": 4238,
      "Ġexams": 4239,
      "Ġreceive": 4240,
      "Ġhomes": 4241,
      "Ġmedicine": 4242,
      "Ġcompanies": 4243,
      "gers": 4244,
      "nam": 4245,
      "Ġtas": 4246,
      "iny": 4247,
      "Ġweak": 4248,
      "Ġpump": 4249,
      "Ġmembers": 4250,
      "aded": 4251,
      "Ġbitch": 4252,
      "Ġresol": 4253,
      "Ġrock": 4254,
      "Ġpretended": 4255,
      "Ġsandwich": 4256,
      "orgeous": 4257,
      "Ġprofessional": 4258,
      "Ġbeyond": 4259,
      "ION": 4260,
      "Ġton": 4261,
      "Ġtall": 4262,
      "Ġsight": 4263,
      "Ġbat": 4264,
      "Ġfilled": 4265,
      "Ġrises": 4266,
      "mail": 4267,
      "bsite": 4268,
      "Ġbottle": 4269,
      "Ġcopy": 4270,
      "Ġcharacters": 4271,
      "Ġanniversary": 4272,
      "Ġridiculous": 4273,
      "Ġgh": 4274,
      "Ġfem": 4275,
      "Ġlack": 4276,
      "edy": 4277,
      "Ġmel": 4278,
      "Ġalb": 4279,
      "Ġspid": 4280,
      "Ġawhile": 4281,
      "Ġclock": 4282,
      "Ġimm": 4283,
      "Ġlights": 4284,
      "ology": 4285,
      "ĠEveryone": 4286,
      "Ġparticularly": 4287,
      "People": 4288,
      "for": 4289,
      "Ġinno": 4290,
      "arm": 4291,
      "ential": 4292,
      "Ġwebsite": 4293,
      "Ġhardly": 4294,
      "ĠCome": 4295,
      "Ġfav": 4296,
      "0000": 4297,
      "Ġpolicy": 4298,
      "Ġdecent": 4299,
      "ĠKeep": 4300,
      "Ġcommute": 4301,
      "Ġconvenient": 4302,
      "Ġoptimistic": 4303,
      "CK": 4304,
      "co": 4305,
      "Ġnasty": 4306,
      "urity": 4307,
      "Ġletting": 4308,
      "Ġtrack": 4309,
      "ĠRIB": 4310,
      "Ġnecessary": 4311,
      "Ġweren": 4312,
      "First": 4313,
      "Hmm": 4314,
      "cket": 4315,
      "ky": 4316,
      "ĠX": 4317,
      "Ġfed": 4318,
      "eeth": 4319,
      "Ġnail": 4320,
      "Ġcities": 4321,
      "Ġpsych": 4322,
      "anging": 4323,
      "Ġexchange": 4324,
      "ĠChe": 4325,
      "ĠJap": 4326,
      "iction": 4327,
      "Ġstock": 4328,
      "Ġcamping": 4329,
      "Ġ90": 4330,
      "Once": 4331,
      "Ġspecific": 4332,
      "Ġspring": 4333,
      "Ġcamera": 4334,
      "Ġlibrary": 4335,
      "ron": 4336,
      "Ġtoilet": 4337,
      "Ġden": 4338,
      "Ġeverybody": 4339,
      "ptop": 4340,
      "Ġloyal": 4341,
      "Ġtrick": 4342,
      "ĠPl": 4343,
      "enced": 4344,
      "Ġcompetition": 4345,
      "Ġtechn": 4346,
      "Ġcheese": 4347,
      "Ġunseen": 4348,
      "hibit": 4349,
      "Ġalbum": 4350,
      ".\"": 4351,
      "OR": 4352,
      "ably": 4353,
      "inced": 4354,
      "iture": 4355,
      "Ġtoward": 4356,
      "Ġgam": 4357,
      "Ġgorgeous": 4358,
      "Ġrot": 4359,
      "Ġstri": 4360,
      "Ġfright": 4361,
      "Ġbrown": 4362,
      "Ġhost": 4363,
      "ogn": 4364,
      "Ġindust": 4365,
      "Ġfollowing": 4366,
      "ĠðŁĺĤ": 4367,
      "hat": 4368,
      "Ġmur": 4369,
      "Ġdig": 4370,
      "Ġrepa": 4371,
      "Ġinhale": 4372,
      "Ġrug": 4373,
      "Ġbecame": 4374,
      "Ġwrote": 4375,
      "Ġclosed": 4376,
      "Ġcustomers": 4377,
      "Ġrelig": 4378,
      "of": 4379,
      "itated": 4380,
      "ida": 4381,
      "Ġprin": 4382,
      "anding": 4383,
      "Ġbright": 4384,
      "Ġexhale": 4385,
      "ĠBecause": 4386,
      "Ġnostalg": 4387,
      "Ġdiv": 4388,
      "ĠLondon": 4389,
      "ĠOctober": 4390,
      "Ġflu": 4391,
      "Ġposts": 4392,
      "Ġturns": 4393,
      "Ġindeed": 4394,
      "ruct": 4395,
      "Ġnostalgic": 4396,
      "Bye": 4397,
      "gage": 4398,
      "ocked": 4399,
      "rom": 4400,
      "Ġsour": 4401,
      "Ġfired": 4402,
      "Ġlmao": 4403,
      "Ġability": 4404,
      "icing": 4405,
      "Ġunw": 4406,
      "Ġmort": 4407,
      "Ġhowever": 4408,
      "These": 4409,
      "Ġwritten": 4410,
      "using": 4411,
      "Ġvisiting": 4412,
      "road": 4413,
      "Ġ13": 4414,
      "phone": 4415,
      "Ġengine": 4416,
      "Ġfaithful": 4417,
      "Ġattractive": 4418,
      "Ġmanagement": 4419,
      "ians": 4420,
      "Ġwave": 4421,
      "Ġmall": 4422,
      "Ġfest": 4423,
      "Ġdut": 4424,
      "Ġfort": 4425,
      "Ġut": 4426,
      "pper": 4427,
      "Ġnewsp": 4428,
      "ĠComp": 4429,
      "Ġcrap": 4430,
      "Ġinsult": 4431,
      "Ġvalue": 4432,
      "Ġlaptop": 4433,
      "Ġcapabilities": 4434,
      "Ġresponsible": 4435,
      "Ġconvinced": 4436,
      "nel": 4437,
      "ok": 4438,
      "Ġwra": 4439,
      "Ġhat": 4440,
      "Ġhide": 4441,
      "Ġnone": 4442,
      "Ġlad": 4443,
      "Ġthinks": 4444,
      "Ġconsidered": 4445,
      "Ġemerg": 4446,
      "Ġpersonally": 4447,
      "ĠLol": 4448,
      "oph": 4449,
      "Ġmental": 4450,
      "Ġrelaxing": 4451,
      "Ġgarbage": 4452,
      "Ġdaily": 4453,
      "Ġoriginal": 4454,
      "Ġfurniture": 4455,
      "Nah": 4456,
      "Same": 4457,
      "gue": 4458,
      "mes": 4459,
      "Ġhall": 4460,
      "Ġport": 4461,
      "Ġris": 4462,
      "ung": 4463,
      "Ġquar": 4464,
      "ĠHis": 4465,
      "Ġstranger": 4466,
      "Ġenjoying": 4467,
      "Ġgenerous": 4468,
      "Ġrules": 4469,
      "efinitely": 4470,
      "Ġscience": 4471,
      "Ġauth": 4472,
      "ially": 4473,
      "ids": 4474,
      "Ġshy": 4475,
      "Ġaffect": 4476,
      "Ġmadam": 4477,
      "Ġspilled": 4478,
      "ability": 4479,
      "Ġcovered": 4480,
      "worker": 4481,
      "Ġfairly": 4482,
      "Ġarrived": 4483,
      "Ġstepped": 4484,
      "ursday": 4485,
      "Ġnatural": 4486,
      "Ġaud": 4487,
      "Ġsep": 4488,
      "Ġodd": 4489,
      "asing": 4490,
      "ĠGod": 4491,
      "Ġclimb": 4492,
      "Ġhopefully": 4493,
      "ĠHowever": 4494,
      "Ġcontest": 4495,
      "Ġwinning": 4496,
      "Ġdrove": 4497,
      "Ġobviously": 4498,
      "Ġfailure": 4499,
      "Ġshutting": 4500,
      "Ġcandy": 4501,
      "Ġmagaz": 4502,
      "99": 4503,
      "uu": 4504,
      "Ġ&": 4505,
      "Ġrap": 4506,
      "asc": 4507,
      "ĠMe": 4508,
      "ĠDay": 4509,
      "Ġexact": 4510,
      "ĠGreat": 4511,
      "ustral": 4512,
      "Ġherself": 4513,
      "acket": 4514,
      "Ġrecogn": 4515,
      "Ġadding": 4516,
      "Ġbabies": 4517,
      "Ġtex": 4518,
      "Ġmedia": 4519,
      "Ġdistance": 4520,
      "Ġlaughed": 4521,
      "Ġreminded": 4522,
      "Ġbelong": 4523,
      "Ġmode": 4524,
      "Ġmotor": 4525,
      "Ġprotect": 4526,
      "HA": 4527,
      "Ġsoul": 4528,
      "itions": 4529,
      "ĠID": 4530,
      "otes": 4531,
      "ica": 4532,
      "Ġstat": 4533,
      "Ġign": 4534,
      "Ġheld": 4535,
      "Ġcomb": 4536,
      "Ġparent": 4537,
      "Ġfurious": 4538,
      "Ġreply": 4539,
      "ĠðŁ¤": 4540,
      "Ġracist": 4541,
      "Ġeventually": 4542,
      "son": 4543,
      "Ġhilar": 4544,
      "Ġtool": 4545,
      "Ġbegan": 4546,
      "Ġvom": 4547,
      "ively": 4548,
      "Ġsomewhat": 4549,
      "Ġgrandf": 4550,
      "Ġruined": 4551,
      "Ġselfish": 4552,
      "ification": 4553,
      "Ġchatting": 4554,
      "Ġjumped": 4555,
      "Ġcheaper": 4556,
      "ðŁĺĤ": 4557,
      "Ġservices": 4558,
      "ique": 4559,
      "Ġsociety": 4560,
      "Aw": 4561,
      "OW": 4562,
      "bh": 4563,
      "Ġsection": 4564,
      "Ġdancing": 4565,
      "verage": 4566,
      "Ġkiss": 4567,
      "Ġfruit": 4568,
      "Ġvict": 4569,
      "Ġspl": 4570,
      "imate": 4571,
      "ĠTai": 4572,
      "Ġselect": 4573,
      "broken": 4574,
      "ohol": 4575,
      "Ġcosts": 4576,
      "Ġcurrently": 4577,
      "Ġnegative": 4578,
      "Ran": 4579,
      "Ġfee": 4580,
      "Ġfol": 4581,
      "Ġya": 4582,
      "Ġhavent": 4583,
      "Ġalthough": 4584,
      "ushing": 4585,
      "Ġsometime": 4586,
      "Ġbull": 4587,
      "Ġcarpet": 4588,
      "Ġsongs": 4589,
      "Ġregard": 4590,
      "Ġheartbroken": 4591,
      "Ġbags": 4592,
      "nch": 4593,
      "uh": 4594,
      "uable": 4595,
      "Ġwow": 4596,
      "Ġfi": 4597,
      "Ġfal": 4598,
      "arant": 4599,
      "Ġonto": 4600,
      "Ġgoodbye": 4601,
      "erior": 4602,
      "Ġsmoke": 4603,
      "Ġcolleag": 4604,
      "Ġleaves": 4605,
      "Ġreasons": 4606,
      "Ġbreathing": 4607,
      "overed": 4608,
      "cohol": 4609,
      "ĠIS": 4610,
      "Ġpers": 4611,
      "Ġpage": 4612,
      "Ġknowledge": 4613,
      "ĠFirst": 4614,
      "ĠWorld": 4615,
      "Ġsuck": 4616,
      "Ġsteps": 4617,
      "ĠEur": 4618,
      "Ġuseless": 4619,
      "Ġsupplies": 4620,
      "ief": 4621,
      "Ġposting": 4622,
      "mission": 4623,
      "Ġsalad": 4624,
      "Ġbreath": 4625,
      "Looks": 4626,
      "Ġappreciated": 4627,
      "Ġnumbers": 4628,
      "Ġfamiliar": 4629,
      "âłĢâłĢ": 4630,
      "Ġinnocent": 4631,
      "Ġtight": 4632,
      "ounts": 4633,
      "Ġcig": 4634,
      "eter": 4635,
      "Ġacting": 4636,
      "aging": 4637,
      "Ġblame": 4638,
      "Ġguarded": 4639,
      "Ġcrush": 4640,
      "Ġdistract": 4641,
      "Ġdamage": 4642,
      "Ġdamaged": 4643,
      "Ġboxes": 4644,
      "Ġlawn": 4645,
      "ĠEverything": 4646,
      "Ġbasement": 4647,
      "Ġtort": 4648,
      "Ġcreative": 4649,
      "rehensive": 4650,
      "Ġghost": 4651,
      "reet": 4652,
      "Ġpee": 4653,
      "Ġredu": 4654,
      "Ġcouch": 4655,
      "olar": 4656,
      "cious": 4657,
      "Ġagitated": 4658,
      "Ġotherwise": 4659,
      "Ġbrings": 4660,
      "athon": 4661,
      "Ġ24": 4662,
      "Ġblow": 4663,
      "ival": 4664,
      "Ġinternational": 4665,
      "Ġpacked": 4666,
      "Ġreturned": 4667,
      "Ġmemory": 4668,
      "Ġtalented": 4669,
      "Ġmultiple": 4670,
      "\".": 4671,
      "Like": 4672,
      "Perhaps": 4673,
      "With": 4674,
      "Ġâ": 4675,
      "ework": 4676,
      "Ġupon": 4677,
      "ĠMan": 4678,
      "Ġchamp": 4679,
      "Ġsomebody": 4680,
      "ĠSir": 4681,
      "Ġheat": 4682,
      "imum": 4683,
      "Ġchanges": 4684,
      "Ġparts": 4685,
      "Ġsecurity": 4686,
      "Ġbread": 4687,
      "Ġsnake": 4688,
      "Ġfaster": 4689,
      "Ġlegal": 4690,
      "Ġinfo": 4691,
      "Ġfeedback": 4692,
      "Ġhesit": 4693,
      "men": 4694,
      "mind": 4695,
      "ware": 4696,
      "Ġwild": 4697,
      "Ġboo": 4698,
      "Ġnowhere": 4699,
      "Ġupv": 4700,
      "ĠAN": 4701,
      "Ġshowing": 4702,
      "Ġincluding": 4703,
      "Ġretire": 4704,
      "Ġtele": 4705,
      "Ġdistur": 4706,
      "Ġgenerally": 4707,
      "Ġsentiment": 4708,
      "Ġdrag": 4709,
      "Ġphysical": 4710,
      "Ġvegetables": 4711,
      "Ġarrange": 4712,
      "Ġhilarious": 4713,
      "nis": 4714,
      "ume": 4715,
      "â£": 4716,
      "inting": 4717,
      "Ġwet": 4718,
      "Ġshitty": 4719,
      "Ġatte": 4720,
      "igned": 4721,
      "Ġdiss": 4722,
      "ager": 4723,
      "ĠCol": 4724,
      "play": 4725,
      "Ġdeterm": 4726,
      "Ġkilling": 4727,
      "Ġcelebrate": 4728,
      "Ġarrive": 4729,
      "Ġyelling": 4730,
      "Ġdrugs": 4731,
      "liness": 4732,
      "oring": 4733,
      "omb": 4734,
      "Ġresume": 4735,
      "ets": 4736,
      "ĠDa": 4737,
      "ĠGlad": 4738,
      "Ġpresident": 4739,
      "Ġblind": 4740,
      "Ġconfidence": 4741,
      "ivid": 4742,
      "Ġopening": 4743,
      "Ġholding": 4744,
      "Ġfucked": 4745,
      "uggage": 4746,
      "Ġdescribe": 4747,
      "Ġimpressive": 4748,
      "Ġoccas": 4749,
      "Ġinspired": 4750,
      "Ġcaused": 4751,
      "Ġbecoming": 4752,
      "Ġdespite": 4753,
      "mates": 4754,
      "Ġluggage": 4755,
      "Ġpreci": 4756,
      "Ġitself": 4757,
      "Ġgrew": 4758,
      "keting": 4759,
      "Ġhomeless": 4760,
      "ĠBob": 4761,
      "Ġpromoted": 4762,
      "Ġhero": 4763,
      "Ġterm": 4764,
      "ization": 4765,
      "ngth": 4766,
      "ĠJack": 4767,
      "Ġmarathon": 4768,
      "Ġrelated": 4769,
      "Ġgraduation": 4770,
      "Only": 4771,
      "Ġtaxi": 4772,
      "Ġencour": 4773,
      "Ġpieces": 4774,
      "Ġbeef": 4775,
      "Yup": 4776,
      "ram": 4777,
      "Ġaverage": 4778,
      "Ġshape": 4779,
      "Ġmoder": 4780,
      "ples": 4781,
      "ĠMom": 4782,
      "Ġado": 4783,
      ".....": 4784,
      "ĠTO": 4785,
      "Ġreality": 4786,
      "Ġdiscour": 4787,
      "ĠPh": 4788,
      "Ġinterru": 4789,
      "Ġshock": 4790,
      "ĠVery": 4791,
      "ccer": 4792,
      "Ġsupportive": 4793,
      "Ġpainting": 4794,
      "Ġhumili": 4795,
      "Ġvaluable": 4796,
      "Ġhomework": 4797,
      "Ġmodel": 4798,
      "Ġspirit": 4799,
      "Ġprecious": 4800,
      "ST": 4801,
      "bled": 4802,
      "epend": 4803,
      "sc": 4804,
      "she": 4805,
      "Ġtar": 4806,
      "Ġbul": 4807,
      "Ġfif": 4808,
      "Ġlin": 4809,
      "Ġpunch": 4810,
      "ĠActually": 4811,
      "ĠMs": 4812,
      "Ġbitter": 4813,
      "ellig": 4814,
      "ĠBesides": 4815,
      "Ġtyp": 4816,
      "ĠCl": 4817,
      "Ġhorror": 4818,
      "Ġinsane": 4819,
      "Ġreminds": 4820,
      "Ġcruise": 4821,
      "Ġcreepy": 4822,
      "Ġbasketball": 4823,
      "Ġtexting": 4824,
      "Never": 4825,
      "Ġtire": 4826,
      "Ġbowl": 4827,
      "Ġpig": 4828,
      "alm": 4829,
      "Ġlimit": 4830,
      "ading": 4831,
      "entle": 4832,
      "Ġovers": 4833,
      "irl": 4834,
      "Ġsoccer": 4835,
      "ulation": 4836,
      "Ġafterwards": 4837,
      "iger": 4838,
      "aining": 4839,
      "Ġspo": 4840,
      "Ġgrown": 4841,
      "credible": 4842,
      "Ġplays": 4843,
      "Ġcoach": 4844,
      "icted": 4845,
      "Ġadded": 4846,
      "Ġsymp": 4847,
      "Ġstrength": 4848,
      "Ġvideos": 4849,
      "Ġlegs": 4850,
      "Ġpeaceful": 4851,
      "Ġpolitical": 4852,
      "Ġscene": 4853,
      "Ġrejected": 4854,
      "Ġbehavior": 4855,
      "Ġfavour": 4856,
      "Even": 4857,
      "ker": 4858,
      "ral": 4859,
      "specially": 4860,
      "Ġ#": 4861,
      "Ġmir": 4862,
      "Ġbound": 4863,
      "Ġtooth": 4864,
      "Ġcy": 4865,
      "Ġele": 4866,
      "ĠAustral": 4867,
      "Ġalcohol": 4868,
      "ĠWith": 4869,
      "agno": 4870,
      "Ġkeys": 4871,
      "ĠEarlier": 4872,
      "Ġrecent": 4873,
      "Ġident": 4874,
      "Ġperhaps": 4875,
      "Ġshoot": 4876,
      "gged": 4877,
      "Ġattitude": 4878,
      "Ġbreaking": 4879,
      "Ġstolen": 4880,
      "Ġreasonable": 4881,
      "they": 4882,
      "Ġanti": 4883,
      "Ġcenter": 4884,
      "Ġcarrying": 4885,
      "Ġromantic": 4886,
      "LIG": 4887,
      "Omg": 4888,
      "Two": 4889,
      "gent": 4890,
      "Ġtears": 4891,
      "Ġtow": 4892,
      "ication": 4893,
      "Ġisnt": 4894,
      "ĠMc": 4895,
      "ĠSte": 4896,
      "Ġoffended": 4897,
      "Ġinvite": 4898,
      "Ġ17": 4899,
      "Ġprevious": 4900,
      "Ġflood": 4901,
      "Ġcock": 4902,
      "Ġdecl": 4903,
      "Ġaccess": 4904,
      "Ġconfirm": 4905,
      "Ġsubs": 4906,
      "Ġsubred": 4907,
      "ĠCanada": 4908,
      "Ġriding": 4909,
      "Ġbaseball": 4910,
      "Ġmotiv": 4911,
      "thanks": 4912,
      "Ġviolent": 4913,
      "ĠInternet": 4914,
      "underst": 4915,
      "Ġmurder": 4916,
      "new": 4917,
      "ening": 4918,
      "Ġwithdra": 4919,
      "Those": 4920,
      "Ġcance": 4921,
      "Ġexper": 4922,
      "Ġamong": 4923,
      "Ġspare": 4924,
      "Ġresent": 4925,
      "iled": 4926,
      "ĠHot": 4927,
      "Ġguarant": 4928,
      "Ġwaited": 4929,
      "Ġteams": 4930,
      "Ġdreams": 4931,
      "Ġaccording": 4932,
      "Ġmarry": 4933,
      "while": 4934,
      "Ġinclude": 4935,
      "Ġbooked": 4936,
      "Ġproperly": 4937,
      "Ġapologize": 4938,
      "Ġeager": 4939,
      "Ġdestroyed": 4940,
      "Ġincrease": 4941,
      "Ġtemperature": 4942,
      "OM": 4943,
      "ole": 4944,
      "Ġteeth": 4945,
      "rel": 4946,
      "orms": 4947,
      "Ġund": 4948,
      "icking": 4949,
      "imid": 4950,
      "Ġapprehensive": 4951,
      "Ġending": 4952,
      "Ġsugar": 4953,
      "Ġboat": 4954,
      "Ġcleaned": 4955,
      "ĠRight": 4956,
      "Ġsubway": 4957,
      "Ġembarrassing": 4958,
      "Ġsweat": 4959,
      "Ġmaterial": 4960,
      "Ġeggs": 4961,
      "ĠSuper": 4962,
      "Ġemergency": 4963,
      "LIGION": 4964,
      "av": 4965,
      "Ġmenu": 4966,
      "Ġsite": 4967,
      "Ġnine": 4968,
      "Ġgate": 4969,
      "Ġchristmas": 4970,
      "Ġsisters": 4971,
      "Ġplus": 4972,
      "ives": 4973,
      "Ġintellig": 4974,
      "Ġends": 4975,
      "Ġscream": 4976,
      "Ġfighting": 4977,
      "Ġenter": 4978,
      "Ġcontri": 4979,
      "Ġparan": 4980,
      "RELIGION": 4981,
      "Ġdelivered": 4982,
      "Ġpurchase": 4983,
      "Ġradio": 4984,
      "True": 4985,
      "Ġcloser": 4986,
      "Ġver": 4987,
      "Ġcab": 4988,
      "alth": 4989,
      "Ġabroad": 4990,
      "Ġevid": 4991,
      "Ġlim": 4992,
      "ĠDad": 4993,
      "Ġarms": 4994,
      "Ġheight": 4995,
      "Ġaction": 4996,
      "Ġleague": 4997,
      "ĠHappy": 4998,
      "roat": 4999,
      "ĠLe": 5000,
      "ĠOf": 5001,
      "Ġswear": 5002,
      "Ġhighly": 5003,
      "ĠMrs": 5004,
      "Ġmoments": 5005,
      "Ġpossibly": 5006,
      "Ġadvance": 5007,
      "Ġjuice": 5008,
      "lorida": 5009,
      "Probably": 5010,
      "ĠDisney": 5011,
      "Ġindustry": 5012,
      "Ġsepar": 5013,
      "Ġwithdraw": 5014,
      "UB": 5015,
      "Ġhoney": 5016,
      "Ġdess": 5017,
      "Ġcoo": 5018,
      "Ġgentle": 5019,
      "Ġmeme": 5020,
      "Ġbackground": 5021,
      "Ġcolors": 5022,
      "Unfortunately": 5023,
      "Ġcringe": 5024,
      "ension": 5025,
      "Ġrepres": 5026,
      "Ġstanding": 5027,
      "Ġstandard": 5028,
      "Ġadvant": 5029,
      "Ġproperty": 5030,
      "Ġdocuments": 5031,
      "His": 5032,
      "Ġ0": 5033,
      "Ġtaught": 5034,
      "ites": 5035,
      "Ġbored": 5036,
      "Ġshes": 5037,
      "Ġstage": 5038,
      "ender": 5039,
      "ĠSc": 5040,
      "Ġcheat": 5041,
      "ĠHA": 5042,
      "Ġtrusted": 5043,
      "Ġaccur": 5044,
      "ogy": 5045,
      "Ġpaint": 5046,
      "Ġ80": 5047,
      "Ġrefund": 5048,
      "Ġdraft": 5049,
      "ricane": 5050,
      "Ġholidays": 5051,
      "Ġowner": 5052,
      "Ġvolunt": 5053,
      "graph": 5054,
      "Ġbudget": 5055,
      "ĠReddit": 5056,
      "Ġdessert": 5057,
      "25": 5058,
      "Hope": 5059,
      "free": 5060,
      "lleg": 5061,
      "pm": 5062,
      "uary": 5063,
      "Ġmum": 5064,
      "itor": 5065,
      "Ġhire": 5066,
      "Ġhanging": 5067,
      "Ġdow": 5068,
      "Ġnerves": 5069,
      "Ġabused": 5070,
      "Ġincredible": 5071,
      "arily": 5072,
      "ĠNice": 5073,
      "Ġgoals": 5074,
      "Ġassured": 5075,
      "Ġamp": 5076,
      "Remember": 5077,
      "ĠJim": 5078,
      "Ġinterface": 5079,
      "Ġjourney": 5080,
      "anced": 5081,
      "Ġbeauty": 5082,
      "Ġtrusting": 5083,
      "Ġlaund": 5084,
      "Ġlaid": 5085,
      "Ġdirectly": 5086,
      "AA": 5087,
      "ik": 5088,
      "joy": 5089,
      "ĠQu": 5090,
      "inally": 5091,
      "Ġfart": 5092,
      "Ġdar": 5093,
      "oms": 5094,
      "Ġ..": 5095,
      "Ġrare": 5096,
      "Ġilleg": 5097,
      "sides": 5098,
      "Ġdiagno": 5099,
      "Ġloose": 5100,
      "Ġapparently": 5101,
      "Ġchem": 5102,
      "Ġveh": 5103,
      "roll": 5104,
      "Ġemotions": 5105,
      "Ġcookies": 5106,
      "Ġdaughters": 5107,
      "Ġgifts": 5108,
      "Ġselling": 5109,
      "Ġsuffering": 5110,
      "Ġbenefits": 5111,
      "Ġtornado": 5112,
      "Ġgrandfather": 5113,
      "ĠEurope": 5114,
      "Next": 5115,
      "iff": 5116,
      "ns": 5117,
      "Ġtbh": 5118,
      "Ġsinc": 5119,
      "ata": 5120,
      "Ġnature": 5121,
      "Ġpred": 5122,
      "leng": 5123,
      "Ġchest": 5124,
      "Ġarrest": 5125,
      "ĠSO": 5126,
      "Ġwouldnt": 5127,
      "alled": 5128,
      "Ġsmash": 5129,
      "Ġhappiness": 5130,
      "order": 5131,
      "Ġdrivers": 5132,
      "Ġfab": 5133,
      "Ġuncertain": 5134,
      "Ġresponses": 5135,
      "Ġnormally": 5136,
      "Ġprescri": 5137,
      "Ġ60": 5138,
      "Ġindivid": 5139,
      "Also": 5140,
      "Glad": 5141,
      "itar": 5142,
      "Ġbeg": 5143,
      "Ġev": 5144,
      "ĠFlorida": 5145,
      "ĠAnything": 5146,
      "allow": 5147,
      "Ġrob": 5148,
      "ĠThese": 5149,
      "Ġvisited": 5150,
      "Ġmarketing": 5151,
      "Ġseconds": 5152,
      "Ġbeloved": 5153,
      "Ġcandid": 5154,
      "Ġculture": 5155,
      "Ġignored": 5156,
      "Ġsigned": 5157,
      "Ġsauce": 5158,
      "Ġauthor": 5159,
      "lt": 5160,
      "mare": 5161,
      "night": 5162,
      "zen": 5163,
      "ĠYeah": 5164,
      "erman": 5165,
      "Ġtoys": 5166,
      "Ġdull": 5167,
      "Ġnational": 5168,
      "Ġpathetic": 5169,
      "icles": 5170,
      "Ġplant": 5171,
      "ĠSouth": 5172,
      "icked": 5173,
      "Ġresc": 5174,
      "ĠHer": 5175,
      "Ġtripped": 5176,
      "Ġclever": 5177,
      "Ġcourses": 5178,
      "Ġesc": 5179,
      "Anything": 5180,
      "Ġthrowing": 5181,
      "Ġdirection": 5182,
      "Ġannoun": 5183,
      "Ġchalleng": 5184,
      "Ġmountain": 5185,
      "Ġnewspaper": 5186,
      "ĠCompany": 5187,
      "Definitely": 5188,
      "ED": 5189,
      "zing": 5190,
      "Ŀ¤": 5191,
      "Ġmate": 5192,
      "stairs": 5193,
      "Ġfond": 5194,
      "Ġlake": 5195,
      "Ġpor": 5196,
      "Ġreb": 5197,
      "Ġinit": 5198,
      "adays": 5199,
      "ĠThursday": 5200,
      "Ġassu": 5201,
      "Ġadvent": 5202,
      "cil": 5203,
      "Ġourselves": 5204,
      "Ġdesper": 5205,
      "ĠJu": 5206,
      "Ġeffic": 5207,
      "Ġtennis": 5208,
      "ĠUniversity": 5209,
      "Ġactivities": 5210,
      "Ġfrightened": 5211,
      "Ġrepair": 5212,
      "Ġevidence": 5213,
      "ET": 5214,
      "ront": 5215,
      "Ġlying": 5216,
      "Ġfishing": 5217,
      "Ġfirm": 5218,
      "Ġdare": 5219,
      "Ġpity": 5220,
      "omin": 5221,
      "Ġrac": 5222,
      "ĠAcc": 5223,
      "ĠWow": 5224,
      "unny": 5225,
      "ĠCongr": 5226,
      "Ġ500": 5227,
      "Ġtests": 5228,
      "Ġhuh": 5229,
      "Ġsetting": 5230,
      "Ġwarning": 5231,
      "Ġsuggestions": 5232,
      "Ġobject": 5233,
      "exic": 5234,
      "Ġinfl": 5235,
      "Ġsuperv": 5236,
      "Ġduty": 5237,
      "Ġsentimental": 5238,
      "EN": 5239,
      "Try": 5240,
      "ault": 5241,
      "Ġaward": 5242,
      "Ġfigured": 5243,
      "Ġcents": 5244,
      "Ġwashing": 5245,
      "ĠLuckily": 5246,
      "ĠJo": 5247,
      "Ġthrilled": 5248,
      "Ġseats": 5249,
      "Ġincome": 5250,
      "Ġcrack": 5251,
      "ĠYear": 5252,
      "ossible": 5253,
      "Ġelectric": 5254,
      "Ġhonor": 5255,
      "Ġsuperior": 5256,
      "Ġoccasion": 5257,
      "Ġhumiliated": 5258,
      "Ġsubreddit": 5259,
      "Ġdownt": 5260,
      "da": 5261,
      "hand": 5262,
      "inary": 5263,
      "oned": 5264,
      "Ġfli": 5265,
      "Ġnic": 5266,
      "Ġmob": 5267,
      "Ġdebt": 5268,
      "ĠSince": 5269,
      "Ġscrew": 5270,
      "ĠCar": 5271,
      "Ġserve": 5272,
      "uses": 5273,
      "Ġexperienced": 5274,
      "Ġdistr": 5275,
      "anese": 5276,
      "Ġtransport": 5277,
      "Ġoppos": 5278,
      "Ġzero": 5279,
      "ĠToday": 5280,
      "ĠHopefully": 5281,
      "Ġfingers": 5282,
      "Ġvictim": 5283,
      "Ġcigare": 5284,
      "Ġdetermined": 5285,
      "Ġvolunte": 5286,
      "Ġlaundry": 5287,
      "Dude": 5288,
      "Ġcable": 5289,
      "Ġbesides": 5290,
      "Ġham": 5291,
      "Ġrushed": 5292,
      "Ġec": 5293,
      "Ġbutter": 5294,
      "ooo": 5295,
      "ĠâĢĺ": 5296,
      "ĠBill": 5297,
      "icks": 5298,
      "Ġletters": 5299,
      "Ġscholar": 5300,
      "ĠEdit": 5301,
      "Ġ21": 5302,
      "Ġcoll": 5303,
      "ggy": 5304,
      "Ġminor": 5305,
      "Ġpassing": 5306,
      "Ġemployee": 5307,
      "Ġgarage": 5308,
      "ĠTrump": 5309,
      "Che": 5310,
      "iant": 5311,
      "njoy": 5312,
      "Ġide": 5313,
      "Ġtiny": 5314,
      "Ġfift": 5315,
      "Ġroof": 5316,
      "asy": 5317,
      "Ġstea": 5318,
      "ĠMad": 5319,
      "Ġagreed": 5320,
      "Ġappear": 5321,
      "Ġloneliness": 5322,
      "eriously": 5323,
      "Ġsund": 5324,
      "ĠPark": 5325,
      "Ġentertain": 5326,
      "Ġblank": 5327,
      "eresting": 5328,
      "Ġhorse": 5329,
      "Ġdelight": 5330,
      "Ġsmooth": 5331,
      "Ġconnection": 5332,
      "nesday": 5333,
      "Ġshifts": 5334,
      "Ġcolleagues": 5335,
      "nic": 5336,
      "ĠQ": 5337,
      "Ġ^": 5338,
      "Ġmaster": 5339,
      "isions": 5340,
      "Ġgig": 5341,
      "Ġbutt": 5342,
      "Ġoverall": 5343,
      "Ġbrothers": 5344,
      "rief": 5345,
      "Ġunfortun": 5346,
      "Ġnightmare": 5347,
      "Ġaltern": 5348,
      "ĠBar": 5349,
      "Ġrange": 5350,
      "Ġdesire": 5351,
      "ucks": 5352,
      "Ġconfer": 5353,
      "Ġcharged": 5354,
      "ocr": 5355,
      "Ġfrequ": 5356,
      "Ġlegit": 5357,
      "lence": 5358,
      "Ġconditions": 5359,
      "Ġdentist": 5360,
      "Ġstealing": 5361,
      "Ġvarious": 5362,
      "Ġsincere": 5363,
      "UT": 5364,
      "down": 5365,
      "tain": 5366,
      "ĠInd": 5367,
      "Ġniece": 5368,
      "Ġanger": 5369,
      "ĠMexic": 5370,
      "Ġplate": 5371,
      "Ġconte": 5372,
      "Ġfried": 5373,
      "ĠBye": 5374,
      "ĠGot": 5375,
      "ĠCal": 5376,
      "Ġparties": 5377,
      "Ġbug": 5378,
      "Ġschools": 5379,
      "Ġcompli": 5380,
      "Ġcooked": 5381,
      "Ġfoods": 5382,
      "Ġevents": 5383,
      "Ġsuggested": 5384,
      "Ġ**": 5385,
      "Ġapproved": 5386,
      "Ġpotential": 5387,
      "Ġconnect": 5388,
      "Ġbalance": 5389,
      "ĠTaiw": 5390,
      "Ġfolks": 5391,
      "Ġparanoid": 5392,
      "100": 5393,
      "Ag": 5394,
      "TH": 5395,
      "don": 5396,
      "oot": 5397,
      "sis": 5398,
      "ww": 5399,
      "yy": 5400,
      "~~": 5401,
      "rees": 5402,
      "Ġdata": 5403,
      "Ġnames": 5404,
      "Ġnerve": 5405,
      "Ġlane": 5406,
      "Ġcast": 5407,
      "Ġrow": 5408,
      "Ġrice": 5409,
      "Ġess": 5410,
      "Ġliber": 5411,
      "Ġfridge": 5412,
      "Ġdefe": 5413,
      "Ġvir": 5414,
      "essor": 5415,
      "Ġchannel": 5416,
      "Ġimag": 5417,
      "Ġhole": 5418,
      "Ġterrific": 5419,
      "Ġcreate": 5420,
      "Ġcrashed": 5421,
      "Ġintroduce": 5422,
      "Ġtortured": 5423,
      "ĠHotel": 5424,
      "Fuck": 5425,
      "WUB": 5426,
      "rd": 5427,
      "uations": 5428,
      "ino": 5429,
      "Ġlines": 5430,
      "Ġpacking": 5431,
      "alian": 5432,
      "Ġyoure": 5433,
      "eap": 5434,
      "Ġgoo": 5435,
      "Ġreaction": 5436,
      "enses": 5437,
      "asters": 5438,
      "Ġmember": 5439,
      "Ġlift": 5440,
      "ĠWang": 5441,
      "Ġactive": 5442,
      "Ġcares": 5443,
      "ĠJan": 5444,
      "Ġhopeless": 5445,
      "Ġpays": 5446,
      "ips": 5447,
      "Ġcrappy": 5448,
      "Ġpainful": 5449,
      "Ġbasic": 5450,
      "Ġirritable": 5451,
      "Ġroller": 5452,
      "Ġgroceries": 5453,
      "Ġjoyful": 5454,
      "market": 5455,
      "Ġtelephone": 5456,
      "Ġtarget": 5457,
      "AR": 5458,
      "Br": 5459,
      "Mom": 5460,
      "oon": 5461,
      "rant": 5462,
      "xic": 5463,
      "inist": 5464,
      "Ġnor": 5465,
      "Ġnut": 5466,
      "angh": 5467,
      "lept": 5468,
      "omen": 5469,
      "Ġjail": 5470,
      "Ġrev": 5471,
      "icip": 5472,
      "ĠNothing": 5473,
      "Ġassume": 5474,
      "Ġload": 5475,
      "erved": 5476,
      "Ġbuff": 5477,
      "ĠLOL": 5478,
      "Ġmessed": 5479,
      "Ġsavings": 5480,
      "ĠRuss": 5481,
      "useum": 5482,
      "Ġacceptable": 5483,
      "lenge": 5484,
      "Ġgreedy": 5485,
      "ployment": 5486,
      "Ġrelieved": 5487,
      "Ġpicking": 5488,
      "Ġcrime": 5489,
      "Ġbummed": 5490,
      "Tomorrow": 5491,
      "Ġwaves": 5492,
      "Ġrepresent": 5493,
      "Ġscholarship": 5494,
      "WUBWUB": 5495,
      "anghai": 5496,
      "!\"": 5497,
      "Give": 5498,
      "dened": 5499,
      "fli": 5500,
      "rr": 5501,
      "ĠIN": 5502,
      "Ġtom": 5503,
      "Ġshel": 5504,
      "Ġsteak": 5505,
      "chan": 5506,
      "Ġlock": 5507,
      "usan": 5508,
      "illy": 5509,
      "Ġtroll": 5510,
      "Ġclients": 5511,
      "Ġpersonality": 5512,
      "Ġtherapy": 5513,
      "Ġmistakes": 5514,
      "Ġlesson": 5515,
      "Ġeaten": 5516,
      "Ġenergetic": 5517,
      "Ġgiant": 5518,
      "Ġstores": 5519,
      "Ġpetty": 5520,
      "Ġrelationships": 5521,
      "Ġedge": 5522,
      "Ġphysically": 5523,
      "ĠBrown": 5524,
      "Ġpunished": 5525,
      "Ġhesitant": 5526,
      "Ġattempt": 5527,
      "Ġfavourite": 5528,
      "ĠAustralia": 5529,
      "Ġcancelled": 5530,
      "Ġintelligent": 5531,
      "Ġvehicle": 5532,
      "Ġunfortunate": 5533,
      "45": 5534,
      "AS": 5535,
      "bor": 5536,
      "cel": 5537,
      "gas": 5538,
      "round": 5539,
      "Ġing": 5540,
      "Ġmea": 5541,
      "Ġsar": 5542,
      "Ġsinging": 5543,
      "onsid": 5544,
      "Ġpath": 5545,
      "Ġforce": 5546,
      "Ġbutton": 5547,
      "ashing": 5548,
      "ĠAd": 5549,
      "Ġrights": 5550,
      "lig": 5551,
      "Ġanybody": 5552,
      "Ġexhibit": 5553,
      "Ġrobbed": 5554,
      "Ġworthless": 5555,
      "ĠPC": 5556,
      "Ġ:/": 5557,
      "Ġgrades": 5558,
      "Ġsupermarket": 5559,
      "Ġraining": 5560,
      "Ġsexual": 5561,
      "Ġbeaten": 5562,
      "Ġanticip": 5563,
      "Going": 5564,
      "Ġautom": 5565,
      "Ġchallenge": 5566,
      "check": 5567,
      "ĠGrand": 5568,
      "Ġcritic": 5569,
      "Ġguests": 5570,
      "Ġdowntown": 5571,
      "Ġfifteen": 5572,
      "hold": 5573,
      "yer": 5574,
      "Ġ>": 5575,
      "erry": 5576,
      "Ġmile": 5577,
      "lymp": 5578,
      "Ġnaught": 5579,
      "isor": 5580,
      "aries": 5581,
      "ctors": 5582,
      "atest": 5583,
      "Ġbite": 5584,
      "ĠDr": 5585,
      "Ġworkers": 5586,
      "Ġapplying": 5587,
      "ĠTime": 5588,
      "ĠGive": 5589,
      "Ġrole": 5590,
      "ĠPar": 5591,
      "ĠEspecially": 5592,
      "Ġdecor": 5593,
      "Ġattach": 5594,
      "Ġterrifying": 5595,
      "Ġteaching": 5596,
      "Ġiron": 5597,
      "Ġrule": 5598,
      "Ġfollowed": 5599,
      "Ġparticip": 5600,
      "Congratulations": 5601,
      "Ġstruggling": 5602,
      "Ġdepression": 5603,
      "Ġopposite": 5604,
      "Ġtail": 5605,
      "Ġthroat": 5606,
      "Ġsending": 5607,
      "Ġfile": 5608,
      "atis": 5609,
      "Ġnorth": 5610,
      "Ġowe": 5611,
      "vey": 5612,
      "Ġrelease": 5613,
      "While": 5614,
      "Ġplat": 5615,
      "Ġunem": 5616,
      "ĠST": 5617,
      "Ġpos": 5618,
      "tember": 5619,
      "Ġbringing": 5620,
      "Ġexpectations": 5621,
      "ĠPre": 5622,
      "Ġimage": 5623,
      "Ġsmaller": 5624,
      "Ġstraw": 5625,
      "Ġflag": 5626,
      "ĠWhite": 5627,
      "Ġproductive": 5628,
      "Ġburger": 5629,
      "Ġpotato": 5630,
      "Should": 5631,
      "Ġhonored": 5632,
      "Ġaccomplish": 5633,
      "Ġcasual": 5634,
      "Ġspider": 5635,
      "Ġrisk": 5636,
      "Ġignor": 5637,
      "Ġadvantage": 5638,
      "OP": 5639,
      "can": 5640,
      "case": 5641,
      "ckey": 5642,
      "oving": 5643,
      "oured": 5644,
      "Ġsouth": 5645,
      "Ġfancy": 5646,
      "orous": 5647,
      "ality": 5648,
      "Ġjam": 5649,
      "Ġripped": 5650,
      "ara": 5651,
      "Ġoutf": 5652,
      "Ġnowadays": 5653,
      "Ġknocked": 5654,
      "Ġchill": 5655,
      "Ġalt": 5656,
      "bec": 5657,
      "cies": 5658,
      "Ġsport": 5659,
      "Ġintimid": 5660,
      "Ġshouldnt": 5661,
      "ĠTell": 5662,
      "ĠTurn": 5663,
      "ĠGu": 5664,
      "Ġsolid": 5665,
      "Ġcompared": 5666,
      "Ġdrives": 5667,
      "achel": 5668,
      "Ġcoat": 5669,
      "Ġdecisions": 5670,
      "Ġconfusing": 5671,
      "ĠStill": 5672,
      "Ġraised": 5673,
      "Ġindepend": 5674,
      "ĠShould": 5675,
      "Ġtender": 5676,
      "Ġfocusing": 5677,
      "Ġnaughty": 5678,
      "Cool": 5679,
      "Rec": 5680,
      "care": 5681,
      "cul": 5682,
      "fact": 5683,
      "rated": 5684,
      "tled": 5685,
      "Ġmut": 5686,
      "Ġsides": 5687,
      "Ġfare": 5688,
      "Ġdying": 5689,
      "Ġcere": 5690,
      "Ġreact": 5691,
      "lder": 5692,
      "Ġnotes": 5693,
      "arents": 5694,
      "list": 5695,
      "Ġplastic": 5696,
      "Ġunl": 5697,
      "Ġunit": 5698,
      "Ġtells": 5699,
      "Ġsenior": 5700,
      "istry": 5701,
      "athy": 5702,
      "Ġvet": 5703,
      "Ġbye": 5704,
      "Ġentered": 5705,
      "Ġhockey": 5706,
      "Ġguide": 5707,
      "Ġflash": 5708,
      "ception": 5709,
      "Ġdrama": 5710,
      "Ġshooting": 5711,
      "Ġreluct": 5712,
      "Ġtelev": 5713,
      "ĠStar": 5714,
      "ĠStates": 5715,
      "Ġfreak": 5716,
      "Ġgreatest": 5717,
      "ĠShanghai": 5718,
      "Ġutter": 5719,
      "Ġdiscouraged": 5720,
      "Ġmobile": 5721,
      "Ġconference": 5722,
      "AY": 5723,
      "Keep": 5724,
      "good": 5725,
      "giving": 5726,
      "watch": 5727,
      "Ġtag": 5728,
      "Ġfever": 5729,
      "Ġhired": 5730,
      "Ġpal": 5731,
      "Ġpian": 5732,
      "ades": 5733,
      "Ġpride": 5734,
      "ĠâĢĿ": 5735,
      "ĠMac": 5736,
      "Ġears": 5737,
      "Ġvirt": 5738,
      "beli": 5739,
      "Ġpocket": 5740,
      "ĠBl": 5741,
      "Ġages": 5742,
      "unities": 5743,
      "ĠHar": 5744,
      "Ġdiscovered": 5745,
      "anky": 5746,
      "Ġchose": 5747,
      "ago": 5748,
      "Ġleth": 5749,
      "Ġhouses": 5750,
      "Ġsituations": 5751,
      "Ġminimum": 5752,
      "ðŁ¤": 5753,
      "why": 5754,
      "Ġdefin": 5755,
      "Ġhurricane": 5756,
      "Ġfactory": 5757,
      "Ġappreciative": 5758,
      "Ġfinger": 5759,
      "Ġreference": 5760,
      "Ġadvertise": 5761,
      "Ġmodern": 5762,
      "Ġfifty": 5763,
      "ĠTaiwan": 5764,
      "15": 5765,
      "Uh": 5766,
      "UCK": 5767,
      "five": 5768,
      "uing": 5769,
      "uous": 5770,
      "year": 5771,
      "Ġ<": 5772,
      "Ġwide": 5773,
      "eral": 5774,
      "Ġsam": 5775,
      "eez": 5776,
      "Ġlous": 5777,
      "Ġlame": 5778,
      "Ġpm": 5779,
      "Ġpin": 5780,
      "Ġbell": 5781,
      "Ġreward": 5782,
      "eng": 5783,
      "Ġsore": 5784,
      "Ġareas": 5785,
      "ĠSw": 5786,
      "Ġpoll": 5787,
      "Ġbucks": 5788,
      "aced": 5789,
      "Ġimpossible": 5790,
      "Isn": 5791,
      "Ġskirt": 5792,
      "Ġexperiences": 5793,
      "Ġhug": 5794,
      "Ġfreed": 5795,
      "Ġobvious": 5796,
      "Ġtransl": 5797,
      "Ġcovering": 5798,
      "Ġcreated": 5799,
      "Ġopportunities": 5800,
      "Ġquarter": 5801,
      "Int": 5802,
      "uri": 5803,
      "Ġmale": 5804,
      "Ġsid": 5805,
      "Ġpink": 5806,
      "ask": 5807,
      "Ġstairs": 5808,
      "ĠAC": 5809,
      "Ġdoom": 5810,
      "Ġdoctors": 5811,
      "uled": 5812,
      "Ġunp": 5813,
      "Ġunable": 5814,
      "Ġworker": 5815,
      "Ġintense": 5816,
      "Ġappet": 5817,
      "Ġcheer": 5818,
      "Ġscar": 5819,
      "Ġscreaming": 5820,
      "Ġthankfully": 5821,
      "ĠCity": 5822,
      "ployed": 5823,
      "Ġclue": 5824,
      "ĠON": 5825,
      "ĠOver": 5826,
      "ðŁĴ": 5827,
      "Ġskill": 5828,
      "Ġcorpor": 5829,
      "Ġinspect": 5830,
      "Ġsignific": 5831,
      "Ġanswers": 5832,
      "Ġassistant": 5833,
      "ounting": 5834,
      "Ġgrossed": 5835,
      "Ġconsist": 5836,
      "Ġyelled": 5837,
      "Ġeffects": 5838,
      "Ġtraditional": 5839,
      "Ġsusp": 5840,
      "Ġjerk": 5841,
      "Ġtasks": 5842,
      "Ġfemale": 5843,
      "Ġrotten": 5844,
      "Ġsplit": 5845,
      "Sam": 5846,
      "hmm": 5847,
      "name": 5848,
      "ox": 5849,
      "ednesday": 5850,
      "Ġreme": 5851,
      "Ġmeth": 5852,
      "Ġlies": 5853,
      "Ġstates": 5854,
      "Ġweb": 5855,
      "Ġallerg": 5856,
      "Ġbranch": 5857,
      "onder": 5858,
      "Ġcommer": 5859,
      "ĠBlack": 5860,
      "ĠWait": 5861,
      "Ġhollow": 5862,
      "ops": 5863,
      "Ġlean": 5864,
      "aches": 5865,
      "Ġimpact": 5866,
      "iforn": 5867,
      "aker": 5868,
      "ĠYuan": 5869,
      "Ġwreck": 5870,
      "Ġabsolute": 5871,
      "Ġfellow": 5872,
      "Ġcops": 5873,
      "ĠOnly": 5874,
      "Ġslipped": 5875,
      "Ġimpression": 5876,
      "Ġdistracted": 5877,
      "Ġaccurate": 5878,
      "Ġfabulous": 5879,
      "Ġreluctant": 5880,
      "12": 5881,
      "Am": 5882,
      "From": 5883,
      "Lmao": 5884,
      "aul": 5885,
      "bre": 5886,
      "see": 5887,
      "itive": 5888,
      "orking": 5889,
      "Ġitem": 5890,
      "Ġforty": 5891,
      "eels": 5892,
      "icago": 5893,
      "ĠFace": 5894,
      "ĠSep": 5895,
      "Ġconsu": 5896,
      "Ġspicy": 5897,
      "Ġlos": 5898,
      "Ġgrass": 5899,
      "Ġforgive": 5900,
      "Ġsuits": 5901,
      "Ġfriendship": 5902,
      "Ġgloom": 5903,
      "Ġstoked": 5904,
      "Ġremain": 5905,
      "ĠStreet": 5906,
      "Ġsurv": 5907,
      "Ġqualified": 5908,
      "Ġfilms": 5909,
      "ĠUnited": 5910,
      "Shall": 5911,
      "going": 5912,
      "levant": 5913,
      "load": 5914,
      "Ġsoftware": 5915,
      "Ġmixed": 5916,
      "ĠDavid": 5917,
      "Ġinterrupted": 5918,
      "Ġillegal": 5919,
      "Ġsupervisor": 5920,
      "Coffee": 5921,
      "house": 5922,
      "Ġtim": 5923,
      "inct": 5924,
      "Ġabuse": 5925,
      "argic": 5926,
      "ĠNOT": 5927,
      "ĠMike": 5928,
      "Ġsurely": 5929,
      "Ġneither": 5930,
      "Ġtheres": 5931,
      "Ġalot": 5932,
      "ĠBank": 5933,
      "Ġgoodness": 5934,
      "usive": 5935,
      "ĠPerhaps": 5936,
      "Ġfax": 5937,
      "Ġtrail": 5938,
      "Ġdeserves": 5939,
      "Ġ300": 5940,
      "Ġcos": 5941,
      "Ġmark": 5942,
      "Ġstops": 5943,
      "Ġbreaks": 5944,
      "Ġfreaking": 5945,
      "Ġsucceed": 5946,
      "Ġimprovement": 5947,
      "Ġtournam": 5948,
      "Ġelection": 5949,
      "Ġresponsibility": 5950,
      "Ġtreated": 5951,
      "Ġofficer": 5952,
      "Ġshipment": 5953,
      "Ġeconomy": 5954,
      "Ġresolved": 5955,
      "Ġladies": 5956,
      "Ġoverseas": 5957,
      "Ġtelevision": 5958,
      "Ġlethargic": 5959,
      "500": 5960,
      "Um": 5961,
      "fl": 5962,
      "iam": 5963,
      "tr": 5964,
      "uff": 5965,
      "Ġ=": 5966,
      "Ġflew": 5967,
      "Ġpound": 5968,
      "oti": 5969,
      "Ġrenew": 5970,
      "Ġaband": 5971,
      "Ġkil": 5972,
      "Ġfriday": 5973,
      "earten": 5974,
      "ĠAB": 5975,
      "Ġheaded": 5976,
      "cember": 5977,
      "ural": 5978,
      "Ġbetr": 5979,
      "Ġharm": 5980,
      "ĠBrit": 5981,
      "ĠWH": 5982,
      "ĠWednesday": 5983,
      "rase": 5984,
      "Ġstun": 5985,
      "ĠGerman": 5986,
      "Ġlocked": 5987,
      "Ġroast": 5988,
      "Ġgro": 5989,
      "ĠLu": 5990,
      "Ġdeeply": 5991,
      "ĠJane": 5992,
      "Ġwasted": 5993,
      "shit": 5994,
      "Ġcranky": 5995,
      "Ġcraw": 5996,
      "Ġnearby": 5997,
      "Ġvalued": 5998,
      "Ġdishearten": 5999,
      "Ġtaxes": 6000,
      "Ġcomplaining": 6001,
      "Ġstressful": 6002,
      "Ġcampus": 6003,
      "Ġmagazine": 6004,
      "Ġecst": 6005,
      "Ġlousy": 6006,
      "ifornia": 6007,
      "py": 6008,
      "rate": 6009,
      "was": 6010,
      "Ġmap": 6011,
      "Ġske": 6012,
      "real": 6013,
      "Ġpapers": 6014,
      "leased": 6015,
      "ease": 6016,
      "Ġhaunt": 6017,
      "elly": 6018,
      "illing": 6019,
      "illiant": 6020,
      "Ġweekends": 6021,
      "Ġrespected": 6022,
      "Ġchemo": 6023,
      "Ġsolve": 6024,
      "Ġjoking": 6025,
      "Ġhappier": 6026,
      "Ġmoms": 6027,
      "ĠLin": 6028,
      "Ġmessages": 6029,
      "ĠOk": 6030,
      "ucky": 6031,
      "Ġphotograph": 6032,
      "Ġshoe": 6033,
      "Ġluckily": 6034,
      "Donald": 6035,
      "Ġagreement": 6036,
      "Ġsettled": 6037,
      "Ġrefr": 6038,
      "Ġsurvi": 6039,
      "Ġproduction": 6040,
      "Ġtopic": 6041,
      "Ġpurse": 6042,
      "Ġpets": 6043,
      "Ġsunny": 6044,
      "Ġdiscussion": 6045,
      "Ġpretend": 6046,
      "Ġtrees": 6047,
      "Ġinjured": 6048,
      "Ġthreatened": 6049,
      "Ġsubscri": 6050,
      "Ġresentful": 6051,
      "Ġindividual": 6052,
      "Ġecstatic": 6053,
      "BA": 6054,
      "ID": 6055,
      "sen": 6056,
      "Ġseas": 6057,
      "Ġhid": 6058,
      "Ġdread": 6059,
      "Ġnuts": 6060,
      "Ġpie": 6061,
      "otic": 6062,
      "Ġje": 6063,
      "enny": 6064,
      "Ġhairc": 6065,
      "ĠMany": 6066,
      "ĠSlack": 6067,
      "Ġcongr": 6068,
      "Ġfries": 6069,
      "Ġlets": 6070,
      "ĠGreen": 6071,
      "Ġlog": 6072,
      "ĠCom": 6073,
      "ĠOther": 6074,
      "ĠOlymp": 6075,
      "Ġtravelling": 6076,
      "Ġthroughout": 6077,
      "Ġdrank": 6078,
      "ðŁı": 6079,
      "rency": 6080,
      "ĠInst": 6081,
      "Ġexplan": 6082,
      "hhh": 6083,
      "Ġaching": 6084,
      "Ġnegoti": 6085,
      "OOOO": 6086,
      "Ġkicked": 6087,
      "Ġteenager": 6088,
      "Ġbenefit": 6089,
      "Ġcrowded": 6090,
      "pril": 6091,
      "ĠAND": 6092,
      "Ġretirement": 6093,
      "Ġguarantee": 6094,
      "flix": 6095,
      "Ġfreedom": 6096,
      "John": 6097,
      "Went": 6098,
      "lin": 6099,
      "ointing": 6100,
      "word": 6101,
      "Ġath": 6102,
      "Ġsla": 6103,
      "Ġsink": 6104,
      "itation": 6105,
      "Ġfees": 6106,
      "atient": 6107,
      "Ġtoast": 6108,
      "ĠNet": 6109,
      "ĠMakes": 6110,
      "Ġchair": 6111,
      "Ġdeb": 6112,
      "Ġprove": 6113,
      "ĠBest": 6114,
      "Ġdial": 6115,
      "Ġworthwhile": 6116,
      "Ġbugs": 6117,
      "Ġcoaster": 6118,
      "Ġhighway": 6119,
      "akers": 6120,
      "Ġfacts": 6121,
      "ificate": 6122,
      "ĠSomeone": 6123,
      "Imagine": 6124,
      "Ġinsulted": 6125,
      "Ġboundary": 6126,
      "Ŀ¤ï¸ı": 6127,
      "Ġshelter": 6128,
      "atisfied": 6129,
      "Ġgloomy": 6130,
      "AC": 6131,
      "IF": 6132,
      "Pl": 6133,
      "fa": 6134,
      "ipe": 6135,
      "ators": 6136,
      "Ġnap": 6137,
      "Ġlu": 6138,
      "otally": 6139,
      "othing": 6140,
      "Ġjacket": 6141,
      "Ġult": 6142,
      "Ġmechan": 6143,
      "arian": 6144,
      "Ġlip": 6145,
      "ĠMake": 6146,
      "olly": 6147,
      "umn": 6148,
      "Ġdisp": 6149,
      "Ġdislike": 6150,
      "Ġnovel": 6151,
      "Ġchances": 6152,
      "eria": 6153,
      "Ġenvy": 6154,
      "ĠCor": 6155,
      "ĠPM": 6156,
      "Ġlonging": 6157,
      "Ġguitar": 6158,
      "ĠOff": 6159,
      "apped": 6160,
      "Ġcode": 6161,
      "Ġcloset": 6162,
      "Ġworrying": 6163,
      "ĠKing": 6164,
      "ĠKore": 6165,
      "Ġremoved": 6166,
      "Ġmisunderst": 6167,
      "Ġapple": 6168,
      "Ġballs": 6169,
      "Ġaccomplished": 6170,
      "Ġhomesick": 6171,
      "Ġsource": 6172,
      "Ġupvote": 6173,
      "ĠSteven": 6174,
      "Ġcooper": 6175,
      ".âĢĿ": 6176,
      "11": 6177,
      "Dad": 6178,
      "IC": 6179,
      "bu": 6180,
      "tw": 6181,
      "Ġtu": 6182,
      "Ġmic": 6183,
      "Ġmuseum": 6184,
      "orable": 6185,
      "Ġwhom": 6186,
      "outube": 6187,
      "arch": 6188,
      "arma": 6189,
      "Ġsty": 6190,
      "Ġvs": 6191,
      "Ġworkout": 6192,
      "Ġdire": 6193,
      "Ġspread": 6194,
      "ĠHong": 6195,
      "Ġhopes": 6196,
      "Ġpossibility": 6197,
      "Ġproduce": 6198,
      "Ġmedium": 6199,
      "Ġbasis": 6200,
      "Ġcomputers": 6201,
      "Ġcases": 6202,
      "ĠFrance": 6203,
      "Ġlawyer": 6204,
      "Ġcashier": 6205,
      "ĠGoodbye": 6206,
      "Stop": 6207,
      "Ġannual": 6208,
      "Ġprograms": 6209,
      "Ġcapt": 6210,
      "Ġprivile": 6211,
      "Ġorders": 6212,
      "Ġignore": 6213,
      "Ġroutine": 6214,
      "Ġmelanch": 6215,
      "ĠJapanese": 6216,
      "Ġmeasure": 6217,
      "Recently": 6218,
      "ĠSeptember": 6219,
      "Ġsurvive": 6220,
      "AM": 6221,
      "Jordan": 6222,
      "Ġer": 6223,
      "Ġwww": 6224,
      "Ġbatter": 6225,
      "Ġboun": 6226,
      "Ġtodd": 6227,
      "Ġjunk": 6228,
      "Ġreun": 6229,
      "Ġshots": 6230,
      "Ġprison": 6231,
      "Ġfrank": 6232,
      "Ġknock": 6233,
      "ĠApril": 6234,
      "ĠMic": 6235,
      "nol": 6236,
      "Ġbros": 6237,
      "urger": 6238,
      "Ġads": 6239,
      "ĠTw": 6240,
      "Ġsens": 6241,
      "Ġvisa": 6242,
      "Ġflo": 6243,
      "Ġrecover": 6244,
      "Ġglasses": 6245,
      "Ġhighest": 6246,
      "Ġhurting": 6247,
      "Ġinstruct": 6248,
      "Ġhorny": 6249,
      "Ġpresents": 6250,
      "Ġteachers": 6251,
      "Ġlocation": 6252,
      "Ġpreparing": 6253,
      "Ġvalid": 6254,
      "ĠUnfortunately": 6255,
      "ibilities": 6256,
      "Ġhandsome": 6257,
      "ĠOnce": 6258,
      "Ġsweater": 6259,
      "Ġstruggle": 6260,
      "Ġmaterials": 6261,
      "Ġbecomes": 6262,
      "Ġcomplex": 6263,
      "Ġpropos": 6264,
      "iverse": 6265,
      "Ġdiagnosed": 6266,
      "Ġsunday": 6267,
      "Ġhaunted": 6268,
      "Her": 6269,
      "Ġtong": 6270,
      "Ġtank": 6271,
      "oups": 6272,
      "reg": 6273,
      "Ġtoy": 6274,
      "Ġnamed": 6275,
      "Ġpitch": 6276,
      "there": 6277,
      "Ġbench": 6278,
      "Ġinch": 6279,
      "Ġanaly": 6280,
      "ĠMY": 6281,
      "ĠMa": 6282,
      "Ġmonthly": 6283,
      "endo": 6284,
      "ĠSe": 6285,
      "Ġalarm": 6286,
      "ĠWelcome": 6287,
      "ĠHaw": 6288,
      "Thats": 6289,
      "Ġforgotten": 6290,
      "ĠCent": 6291,
      "Ġtrou": 6292,
      "Ġgrandp": 6293,
      "Ġclimate": 6294,
      "Ġblamed": 6295,
      "Ġtrips": 6296,
      "Ġpaycheck": 6297,
      "Ġreplaying": 6298,
      "anged": 6299,
      "Ġlessons": 6300,
      "Ġrelatives": 6301,
      "ivity": 6302,
      "Ġmatters": 6303,
      "ĠðŁĳ": 6304,
      "Ġmax": 6305,
      "Ġbaggage": 6306,
      "ĠTHAT": 6307,
      "Ġconserv": 6308,
      "Ġ;)": 6309,
      "Ġyellow": 6310,
      "Ġserved": 6311,
      "Ġcanceled": 6312,
      "Ġfamilies": 6313,
      "Ġregister": 6314,
      "Ġbirds": 6315,
      "ĠJapan": 6316,
      "Ġmotorcy": 6317,
      "Ġcontext": 6318,
      "Ġtournament": 6319,
      "Ġmelancholy": 6320,
      "Tube": 6321,
      "bing": 6322,
      "Ġtie": 6323,
      "Ġwit": 6324,
      "Ġblew": 6325,
      "Ġfits": 6326,
      "Ġci": 6327,
      "ott": 6328,
      "Ġjun": 6329,
      "verse": 6330,
      "Ġelder": 6331,
      "Ġprior": 6332,
      "Ġproof": 6333,
      "inder": 6334,
      "ĠMark": 6335,
      "ĠItalian": 6336,
      "Ġanyways": 6337,
      "Ġbrilliant": 6338,
      "ĠDan": 6339,
      "Ġtalks": 6340,
      "Ġproc": 6341,
      "Ġoldest": 6342,
      "Ġadorable": 6343,
      "Ġreserve": 6344,
      "Ġunderw": 6345,
      "Ġrandomly": 6346,
      "ĠLA": 6347,
      "Ġdeserved": 6348,
      "Ġplayoff": 6349,
      "Ġimpatient": 6350,
      "Ġfunction": 6351,
      "paign": 6352,
      "aky": 6353,
      "Ġpulling": 6354,
      "Ġclassic": 6355,
      "Ġski": 6356,
      "umpy": 6357,
      "Ġaddition": 6358,
      "Ġfarm": 6359,
      "Ġrelative": 6360,
      "Ġsettle": 6361,
      "ĠEngland": 6362,
      "bborn": 6363,
      "Ġburdened": 6364,
      "Ġpracticing": 6365,
      "Ġtreatment": 6366,
      "Ġequip": 6367,
      "Ġcausing": 6368,
      "Ġcompleted": 6369,
      "Ġdownvoted": 6370,
      "Ġfalse": 6371,
      "Ġperspect": 6372,
      "Ġsidew": 6373,
      "Ġhaircut": 6374,
      "iel": 6375,
      "ius": 6376,
      "lace": 6377,
      "overs": 6378,
      "yard": 6379,
      "Ġtear": 6380,
      "Ġcine": 6381,
      "isc": 6382,
      "Ġped": 6383,
      "Ġpill": 6384,
      "Ġreas": 6385,
      "Ġkeen": 6386,
      "Ġevil": 6387,
      "Ġshar": 6388,
      "aming": 6389,
      "elp": 6390,
      "Ġcough": 6391,
      "Ġearn": 6392,
      "Ġvoted": 6393,
      "cient": 6394,
      "tegr": 6395,
      "Ġnoises": 6396,
      "Ġstubborn": 6397,
      "Ġintention": 6398,
      "quate": 6399,
      "Ġquote": 6400,
      "Ġgroups": 6401,
      "Ġawake": 6402,
      "Ġtran": 6403,
      "Ġruns": 6404,
      "Ġfigures": 6405,
      "Ġaccounts": 6406,
      "ĠChicago": 6407,
      "ifying": 6408,
      "Ġfacebook": 6409,
      "Ġpatience": 6410,
      "Ġreflect": 6411,
      "Ġcampaign": 6412,
      "Ġemployer": 6413,
      "Ġsquare": 6414,
      "Ġguns": 6415,
      "Ġregretful": 6416,
      "Ġbanned": 6417,
      "evable": 6418,
      "Ġburned": 6419,
      "Ġunwelcome": 6420,
      "Ġfiance": 6421,
      "Ġdissatisfied": 6422,
      "Ġlinear": 6423,
      "Ġsympathetic": 6424,
      "Ġprescription": 6425,
      "Ġinflu": 6426,
      "Ġdefeated": 6427,
      "ĠFacebook": 6428,
      "Ġdisheartened": 6429,
      "Grief": 6430,
      "Ind": 6431,
      "Make": 6432,
      "Ġ^^": 6433,
      "Ġwa": 6434,
      "Ġslept": 6435,
      "itary": 6436,
      "Ġbow": 6437,
      "Ġhook": 6438,
      "ĠNext": 6439,
      "adow": 6440,
      "ĠAS": 6441,
      "elve": 6442,
      "cean": 6443,
      "Ġgolf": 6444,
      "ĠFe": 6445,
      "Ġunn": 6446,
      "ĠSusan": 6447,
      "Ġvain": 6448,
      "raph": 6449,
      "Ġoffers": 6450,
      "Ġjoined": 6451,
      "ĠEnjoy": 6452,
      "Ġjournaling": 6453,
      "Ġsentence": 6454,
      "Ġformal": 6455,
      "ĠTHIS": 6456,
      "Ġbelow": 6457,
      "Ġrelief": 6458,
      "Ġtastes": 6459,
      "Ġjokes": 6460,
      "Ġscient": 6461,
      "Ġlabor": 6462,
      "Ġpurchased": 6463,
      "Ġwoods": 6464,
      "Ġnecklace": 6465,
      "00000000": 6466,
      "Ġcontrib": 6467,
      "Ġintimidated": 6468,
      "Ġrefriger": 6469,
      "Ġexplanation": 6470,
      "Ġdirector": 6471,
      "Ġtongue": 6472,
      "Ġmotorcycle": 6473,
      "IL": 6474,
      "Id": 6475,
      "Sir": 6476,
      "XX": 6477,
      "kn": 6478,
      "kin": 6479,
      "erfect": 6480,
      "Ġdressed": 6481,
      "orrect": 6482,
      "eaking": 6483,
      "eable": 6484,
      "Ġinade": 6485,
      "Ġintegr": 6486,
      "etter": 6487,
      "plement": 6488,
      "Ġunim": 6489,
      "Ġagent": 6490,
      "Ġaggress": 6491,
      "Ġspouse": 6492,
      "ĠYouTube": 6493,
      "Ġgrumpy": 6494,
      "agles": 6495,
      "ĠLO": 6496,
      "Ġcompass": 6497,
      "ĠHey": 6498,
      "Ġmentally": 6499,
      "Ġexpenses": 6500,
      "Ġlanded": 6501,
      "Ġheaven": 6502,
      "Ġdefense": 6503,
      "Ġcharming": 6504,
      "bron": 6505,
      "Ġdepri": 6506,
      "Ġarticles": 6507,
      "Ġsigns": 6508,
      "ruction": 6509,
      "Ġstrongly": 6510,
      "Ġlarger": 6511,
      "Ġstreets": 6512,
      "Hahaha": 6513,
      "Ġmaintain": 6514,
      "Ġpregnancy": 6515,
      "Ġmachines": 6516,
      "Ġdevelopment": 6517,
      "Ġvariety": 6518,
      "Ġregistered": 6519,
      "Ġdumped": 6520,
      "Ġadults": 6521,
      "Ġbitchy": 6522,
      "Ġdivine": 6523,
      "Ġfestive": 6524,
      "Ġmirror": 6525,
      "Ġcabin": 6526,
      "Ġideal": 6527,
      "Ġunemployment": 6528,
      "MA": 6529,
      "Watch": 6530,
      "rance": 6531,
      "Ġsake": 6532,
      "stic": 6533,
      "Ġbump": 6534,
      "Ġcro": 6535,
      "isy": 6536,
      "isle": 6537,
      "east": 6538,
      "Ġgain": 6539,
      "sey": 6540,
      "Ġstaring": 6541,
      "Ġconcept": 6542,
      "raft": 6543,
      "ĠTwo": 6544,
      "Ġoffering": 6545,
      "intendo": 6546,
      "Ġprojects": 6547,
      "Ġloans": 6548,
      "Ġ35": 6549,
      "Ġhobby": 6550,
      "Ġguilt": 6551,
      "Remind": 6552,
      "ĠEagles": 6553,
      "agement": 6554,
      "Ġdisappointing": 6555,
      "ĠRo": 6556,
      "Ġdrained": 6557,
      "Ġcrushed": 6558,
      "Ġassault": 6559,
      "Ġparked": 6560,
      "Ġartist": 6561,
      "Ġlegend": 6562,
      "rupt": 6563,
      "mmm": 6564,
      "Ġ70": 6565,
      "Ġsorts": 6566,
      "Ġneglect": 6567,
      "Ġinvestig": 6568,
      "Ġregularly": 6569,
      "Ġurgent": 6570,
      "Ġestab": 6571,
      "HAHA": 6572,
      "Ġdisturbed": 6573,
      "Ġoutfit": 6574,
      "Ġmethod": 6575,
      "Ġjeans": 6576,
      "AP": 6577,
      "Poor": 6578,
      "bid": 6579,
      "tf": 6580,
      "zed": 6581,
      "Ġthick": 6582,
      "Ġwing": 6583,
      "Ġflies": 6584,
      "Ġfasc": 6585,
      "orter": 6586,
      "Ġpure": 6587,
      "Ġrab": 6588,
      "Ġelev": 6589,
      "Ġsheet": 6590,
      "Ġprim": 6591,
      "Ġweigh": 6592,
      "Ġsoda": 6593,
      "pleas": 6594,
      "ĠME": 6595,
      "Ġuniverse": 6596,
      "ĠSy": 6597,
      "Ġdisease": 6598,
      "ĠWish": 6599,
      "Ġactions": 6600,
      "ĠTra": 6601,
      "Ġargue": 6602,
      "Ġtypes": 6603,
      "Ġcloud": 6604,
      "Ġclothing": 6605,
      "Ġvegan": 6606,
      "Ġcolour": 6607,
      "hael": 6608,
      "Ġblast": 6609,
      "Ġrestroom": 6610,
      "ĠYesterday": 6611,
      "Ġwronged": 6612,
      "Ġcharges": 6613,
      "Ġinterviews": 6614,
      "Ġartistic": 6615,
      "Ġwarrant": 6616,
      "portant": 6617,
      "mbering": 6618,
      "Ġlaws": 6619,
      "Ġfearful": 6620,
      "Ġreached": 6621,
      "Ġillness": 6622,
      "Ġcapital": 6623,
      "Ġcrossed": 6624,
      "Ġwalls": 6625,
      "Ġfulf": 6626,
      "orthy": 6627,
      "Ġborrowed": 6628,
      "Ġpraying": 6629,
      "Ġwashed": 6630,
      "Ġdestroy": 6631,
      "Ġusername": 6632,
      "Ġfoolish": 6633,
      "priate": 6634,
      "Ġflavor": 6635,
      "Ġpiano": 6636,
      "Ġdoomed": 6637,
      "Ġgroggy": 6638,
      "Sad": 6639,
      "VER": 6640,
      "bot": 6641,
      "food": 6642,
      "made": 6643,
      "Ġhates": 6644,
      "Ġdu": 6645,
      "Ġdun": 6646,
      "Ġpoo": 6647,
      "ales": 6648,
      "eduled": 6649,
      "Ġugh": 6650,
      "Ġrise": 6651,
      "Ġkitten": 6652,
      "Ġmellow": 6653,
      "asm": 6654,
      "Ġshaky": 6655,
      "amps": 6656,
      "ource": 6657,
      "Ġanytime": 6658,
      "Ġorange": 6659,
      "ĠBu": 6660,
      "Ġbackyard": 6661,
      "race": 6662,
      "Ġbelief": 6663,
      "Ġqueen": 6664,
      "Ġsmug": 6665,
      "Ġsucked": 6666,
      "ĠCo": 6667,
      "Ġmessy": 6668,
      "have": 6669,
      "ĠRes": 6670,
      "Ġcommit": 6671,
      "Ġsatur": 6672,
      "Ġopinions": 6673,
      "Ġirre": 6674,
      "Ġprofit": 6675,
      "Ġwindows": 6676,
      "resses": 6677,
      "ĠSomething": 6678,
      "Ġpressured": 6679,
      "Ġgrab": 6680,
      "Ġphysics": 6681,
      "Ġattacked": 6682,
      "Ġnurse": 6683,
      "Ġnursing": 6684,
      "Ġdarling": 6685,
      "ĠMadam": 6686,
      "ĠCalifornia": 6687,
      "ĠOffice": 6688,
      "Ġinadequate": 6689,
      "Honey": 6690,
      "Mary": 6691,
      "Su": 6692,
      "lished": 6693,
      "Ġast": 6694,
      "Ġfence": 6695,
      "Ġlun": 6696,
      "Ġpiss": 6697,
      "Ġpushing": 6698,
      "Ġyog": 6699,
      "Ġgri": 6700,
      "Ġforced": 6701,
      "ĠAT": 6702,
      "Ġplot": 6703,
      "ĠSounds": 6704,
      "acked": 6705,
      "Ġcommission": 6706,
      "ership": 6707,
      "Ġscam": 6708,
      "Ġmakeup": 6709,
      "Ġcircum": 6710,
      "ĠPaul": 6711,
      "Ġputs": 6712,
      "Ġcared": 6713,
      "udes": 6714,
      "Ġ23": 6715,
      "Ġstrict": 6716,
      "ogether": 6717,
      "ðŁĳ": 6718,
      "Ġbreast": 6719,
      "ĠUK": 6720,
      "Ġassign": 6721,
      "ikes": 6722,
      "Ġrefused": 6723,
      "Ġrequired": 6724,
      "Ġprovided": 6725,
      "Ġzoo": 6726,
      "Ġconcern": 6727,
      "Ġsmelled": 6728,
      "Ġmagic": 6729,
      "Ġspecif": 6730,
      "Ġsecretary": 6731,
      "Ġbroad": 6732,
      "ĠRemember": 6733,
      "Ġpolitics": 6734,
      "Ġinjury": 6735,
      "Ġclosing": 6736,
      "Ġtask": 6737,
      "Ġreligion": 6738,
      "Ġmortgage": 6739,
      "Ġfortun": 6740,
      "Ġtools": 6741,
      "Ġtypical": 6742,
      "Ġdistraught": 6743,
      "Ġcompliment": 6744,
      "Ġtroubled": 6745,
      "Ġgrandparents": 6746,
      "Ġrefrigerator": 6747,
      "Ġunimportant": 6748,
      "Many": 6749,
      "Seriously": 6750,
      "gl": 6751,
      "gain": 6752,
      "oli": 6753,
      "school": 6754,
      "âĻ": 6755,
      "Ġflex": 6756,
      "Ġtoxic": 6757,
      "Ġlord": 6758,
      "Ġcit": 6759,
      "Ġpit": 6760,
      "Ġtheater": 6761,
      "Ġgained": 6762,
      "Ġbeside": 6763,
      "amb": 6764,
      "Ġknee": 6765,
      "Ġneedy": 6766,
      "ĠAnn": 6767,
      "arten": 6768,
      "Ġvase": 6769,
      "urning": 6770,
      "urous": 6771,
      "ores": 6772,
      "ĠBig": 6773,
      "Ġshared": 6774,
      "ĠGe": 6775,
      "Ġlease": 6776,
      "ĠHE": 6777,
      "Ġscheduled": 6778,
      "Ġcarefully": 6779,
      "boy": 6780,
      "Ġleather": 6781,
      "Ġstrate": 6782,
      "comed": 6783,
      "Ġcommitted": 6784,
      "Ġinsist": 6785,
      "Ġcurrency": 6786,
      "Ġrefuse": 6787,
      "Ġrestaurants": 6788,
      "Ġhiking": 6789,
      "Ġlocated": 6790,
      "lets": 6791,
      "Ġwelcomed": 6792,
      "ublic": 6793,
      "hhhh": 6794,
      "Ġjumping": 6795,
      "weight": 6796,
      "mony": 6797,
      "Ġdemand": 6798,
      "Ġtips": 6799,
      "HHHH": 6800,
      "Ġmortified": 6801,
      "Ġwrap": 6802,
      "Ġarrested": 6803,
      "Ġtransportation": 6804,
      "Ġdelighted": 6805,
      "Ġingredi": 6806,
      "Interesting": 6807,
      "Ġdeprived": 6808,
      "dom": 6809,
      "look": 6810,
      "mi": 6811,
      "zer": 6812,
      "Ġtack": 6813,
      "Ġtatt": 6814,
      "Ġaim": 6815,
      "Ġpeed": 6816,
      "Ġpushed": 6817,
      "Ġgay": 6818,
      "Ġrarely": 6819,
      "Ġeth": 6820,
      "Ġoutra": 6821,
      "Ġprize": 6822,
      "igor": 6823,
      "ĠSa": 6824,
      "umber": 6825,
      "Ġhey": 6826,
      "Ġameric": 6827,
      "imately": 6828,
      "Ġshoulder": 6829,
      "ĠTry": 6830,
      "Ġenth": 6831,
      "Ġtyping": 6832,
      "Ġmeetings": 6833,
      "partment": 6834,
      "Ġneighbour": 6835,
      "ionship": 6836,
      "izes": 6837,
      "Ġtragic": 6838,
      "Ġslam": 6839,
      "Ġprevent": 6840,
      "angers": 6841,
      "Ġpassen": 6842,
      "Ġinstantly": 6843,
      "Ġhorribly": 6844,
      "Ġdelicate": 6845,
      "Ġsevere": 6846,
      "Ġstronger": 6847,
      "Ġbelt": 6848,
      "ounter": 6849,
      "Ġrecommendation": 6850,
      "Ġhundreds": 6851,
      "Ġpicnic": 6852,
      "Ġordinary": 6853,
      "Ġunfair": 6854,
      "Ġmountains": 6855,
      "Ġmassive": 6856,
      "Ġbattle": 6857,
      "alloween": 6858,
      "Ġrescue": 6859,
      "ĠParis": 6860,
      "Ġremembering": 6861,
      "Ġperspective": 6862,
      "65": 6863,
      "Too": 6864,
      "uum": 6865,
      "Ġwound": 6866,
      "Ġwire": 6867,
      "Ġwise": 6868,
      "Ġtoe": 6869,
      "aylor": 6870,
      "lest": 6871,
      "Ġremor": 6872,
      "Ġang": 6873,
      "etown": 6874,
      "Ġshout": 6875,
      "Ġsole": 6876,
      "eady": 6877,
      "lia": 6878,
      "Ġassh": 6879,
      "hington": 6880,
      "ĠSec": 6881,
      "Ġvan": 6882,
      "Ġvill": 6883,
      "ousing": 6884,
      "Ġspa": 6885,
      "Ġscored": 6886,
      "ĠCon": 6887,
      "Ġtries": 6888,
      "Ġcarefree": 6889,
      "ĠLong": 6890,
      "labor": 6891,
      "Ġspoken": 6892,
      "Ġcompare": 6893,
      "Ġ22": 6894,
      "Ġaccounting": 6895,
      "Ġspell": 6896,
      "Ġsadness": 6897,
      "Ġlistened": 6898,
      "ups": 6899,
      "ĠKong": 6900,
      "Ġremove": 6901,
      "Ġexplaining": 6902,
      "Ġsurround": 6903,
      "Ġruin": 6904,
      "Ġhometown": 6905,
      "ttes": 6906,
      "Still": 6907,
      "ĠUSA": 6908,
      "???": 6909,
      "Ġorganization": 6910,
      "Ġspeeding": 6911,
      "Ġfinancially": 6912,
      "Ġreligious": 6913,
      "Awesome": 6914,
      "ĠMcDonald": 6915,
      "Ġadventurous": 6916,
      "Ġfrequently": 6917,
      "Ġtomato": 6918,
      "Ġutterly": 6919,
      "believable": 6920,
      "Ġsidewalk": 6921,
      "Ġingredients": 6922,
      "Ġtattoo": 6923,
      "Ġremorse": 6924,
      "80": 6925,
      "LY": 6926,
      "UR": 6927,
      "cles": 6928,
      "ded": 6929,
      "met": 6930,
      "put": 6931,
      "Ġain": 6932,
      "erk": 6933,
      "Ġmer": 6934,
      "Ġbast": 6935,
      "Ġoven": 6936,
      "Ġocean": 6937,
      "isa": 6938,
      "Ġporn": 6939,
      "Ġjew": 6940,
      "lla": 6941,
      "Ġreception": 6942,
      "Ġelabor": 6943,
      "Ġmoon": 6944,
      "Ġdozen": 6945,
      "Ġchips": 6946,
      "Ġdemon": 6947,
      "Ġbrush": 6948,
      "ĠSuch": 6949,
      "Ġvital": 6950,
      "ĠTex": 6951,
      "Ġroses": 6952,
      "Ġtrig": 6953,
      "Ġwaitress": 6954,
      "Ġlaying": 6955,
      "Ġtwelve": 6956,
      "Ġperf": 6957,
      "ĠDoctor": 6958,
      "Ġrestless": 6959,
      "ontent": 6960,
      "Ġdefend": 6961,
      "Ġphones": 6962,
      "Ġsalt": 6963,
      "Ġhumor": 6964,
      "Ġgeneration": 6965,
      "workers": 6966,
      "Ġsatisf": 6967,
      "Ġmatches": 6968,
      "aaaa": 6969,
      "Ġ2019": 6970,
      "Ġowners": 6971,
      "Ġslip": 6972,
      "ĠDecember": 6973,
      "Ġcommunicate": 6974,
      "Ġpumped": 6975,
      "Ġrecognize": 6976,
      "Ġadopted": 6977,
      "ĠMexico": 6978,
      "Ġseasons": 6979,
      "nology": 6980,
      "known": 6981,
      "Ġsaturday": 6982,
      "PA": 6983,
      "RI": 6984,
      "SE": 6985,
      "nting": 6986,
      "post": 6987,
      "Ġaisle": 6988,
      "inated": 6989,
      "Ġwore": 6990,
      "Ġbid": 6991,
      "Ġhill": 6992,
      "Ġobs": 6993,
      "Ġpics": 6994,
      "Ġyo": 6995,
      "Ġrely": 6996,
      "Ġreleased": 6997,
      "utch": 6998,
      "Ġank": 6999,
      "Ġstere": 7000,
      "Ġstood": 7001,
      "ĠAM": 7002,
      "lie": 7003,
      "Ġarent": 7004,
      "Ġpoison": 7005,
      "ĠToo": 7006,
      "Ġscale": 7007,
      "Ġplanet": 7008,
      "ĠPeter": 7009,
      "easy": 7010,
      "stern": 7011,
      "ĠLife": 7012,
      "Ġextreme": 7013,
      "Ġdesigned": 7014,
      "ĠEl": 7015,
      "erring": 7016,
      "ĠRoom": 7017,
      "Ġstroke": 7018,
      "Ġwins": 7019,
      "ergarten": 7020,
      "Ġconfir": 7021,
      "arks": 7022,
      "Ġincludes": 7023,
      "Ġ45": 7024,
      "Ġvacc": 7025,
      "Ġvacuum": 7026,
      "Ġtrains": 7027,
      "encing": 7028,
      "Ġfreaked": 7029,
      "Ġsimpl": 7030,
      "Ġcertificate": 7031,
      "Ġinformed": 7032,
      "friendly": 7033,
      "Ġhumans": 7034,
      "Ġcuz": 7035,
      "Ġburst": 7036,
      "Ġcapable": 7037,
      "Ġlevels": 7038,
      "Ġresponsibilities": 7039,
      "moking": 7040,
      "Ġsmells": 7041,
      "Another": 7042,
      "Ġadvertising": 7043,
      "Ġspiders": 7044,
      "Ġalbums": 7045,
      "Ġprinter": 7046,
      "Ġprinci": 7047,
      "Ġfestival": 7048,
      "Ġaudience": 7049,
      "Ġdeclare": 7050,
      "Ġheights": 7051,
      "Ġseparate": 7052,
      "Ġcandidate": 7053,
      "Ġrebell": 7054,
      "ĠCongratulations": 7055,
      "Ġcigarettes": 7056,
      "onsider": 7057,
      "Ġinspection": 7058,
      "Ġathlet": 7059,
      "Ġelaborate": 7060,
      "200": 7061,
      "bble": 7062,
      "ds": 7063,
      "Ġtone": 7064,
      "Ġweap": 7065,
      "Ġbachel": 7066,
      "atically": 7067,
      "Ġnar": 7068,
      "Ġnons": 7069,
      "Ġforms": 7070,
      "Ġbeating": 7071,
      "Ġshelf": 7072,
      "amas": 7073,
      "ĠARE": 7074,
      "Ġdod": 7075,
      "life": 7076,
      "ĠDamn": 7077,
      "Ġplants": 7078,
      "sual": 7079,
      "Ġunique": 7080,
      "Ġadjust": 7081,
      "ĠBE": 7082,
      "ĠBra": 7083,
      "ĠTonight": 7084,
      "Ġscra": 7085,
      "isten": 7086,
      "Ġmanu": 7087,
      "pro": 7088,
      "Ġcircle": 7089,
      "place": 7090,
      "berry": 7091,
      "Ġcollection": 7092,
      "Ġhandling": 7093,
      "Ġstars": 7094,
      "Ġ26": 7095,
      "Ġcutting": 7096,
      "Ġblo": 7097,
      "Ġblown": 7098,
      "Ġcoast": 7099,
      "Ġspelling": 7100,
      "azz": 7101,
      "ashed": 7102,
      "Ġinterests": 7103,
      "umph": 7104,
      "Ġcharity": 7105,
      "Ġadditional": 7106,
      "attered": 7107,
      "Ġsnack": 7108,
      "ĠðŁĻ": 7109,
      "Before": 7110,
      "Ġobsess": 7111,
      "Ġcorrectly": 7112,
      "Ġimproved": 7113,
      "Ġreminder": 7114,
      "Ġcalcul": 7115,
      "Ġsuitable": 7116,
      "Ġleading": 7117,
      "Ġedit": 7118,
      "Ġshirts": 7119,
      "Ġinvestment": 7120,
      "Ġofficial": 7121,
      "someone": 7122,
      "Ġproposed": 7123,
      "Ġroute": 7124,
      "Ġmagazines": 7125,
      "Ġvomited": 7126,
      "Ġbullshit": 7127,
      "Ġvolunteer": 7128,
      "ĠPresident": 7129,
      "Ġignorant": 7130,
      "Ġindependent": 7131,
      "Ġinstructions": 7132,
      "Ġunderwear": 7133,
      "Ġequipment": 7134,
      "Ġelevator": 7135,
      "Ġcircumst": 7136,
      "FL": 7137,
      "Holy": 7138,
      "SS": 7139,
      "Ste": 7140,
      "maybe": 7141,
      "Ġbla": 7142,
      "rep": 7143,
      "orough": 7144,
      "Ġpant": 7145,
      "Ġpills": 7146,
      "eam": 7147,
      "Ġformer": 7148,
      "ken": 7149,
      "Ġabilities": 7150,
      "Ġstream": 7151,
      "inda": 7152,
      "Ġfro": 7153,
      "eeds": 7154,
      "Ġchew": 7155,
      "Ġheads": 7156,
      "nox": 7157,
      "Ġcoup": 7158,
      "Ġungr": 7159,
      "Ġunpleas": 7160,
      "Ġhardest": 7161,
      "ĠWE": 7162,
      "Ġchef": 7163,
      "ptical": 7164,
      "Ġlogic": 7165,
      "Ġbelieved": 7166,
      "Ġhits": 7167,
      "Ġlistless": 7168,
      "Ġfailing": 7169,
      "ĠOF": 7170,
      "ĠOkay": 7171,
      "Ġtraum": 7172,
      "Ġdesig": 7173,
      "Ġstarving": 7174,
      "Ġuses": 7175,
      "castic": 7176,
      "Ġattic": 7177,
      "Ġconfront": 7178,
      "Ġdifferently": 7179,
      "Ġexception": 7180,
      "osity": 7181,
      "Ġcraving": 7182,
      "Ġrelate": 7183,
      "Ġbothers": 7184,
      "Ġconcent": 7185,
      "ugust": 7186,
      "Ġefforts": 7187,
      "Ġsurvey": 7188,
      "bbies": 7189,
      "Ġbillion": 7190,
      "Excellent": 7191,
      "Ġviol": 7192,
      "obal": 7193,
      "Ġcatching": 7194,
      "Ġirritating": 7195,
      "minal": 7196,
      "oooooooo": 7197,
      "Ġmilitary": 7198,
      "Ġclimbing": 7199,
      "Ġreduce": 7200,
      "Ġcockro": 7201,
      "Ġfarted": 7202,
      "Ġefficient": 7203,
      "Ġwitness": 7204,
      "Ġsharp": 7205,
      "Ġrebellious": 7206,
      "Ġungrateful": 7207,
      "CH": 7208,
      "LE": 7209,
      "bl": 7210,
      "every": 7211,
      "fish": 7212,
      "mos": 7213,
      "ucking": 7214,
      "zzy": 7215,
      "Ġtape": 7216,
      "Ġbomb": 7217,
      "orters": 7218,
      "Ġlect": 7219,
      "Ġlbs": 7220,
      "ana": 7221,
      "omas": 7222,
      "Ġgall": 7223,
      "Ġrear": 7224,
      "Ġrelevant": 7225,
      "Three": 7226,
      "ctions": 7227,
      "term": 7228,
      "char": 7229,
      "eeding": 7230,
      "ĠALL": 7231,
      "Ġexec": 7232,
      "ĠWest": 7233,
      "que": 7234,
      "ĠHouse": 7235,
      "ĠHalloween": 7236,
      "ecess": 7237,
      "Ġjog": 7238,
      "Ġhoped": 7239,
      "Ġhanded": 7240,
      "Ġprem": 7241,
      "Ġhabits": 7242,
      "Ġdriveway": 7243,
      "Ġusers": 7244,
      "Ġsadly": 7245,
      "Ġsurprising": 7246,
      "ĠWhile": 7247,
      "Ġsnacks": 7248,
      "Being": 7249,
      "Ġparcel": 7250,
      "Ġmetal": 7251,
      "Ġpursu": 7252,
      "iterally": 7253,
      "Ġpaperwork": 7254,
      "Ġdressing": 7255,
      "Ġconsiderate": 7256,
      "Ġtouched": 7257,
      "Ġcentre": 7258,
      "Ġsuffer": 7259,
      "ĠProbably": 7260,
      "ĠHaha": 7261,
      "ĠWashington": 7262,
      "Ġlifest": 7263,
      "Ġdeny": 7264,
      "Ġstrike": 7265,
      "Ġsarcastic": 7266,
      "Ġpotatoes": 7267,
      "ĠTurns": 7268,
      "ĠHawai": 7269,
      "Ġrabbit": 7270,
      "ĠTexas": 7271,
      "Ġunpleasant": 7272,
      "40": 7273,
      "AL": 7274,
      "KE": 7275,
      "field": 7276,
      "hy": 7277,
      "spect": 7278,
      "vard": 7279,
      "Ġ+": 7280,
      "įâĻ": 7281,
      "Ġbicy": 7282,
      "Ġfle": 7283,
      "Ġfiles": 7284,
      "Ġhiding": 7285,
      "Ġded": 7286,
      "Ġjaded": 7287,
      "ener": 7288,
      "Ġancient": 7289,
      "adem": 7290,
      "anta": 7291,
      "Ġpra": 7292,
      "Ġovercome": 7293,
      "Ġwest": 7294,
      "Ġknife": 7295,
      "Ġheading": 7296,
      "cend": 7297,
      "Ġmonday": 7298,
      "ulate": 7299,
      "Ġaside": 7300,
      "aint": 7301,
      "Ġfinals": 7302,
      "Ġvag": 7303,
      "Ġbacked": 7304,
      "Ġspin": 7305,
      "usi": 7306,
      "Ġdiscontent": 7307,
      "Ġtrim": 7308,
      "ĠPL": 7309,
      "ĠPerson": 7310,
      "Ġcompar": 7311,
      "Ġflower": 7312,
      "Ġthrown": 7313,
      "Ġstruct": 7314,
      "Ġbothering": 7315,
      "ĠStop": 7316,
      "Ġsympt": 7317,
      "Ġsexy": 7318,
      "Ġviews": 7319,
      "Ġdegrees": 7320,
      "Ġmillions": 7321,
      "Ġ2018": 7322,
      "Ġcameras": 7323,
      "ĠZh": 7324,
      "Ġsuspect": 7325,
      "Ġdepressing": 7326,
      "Ġimmig": 7327,
      "Ġexpert": 7328,
      "Ġskeptical": 7329,
      "Ġtoddler": 7330,
      "Ġreunion": 7331,
      "Indeed": 7332,
      "Ġmanufact": 7333,
      "!âĢĿ": 7334,
      "AD": 7335,
      "Funny": 7336,
      "Hold": 7337,
      "Ph": 7338,
      "WH": 7339,
      "af": 7340,
      "bes": 7341,
      "cer": 7342,
      "ris": 7343,
      "Ġace": 7344,
      "inter": 7345,
      "Ġthorough": 7346,
      "Ġmow": 7347,
      "Ġmainly": 7348,
      "Ġbars": 7349,
      "resh": 7350,
      "Ġfet": 7351,
      "Ġditch": 7352,
      "orning": 7353,
      "Ġlend": 7354,
      "Ġlap": 7355,
      "eday": 7356,
      "Ġwhis": 7357,
      "Ġgut": 7358,
      "Ġreve": 7359,
      "Ġriver": 7360,
      "Ġeleg": 7361,
      "Ġmemes": 7362,
      "sequ": 7363,
      "Ġstands": 7364,
      "ĠThings": 7365,
      "ĠAf": 7366,
      "ĠAp": 7367,
      "Ġmonster": 7368,
      "ppers": 7369,
      "Ġwhats": 7370,
      "Ġbrow": 7371,
      "Ġvoting": 7372,
      "ĠHigh": 7373,
      "Ġsounded": 7374,
      "agram": 7375,
      "Ġshorts": 7376,
      "Ġinvigor": 7377,
      "Ġtriumph": 7378,
      "Ġbuses": 7379,
      "ĠEm": 7380,
      "Ġemotionally": 7381,
      "acle": 7382,
      "!!!!!": 7383,
      "Ġsupply": 7384,
      "Ġstray": 7385,
      "ĠChar": 7386,
      "Ġsons": 7387,
      "usement": 7388,
      "Ġinterviewed": 7389,
      "Ġreturning": 7390,
      "Ġstudies": 7391,
      "bbing": 7392,
      "Ġcuri": 7393,
      "Ġanswering": 7394,
      "Ġgrowth": 7395,
      "Ġenglish": 7396,
      "Doesn": 7397,
      "LLY": 7398,
      "ĠCheers": 7399,
      "ðŁĺĤðŁĺĤ": 7400,
      "Ġchemistry": 7401,
      "Ġnicer": 7402,
      "Ġabandoned": 7403,
      "Ġelderly": 7404,
      "Ġcinema": 7405,
      "Ġcitiz": 7406,
      "Ġelegant": 7407,
      "Both": 7408,
      "GE": 7409,
      "IR": 7410,
      "NT": 7411,
      "School": 7412,
      "apt": 7413,
      "bear": 7414,
      "got": 7415,
      "ham": 7416,
      "pting": 7417,
      "rid": 7418,
      "tte": 7419,
      "ĠÂ": 7420,
      "Ġly": 7421,
      "Ġmild": 7422,
      "Ġble": 7423,
      "Ġbaked": 7424,
      "really": 7425,
      "Ġdates": 7426,
      "Ġcord": 7427,
      "Ġpale": 7428,
      "anket": 7429,
      "Ġstink": 7430,
      "Ġwestern": 7431,
      "iration": 7432,
      "ĠAir": 7433,
      "ĠApp": 7434,
      "lieve": 7435,
      "Ġbrief": 7436,
      "uls": 7437,
      "ĠFl": 7438,
      "Ġproced": 7439,
      "Ġneat": 7440,
      "Ġplain": 7441,
      "ective": 7442,
      "ĠSH": 7443,
      "urrent": 7444,
      "neral": 7445,
      "ĠBo": 7446,
      "ĠBen": 7447,
      "Ġdisres": 7448,
      "Ġspots": 7449,
      "Ġdownstairs": 7450,
      "Ġsomeday": 7451,
      "agers": 7452,
      "Ġrates": 7453,
      "Ġadminist": 7454,
      "Ġsilver": 7455,
      "athers": 7456,
      "ĠPr": 7457,
      "Ġhobbies": 7458,
      "Ġfaces": 7459,
      "Ġreplaced": 7460,
      "shirt": 7461,
      "Ġleftovers": 7462,
      "Ġhugs": 7463,
      "Ġcorn": 7464,
      "Ġbabysit": 7465,
      "ĠIsn": 7466,
      "ugs": 7467,
      "Something": 7468,
      "Ġsurf": 7469,
      "Ġobnox": 7470,
      "ĠAlthough": 7471,
      "ĠShall": 7472,
      "ifications": 7473,
      "Ġzone": 7474,
      "Ġconsideration": 7475,
      "Ġmajority": 7476,
      "Ġgrace": 7477,
      "Ġsuitcase": 7478,
      "Ġcompetitive": 7479,
      "Ġrolls": 7480,
      "Ġspray": 7481,
      "Ġequal": 7482,
      "Ġepisodes": 7483,
      "Ġdigital": 7484,
      "Ġstatus": 7485,
      "ĠâĿ¤ï¸ı": 7486,
      "Ġporch": 7487,
      "Ġalternative": 7488,
      "Ġgoogle": 7489,
      "Ġsuspicious": 7490,
      "Ġcommercial": 7491,
      "seeing": 7492,
      "ĠNetflix": 7493,
      "Ġtuition": 7494,
      "Ġproposal": 7495,
      "Ġaggressive": 7496,
      "Ġspecifically": 7497,
      "Ġinvigorated": 7498,
      "Acc": 7499,
      "cons": 7500,
      "ih": 7501,
      "keep": 7502,
      "ring": 7503,
      "uries": 7504,
      "usual": 7505,
      "zh": 7506,
      "inating": 7507,
      "erri": 7508,
      "standing": 7509,
      "Ġbang": 7510,
      "Ġfitting": 7511,
      "Ġpile": 7512,
      "Ġpages": 7513,
      "thy": 7514,
      "Ġhamb": 7515,
      "Ġeval": 7516,
      "ĠNY": 7517,
      "Ġstorms": 7518,
      "Ġupstairs": 7519,
      "Ġweed": 7520,
      "Ġwealth": 7521,
      "cknow": 7522,
      "aren": 7523,
      "ĠDO": 7524,
      "ĠFuck": 7525,
      "illa": 7526,
      "urt": 7527,
      "Ġamusement": 7528,
      "Ġdisplay": 7529,
      "Ġaggra": 7530,
      "ĠGO": 7531,
      "Ġchosen": 7532,
      "Ġgram": 7533,
      "pring": 7534,
      "ĠCD": 7535,
      "Ġawe": 7536,
      "Ġclo": 7537,
      "ĠLea": 7538,
      "ĠLately": 7539,
      "Ġextension": 7540,
      "aiting": 7541,
      "ĠOb": 7542,
      "Ġ1000": 7543,
      "aco": 7544,
      "Ġhousehold": 7545,
      "assment": 7546,
      "shot": 7547,
      "Ġglam": 7548,
      "Ġshocking": 7549,
      "Ġrestr": 7550,
      "Ġheav": 7551,
      "Ġaddiction": 7552,
      "Ġsets": 7553,
      "Ġconcl": 7554,
      "ĠStay": 7555,
      "Ġdelayed": 7556,
      "Ġpracticed": 7557,
      "Ġdirections": 7558,
      "Ġtourist": 7559,
      "Ġcauses": 7560,
      "ĠMonica": 7561,
      "Ġhonoured": 7562,
      "?!?!": 7563,
      "Ġexamples": 7564,
      "Ġcrossing": 7565,
      "Ġequally": 7566,
      "Ġdescription": 7567,
      "Ġcommunication": 7568,
      "Ġeconomic": 7569,
      "ronic": 7570,
      "ĠPlus": 7571,
      "Ġtechnical": 7572,
      "uuuu": 7573,
      "Ġchampionship": 7574,
      "â£¿": 7575,
      "Hopefully": 7576,
      "Agreed": 7577,
      "Ġvirtuous": 7578,
      "Ġprivileged": 7579,
      "Ġjunior": 7580,
      "Ġunnecess": 7581,
      "Ġenthusi": 7582,
      "Ġsimpler": 7583,
      "Ġobnoxious": 7584,
      "Ġaggrav": 7585,
      "'?": 7586,
      "23": 7587,
      "Finally": 7588,
      "Huh": 7589,
      "LOL": 7590,
      "dies": 7591,
      "ey": 7592,
      "fting": 7593,
      "Ġtut": 7594,
      "Ġward": 7595,
      "Ġmouse": 7596,
      "Ġmasc": 7597,
      "itution": 7598,
      "Ġfoul": 7599,
      "Ġdust": 7600,
      "orage": 7601,
      "Ġleng": 7602,
      "alog": 7603,
      "ota": 7604,
      "vember": 7605,
      "oman": 7606,
      "Ġgum": 7607,
      "Ġumb": 7608,
      "Ġrage": 7609,
      "icies": 7610,
      "Ġliqu": 7611,
      "Ġshaking": 7612,
      "Ġshadow": 7613,
      "ĠNintendo": 7614,
      "Ġchrist": 7615,
      "Ġworn": 7616,
      "ĠFUCK": 7617,
      "Ġuneasy": 7618,
      "ĠSchool": 7619,
      "Ġmoron": 7620,
      "Ġamb": 7621,
      "Ġnoon": 7622,
      "uns": 7623,
      "Ġclick": 7624,
      "venue": 7625,
      "Ġholy": 7626,
      "apping": 7627,
      "Ġtwitter": 7628,
      "aces": 7629,
      "Ġerror": 7630,
      "Ġinteract": 7631,
      "Ġperman": 7632,
      "shine": 7633,
      "shop": 7634,
      "Ġglobal": 7635,
      "Ġconfl": 7636,
      "Ġwondered": 7637,
      "Ġsubmissive": 7638,
      "Ġpassion": 7639,
      "ĠVegas": 7640,
      "Ġgenius": 7641,
      "Ġroads": 7642,
      "Ġpractical": 7643,
      "Ġtreats": 7644,
      "Ġdetailed": 7645,
      "Ġplaced": 7646,
      "Ġauto": 7647,
      "Ġidiots": 7648,
      "Ġpolitic": 7649,
      "Ġmedication": 7650,
      "Ġseafood": 7651,
      "Ġnetwork": 7652,
      "Ġfunds": 7653,
      "Ġoperation": 7654,
      "ophy": 7655,
      "Ġfallen": 7656,
      "Ġspoil": 7657,
      "Ġlimited": 7658,
      "Ġchallenging": 7659,
      "Ġpossess": 7660,
      "Ġreassured": 7661,
      "Idk": 7662,
      "Ġtriumphant": 7663,
      "Best": 7664,
      "IP": 7665,
      "MO": 7666,
      "Out": 7667,
      "Sw": 7668,
      "eving": 7669,
      "gu": 7670,
      "mitted": 7671,
      "wood": 7672,
      "Ġwis": 7673,
      "Ġwaking": 7674,
      "Ġwishing": 7675,
      "Ġmask": 7676,
      "atory": 7677,
      "Ġhip": 7678,
      "Ġhike": 7679,
      "Ġdedu": 7680,
      "Ġpow": 7681,
      "Ġpatter": 7682,
      "Ġjack": 7683,
      "ĠNE": 7684,
      "child": 7685,
      "Ġsocks": 7686,
      "Ġwhose": 7687,
      "ĠAugust": 7688,
      "ĠMount": 7689,
      "idnight": 7690,
      "Ġdebit": 7691,
      "ources": 7692,
      "Ġbrut": 7693,
      "Ġaspect": 7694,
      "Ġunivers": 7695,
      "ĠSad": 7696,
      "ĠSim": 7697,
      "urb": 7698,
      "urry": 7699,
      "Ġheck": 7700,
      "Ġamused": 7701,
      "Ġdisney": 7702,
      "ĠWind": 7703,
      "Ġspit": 7704,
      "Ġacts": 7705,
      "ĠTaylor": 7706,
      "Ġrode": 7707,
      "Ġsacri": 7708,
      "Ġgrind": 7709,
      "agging": 7710,
      "agne": 7711,
      "Ġadmire": 7712,
      "ĠAmaz": 7713,
      "Ġinviting": 7714,
      "ĠTheir": 7715,
      "Ġimo": 7716,
      "Ġdivorced": 7717,
      "oston": 7718,
      "soci": 7719,
      "Ġtweet": 7720,
      "Ġpolicies": 7721,
      "Ġblanket": 7722,
      "Ġfinds": 7723,
      "Ġcontro": 7724,
      "ĠChrist": 7725,
      "Ġfuneral": 7726,
      "Ġstuffed": 7727,
      "Ġsubst": 7728,
      "Ġspeaks": 7729,
      "Ġinsight": 7730,
      "ĠðŁĴ": 7731,
      "Ġreceiving": 7732,
      "Ġembar": 7733,
      "Ġpopulation": 7734,
      "Ġproviding": 7735,
      "Ġreturns": 7736,
      "Ġburning": 7737,
      "Ġprofessor": 7738,
      "Ġtasted": 7739,
      "Seeing": 7740,
      "Ġpowerful": 7741,
      "Ġshops": 7742,
      "Ġhung": 7743,
      "Ġhunting": 7744,
      "Ġeffective": 7745,
      "Ġtechnology": 7746,
      "vention": 7747,
      "Ġconvince": 7748,
      "Ġgolden": 7749,
      "Ġdrawing": 7750,
      "Ġregarding": 7751,
      "Ġregardless": 7752,
      "Ġboost": 7753,
      "Ġdragon": 7754,
      "Ġelement": 7755,
      "Ġpredict": 7756,
      "Ġinitial": 7757,
      "ĠJuly": 7758,
      "ĠHarvard": 7759,
      "Ġleaning": 7760,
      "Ġperfume": 7761,
      "Ġcircumstances": 7762,
      "Ġlifestyle": 7763,
      "Back": 7764,
      "FC": 7765,
      "]:": 7766,
      "did": 7767,
      "iently": 7768,
      "nels": 7769,
      "ollow": 7770,
      "Ġtons": 7771,
      "Ġhousing": 7772,
      "Ġdining": 7773,
      "Ġna": 7774,
      "Ġnu": 7775,
      "Ġner": 7776,
      "Ġtheory": 7777,
      "Ġyoutube": 7778,
      "Ġwheel": 7779,
      "Ġgender": 7780,
      "aration": 7781,
      "Ġliking": 7782,
      "ĠNO": 7783,
      "ĠNational": 7784,
      "Ġstorage": 7785,
      "Ġovernight": 7786,
      "Ġfrag": 7787,
      "ĠMaster": 7788,
      "ĠFinally": 7789,
      "Ġfinishing": 7790,
      "Ġunlike": 7791,
      "Ġunbelievable": 7792,
      "Ġunusual": 7793,
      "Ġeverytime": 7794,
      "Ġthoughtful": 7795,
      "ĠBus": 7796,
      "Ġagency": 7797,
      "Ġdiving": 7798,
      "Ġquant": 7799,
      "ĠLee": 7800,
      "hab": 7801,
      "Ġmission": 7802,
      "ĠRich": 7803,
      "Ġmarks": 7804,
      "Ġstrangers": 7805,
      "Ġattending": 7806,
      "Ġaddicted": 7807,
      "Ġreports": 7808,
      "Ġremote": 7809,
      "eautiful": 7810,
      "Ġtrained": 7811,
      "Ġrape": 7812,
      "Ġdropping": 7813,
      "ĠFrom": 7814,
      "Ġgraduating": 7815,
      "Ġhahaha": 7816,
      "Ġcopies": 7817,
      "Ġleader": 7818,
      "Ġcafe": 7819,
      "Ġtrend": 7820,
      "ĠSeems": 7821,
      "Ġcontented": 7822,
      "Ġboarding": 7823,
      "Ġorganized": 7824,
      "Ġdeveloped": 7825,
      "ĠLooks": 7826,
      "Ġbalcon": 7827,
      "Ġviolence": 7828,
      "Ġpepper": 7829,
      "9999": 7830,
      "Ġdesperate": 7831,
      "Ġbutterf": 7832,
      "Ġplatform": 7833,
      "Ġsignificant": 7834,
      "Ġloser": 7835,
      "ĠMichael": 7836,
      "Ġplayoffs": 7837,
      "ĠHawaii": 7838,
      "Ġreveal": 7839,
      "ĠAfric": 7840,
      "Ġunnecessary": 7841,
      "19": 7842,
      "Has": 7843,
      "II": 7844,
      "Say": 7845,
      "Such": 7846,
      "Until": 7847,
      "Wonder": 7848,
      "bur": 7849,
      "born": 7850,
      "cling": 7851,
      "ray": 7852,
      "rot": 7853,
      "zes": 7854,
      "Ġought": 7855,
      "Ġacknow": 7856,
      "ervice": 7857,
      "Ġborder": 7858,
      "Ġdy": 7859,
      "Ġdorm": 7860,
      "Ġnood": 7861,
      "Ġnaked": 7862,
      "Ġlent": 7863,
      "Ġlitter": 7864,
      "Ġpanc": 7865,
      "lege": 7866,
      "Ġunt": 7867,
      "Ġrip": 7868,
      "Ġraw": 7869,
      "Ġkarma": 7870,
      "sect": 7871,
      "ario": 7872,
      "Ġshining": 7873,
      "Ġoutcome": 7874,
      "Ġframe": 7875,
      "Ġfrantic": 7876,
      "Ġdoors": 7877,
      "anda": 7878,
      "Ġsilent": 7879,
      "ĠFin": 7880,
      "olic": 7881,
      "Ġvia": 7882,
      "ums": 7883,
      "ĠWall": 7884,
      "Ġowned": 7885,
      "Ġrealise": 7886,
      "Ġdisco": 7887,
      "Ġsupris": 7888,
      "Ġboots": 7889,
      "rop": 7890,
      "Ġdaddy": 7891,
      "Ġwaiter": 7892,
      "Ġcompens": 7893,
      "ĠJames": 7894,
      "Whenever": 7895,
      "Ġinterp": 7896,
      "azed": 7897,
      "Ġcousins": 7898,
      "Ġhateful": 7899,
      "Ġcraft": 7900,
      "ancis": 7901,
      "Ġupsetting": 7902,
      "Except": 7903,
      "Ġpresence": 7904,
      "Ġmuscles": 7905,
      "Ġbarking": 7906,
      "Ġappe": 7907,
      "Ġpoorly": 7908,
      "Ġexercising": 7909,
      "Ġtempor": 7910,
      "Ġtreas": 7911,
      "Ġrecords": 7912,
      "Ġease": 7913,
      "Ġthousands": 7914,
      "Ġcruel": 7915,
      "Ġregistration": 7916,
      "ĠCheck": 7917,
      "Ġgaming": 7918,
      "Ġengineering": 7919,
      "Ġmotivated": 7920,
      "Ġcandidates": 7921,
      "Ġoccasionally": 7922,
      "Ġvirgin": 7923,
      "Ġbuffet": 7924,
      "Ġaltogether": 7925,
      "Ġunloved": 7926,
      "ðŁ¤£": 7927,
      "ĠTwitter": 7928,
      "Ġassaulted": 7929,
      "Ġyoga": 7930,
      "Ġtrigger": 7931,
      "Ġbicycle": 7932,
      "Ġsymptoms": 7933,
      "Ġheavily": 7934,
      "78": 7935,
      "Cl": 7936,
      "Looking": 7937,
      "Ne": 7938,
      "Perfect": 7939,
      "mers": 7940,
      "oking": 7941,
      "press": 7942,
      "rc": 7943,
      "working": 7944,
      "Ġsoooo": 7945,
      "itam": 7946,
      "itled": 7947,
      "Ġduck": 7948,
      "Ġtheat": 7949,
      "outher": 7950,
      "Ġgal": 7951,
      "Ġbeans": 7952,
      "Ġinqu": 7953,
      "Ġinfect": 7954,
      "Ġking": 7955,
      "Ġshri": 7956,
      "Ġshipping": 7957,
      "âĢįâĻ": 7958,
      "indy": 7959,
      "ĠFort": 7960,
      "Ġprob": 7961,
      "Ġassess": 7962,
      "olution": 7963,
      "allas": 7964,
      "Ġcouples": 7965,
      "Ġconsequ": 7966,
      "Ġcomic": 7967,
      "Ġcomedy": 7968,
      "Ġdisaster": 7969,
      "ĠWester": 7970,
      "ĠWork": 7971,
      "ĠWars": 7972,
      "Ġacted": 7973,
      "ardon": 7974,
      "Ġenem": 7975,
      "bag": 7976,
      "Ġadmitted": 7977,
      "Ġgreatly": 7978,
      "Ġinvitation": 7979,
      "Ġclu": 7980,
      "Ġclown": 7981,
      "Ġ36": 7982,
      "ĠEast": 7983,
      "Ġtwist": 7984,
      "aby": 7985,
      "lessly": 7986,
      "Ġskating": 7987,
      "ode": 7988,
      "bruary": 7989,
      "Ġsneak": 7990,
      "Ġdelay": 7991,
      "ĠAlice": 7992,
      "Ġliterature": 7993,
      "Ġfantasy": 7994,
      "Ġ120": 7995,
      "Ġhistor": 7996,
      "mination": 7997,
      "Ġcounting": 7998,
      "Ġcreating": 7999,
      "Ġbottles": 8000,
      "Ġlabel": 8001,
      "Ġhyp": 8002,
      "Ġtransferred": 8003,
      "Ġrequires": 8004,
      "Ġrequirements": 8005,
      "ĠInternational": 8006,
      "Ġvomit": 8007,
      "Ġselection": 8008,
      "OMG": 8009,
      "Ġassuming": 8010,
      "ĠBarb": 8011,
      "WUBWUBWUBWUB": 8012,
      "ĠABC": 8013,
      "Ġbetrayed": 8014,
      "Ġsatisfaction": 8015,
      "Ġumbre": 8016,
      "Ġbalcony": 8017,
      "!?": 8018,
      "Luckily": 8019,
      "New": 8020,
      "mod": 8021,
      "sses": 8022,
      "uate": 8023,
      "Ġmu": 8024,
      "Ġmidnight": 8025,
      "ona": 8026,
      "Ġbaking": 8027,
      "Ġbtw": 8028,
      "Ġfiction": 8029,
      "Ġnation": 8030,
      "Ġlas": 8031,
      "Ġcoke": 8032,
      "Ġpace": 8033,
      "Ġpatch": 8034,
      "oty": 8035,
      "Ġyouth": 8036,
      "then": 8037,
      "Ġgest": 8038,
      "Ġmeters": 8039,
      "ett": 8040,
      "entially": 8041,
      "Ġmoist": 8042,
      "Ġsoap": 8043,
      "Ġchess": 8044,
      "Ġchap": 8045,
      "Ġwholesome": 8046,
      "ĠSan": 8047,
      "aud": 8048,
      "Ġpointing": 8049,
      "Ġbackp": 8050,
      "Ġtheyre": 8051,
      "arded": 8052,
      "ints": 8053,
      "Ġwriter": 8054,
      "Ġentrance": 8055,
      "ĠLo": 8056,
      "reeze": 8057,
      "ĠOut": 8058,
      "ĠER": 8059,
      "Ġphil": 8060,
      "ĠJune": 8061,
      "Ġexport": 8062,
      "ĠREA": 8063,
      "Ġincon": 8064,
      "ograph": 8065,
      "Ġclassmates": 8066,
      "upid": 8067,
      "Ġregion": 8068,
      "Ġsinger": 8069,
      "Ġwarming": 8070,
      "Ġdistressed": 8071,
      "Ġpatients": 8072,
      "ĠAlways": 8073,
      "Ġrides": 8074,
      "ological": 8075,
      "Ġapples": 8076,
      "erco": 8077,
      "Ġsunshine": 8078,
      "ONE": 8079,
      "Ġfocused": 8080,
      "Ġpencil": 8081,
      "Ġattracted": 8082,
      "Ġoccup": 8083,
      "ĠDepartment": 8084,
      "Ġnails": 8085,
      "almart": 8086,
      "Ġdesperately": 8087,
      "ĠJoe": 8088,
      "ĠRussian": 8089,
      "Ġexhibition": 8090,
      "Ġcereal": 8091,
      "ĠCorpor": 8092,
      "Ġstyles": 8093,
      "Ġbattery": 8094,
      "Ġconservative": 8095,
      "ĠATM": 8096,
      "Ġstrategy": 8097,
      "Ġremorseful": 8098,
      "Ġcuriosity": 8099,
      "Ġsacrif": 8100,
      "43": 8101,
      "55": 8102,
      "De": 8103,
      "cr": 8104,
      "diving": 8105,
      "fuck": 8106,
      "hear": 8107,
      "lines": 8108,
      "phere": 8109,
      "Ġtun": 8110,
      "stick": 8111,
      "stop": 8112,
      "attle": 8113,
      "ĠIr": 8114,
      "eek": 8115,
      "Ġtoes": 8116,
      "Ġdomin": 8117,
      "Ġdazed": 8118,
      "Ġpour": 8119,
      "Ġpork": 8120,
      "anny": 8121,
      "vest": 8122,
      "Ġforth": 8123,
      "Ġuh": 8124,
      "ari": 8125,
      "ament": 8126,
      "ĠThough": 8127,
      "Ġneeding": 8128,
      "Ġbridge": 8129,
      "ulting": 8130,
      "uman": 8131,
      "ĠBoth": 8132,
      "ĠTinder": 8133,
      "agon": 8134,
      "Ġvision": 8135,
      "reek": 8136,
      "Ġbush": 8137,
      "Ġrecall": 8138,
      "Ġblond": 8139,
      "Ġbleeding": 8140,
      "Ġhighlight": 8141,
      "ĠThankfully": 8142,
      "Ġserving": 8143,
      "Ġsecure": 8144,
      "Ġ400": 8145,
      "Ġrepost": 8146,
      "Ġretired": 8147,
      "Ġretail": 8148,
      "Ġforeig": 8149,
      "âĢĿ.": 8150,
      "ĠBefore": 8151,
      "Ġkiller": 8152,
      "Ġallows": 8153,
      "Ġceiling": 8154,
      "Ġ150": 8155,
      "Whoa": 8156,
      "Ġrollerco": 8157,
      "Ġconstant": 8158,
      "Ġreported": 8159,
      "Ġdevoted": 8160,
      "Ġdocumentary": 8161,
      "Ġ199": 8162,
      "Ġnecessarily": 8163,
      "Ġofficially": 8164,
      "Ġpunish": 8165,
      "Ġsubjects": 8166,
      "Ġflair": 8167,
      "Ġselected": 8168,
      "Ġchampagne": 8169,
      "ĠColor": 8170,
      "Ġannounce": 8171,
      "Ġscrewed": 8172,
      "Ġmutual": 8173,
      "Ġdefinition": 8174,
      "ĠBritish": 8175,
      "Ġtransit": 8176,
      "ĠSecond": 8177,
      "Ġdisrespect": 8178,
      "?\"": 8179,
      "HT": 8180,
      "LD": 8181,
      "fs": 8182,
      "fessor": 8183,
      "ka": 8184,
      "rough": 8185,
      "rical": 8186,
      "squ": 8187,
      "season": 8188,
      "tail": 8189,
      "uits": 8190,
      "wow": 8191,
      "Ġtil": 8192,
      "Ġwinner": 8193,
      "Ġmower": 8194,
      "Ġsrc": 8195,
      "itable": 8196,
      "Ġbiz": 8197,
      "eem": 8198,
      "eeze": 8199,
      "Ġdin": 8200,
      "Ġled": 8201,
      "Ġlands": 8202,
      "Ġcate": 8203,
      "outs": 8204,
      "oma": 8205,
      "ene": 8206,
      "Ġkicking": 8207,
      "Ġoutstanding": 8208,
      "Ġdaycare": 8209,
      "ĠThats": 8210,
      "Ġgosh": 8211,
      "ĠDes": 8212,
      "ĠDep": 8213,
      "ĠSure": 8214,
      "itement": 8215,
      "Ġdiam": 8216,
      "onnel": 8217,
      "Ġchannels": 8218,
      "ils": 8219,
      "ilst": 8220,
      "Ġque": 8221,
      "Ġresponding": 8222,
      "Ġgranted": 8223,
      "Ġpasses": 8224,
      "Ġsolo": 8225,
      "Ġmoves": 8226,
      "Ġdeleted": 8227,
      "Ġterror": 8228,
      "Ġentert": 8229,
      "Ġhop": 8230,
      "roid": 8231,
      "Ġlisted": 8232,
      "hey": 8233,
      "Ġacadem": 8234,
      "Ġidk": 8235,
      "Ġguessing": 8236,
      "Ġcontain": 8237,
      "ĠRock": 8238,
      "Ġasks": 8239,
      "Ġwishes": 8240,
      "Ġconfess": 8241,
      "Ġclassroom": 8242,
      "Ġbreed": 8243,
      "Ġskip": 8244,
      "Ġexperiencing": 8245,
      "phones": 8246,
      "Ġbargain": 8247,
      "ĠFrank": 8248,
      "ĠFrancis": 8249,
      "Ġimproving": 8250,
      "ouchy": 8251,
      "Ġfourth": 8252,
      "Ġcalend": 8253,
      "Ġchatbot": 8254,
      "Ġconsult": 8255,
      "Ġinvent": 8256,
      "Ġskinny": 8257,
      "Ġblogging": 8258,
      "ville": 8259,
      "Ġexisted": 8260,
      "Ġidiotic": 8261,
      "Ġsigning": 8262,
      "Getting": 8263,
      "Ġblocks": 8264,
      "Ġdownvote": 8265,
      "Ġnailed": 8266,
      "Ġtricks": 8267,
      "Ġhostile": 8268,
      "Ġcombination": 8269,
      "Ġtires": 8270,
      "Ġcontribut": 8271,
      "ĠLebron": 8272,
      "ĠAccount": 8273,
      "Ġcigarette": 8274,
      "Ġentertainment": 8275,
      "ĠRussia": 8276,
      "Ġparticipate": 8277,
      "Ġadvertisement": 8278,
      "Ġcorporate": 8279,
      "Ġstunned": 8280,
      "ĠLucy": 8281,
      "Ġhidden": 8282,
      "Ġdebate": 8283,
      "ĠLOVE": 8284,
      "ĠRoad": 8285,
      "Ġwarranty": 8286,
      "ĠGeorge": 8287,
      "Ġankle": 8288,
      "Ġlength": 8289,
      "Ġelementary": 8290,
      "outhern": 8291,
      "Ġinconven": 8292,
      "ILL": 8293,
      "Mine": 8294,
      "Miss": 8295,
      "Tw": 8296,
      "Were": 8297,
      "oes": 8298,
      "point": 8299,
      "vo": 8300,
      "worthy": 8301,
      "Ġtied": 8302,
      "inum": 8303,
      "Ġmal": 8304,
      "step": 8305,
      "Ġheels": 8306,
      "Ġnea": 8307,
      "Ġpil": 8308,
      "anking": 8309,
      "omy": 8310,
      "Ġgather": 8311,
      "verted": 8312,
      "Ġben": 8313,
      "uted": 8314,
      "utation": 8315,
      "Ġshown": 8316,
      "Ġpasta": 8317,
      "Ġupgr": 8318,
      "ĠAh": 8319,
      "Ġchasing": 8320,
      "ula": 8321,
      "ĠFA": 8322,
      "ĠFall": 8323,
      "ĠFore": 8324,
      "enda": 8325,
      "rian": 8326,
      "Ġplates": 8327,
      "Ġunre": 8328,
      "ĠSay": 8329,
      "ĠSand": 8330,
      "ĠSpring": 8331,
      "ummer": 8332,
      "ummy": 8333,
      "ĠBre": 8334,
      "ĠBell": 8335,
      "ĠBoston": 8336,
      "ĠWalmart": 8337,
      "Ġnoisy": 8338,
      "Ġspite": 8339,
      "icky": 8340,
      "quet": 8341,
      "Ġoffices": 8342,
      "Ġsees": 8343,
      "Ġrealistic": 8344,
      "Ġsmh": 8345,
      "secake": 8346,
      "Ġmango": 8347,
      "Nobody": 8348,
      "ĠCont": 8349,
      "Ġawfully": 8350,
      "Ġclin": 8351,
      "Ġket": 8352,
      "Ġfacil": 8353,
      "Ġcarried": 8354,
      "ĠEd": 8355,
      "Ġphrase": 8356,
      "Ġplayful": 8357,
      "Ġcovers": 8358,
      "Ġdecade": 8359,
      "Ġsemi": 8360,
      "ĠRose": 8361,
      "Ġexcitement": 8362,
      "Ġreaders": 8363,
      "Ġpuzz": 8364,
      "Ġskipping": 8365,
      "Ġinterviewer": 8366,
      "Ġmusical": 8367,
      "Ġmeds": 8368,
      "Ġrained": 8369,
      "Ġcakes": 8370,
      "Ġrecommended": 8371,
      "Ġgraph": 8372,
      "Ġgrabbed": 8373,
      "Ġfitness": 8374,
      "Ġelected": 8375,
      "Ġbloody": 8376,
      "Ġdoubtful": 8377,
      "Ġeast": 8378,
      "Ġoccur": 8379,
      "Ġdemocr": 8380,
      "Ġencounter": 8381,
      "Ġnaturally": 8382,
      "Ġromance": 8383,
      "ĠðŁ¤£": 8384,
      "Ġencourage": 8385,
      "Ġidentity": 8386,
      "Ġscreamed": 8387,
      "Ġescape": 8388,
      "Ġsettings": 8389,
      "Cheers": 8390,
      "Ġattached": 8391,
      "because": 8392,
      "Ġpollution": 8393,
      "Ġappetite": 8394,
      "Ġallergic": 8395,
      "Ġcooperation": 8396,
      "Ġcivil": 8397,
      "Ġbachelor": 8398,
      "According": 8399,
      "Ġglamorous": 8400,
      "Ġcateg": 8401,
      "),": 8402,
      "Ar": 8403,
      "Ms": 8404,
      "Time": 8405,
      "aire": 8406,
      "ls": 8407,
      "mill": 8408,
      "Ġ~~": 8409,
      "Ġaid": 8410,
      "inity": 8411,
      "Ġsew": 8412,
      "itute": 8413,
      "Ġdome": 8414,
      "Ġnin": 8415,
      "Ġnest": 8416,
      "isive": 8417,
      "Ġpier": 8418,
      "omet": 8419,
      "Ġresid": 8420,
      "encies": 8421,
      "Ġego": 8422,
      "arth": 8423,
      "Ġlips": 8424,
      "Ġoverweight": 8425,
      "Ġmold": 8426,
      "ĠMo": 8427,
      "Ġchick": 8428,
      "Ġdeer": 8429,
      "Ġgoss": 8430,
      "Ġarmy": 8431,
      "Ġassoci": 8432,
      "Ġfinance": 8433,
      "Ġfinances": 8434,
      "Ġunits": 8435,
      "Ġunlo": 8436,
      "Ġkindergarten": 8437,
      "umes": 8438,
      "Ġminds": 8439,
      "acker": 8440,
      "Ġpeoples": 8441,
      "ĠBirth": 8442,
      "Ġagenda": 8443,
      "Ġresist": 8444,
      "Ġappears": 8445,
      "ĠTalk": 8446,
      "ĠGold": 8447,
      "Ġseek": 8448,
      "ĠHad": 8449,
      "Ġshortly": 8450,
      "ĠCle": 8451,
      "dding": 8452,
      "Ġbuzz": 8453,
      "Ġstarved": 8454,
      "Ġ2000": 8455,
      "Ġaccused": 8456,
      "ĠRome": 8457,
      "Ġincident": 8458,
      "Ġhighschool": 8459,
      "which": 8460,
      "Ġclassical": 8461,
      "Ġthanksgiving": 8462,
      "Ġsalty": 8463,
      "Ġstopping": 8464,
      "Ġairpl": 8465,
      "Ġdelusion": 8466,
      "Ġcudd": 8467,
      "Ġreminding": 8468,
      "Ġreliable": 8469,
      "Ġtasty": 8470,
      "Ġfalls": 8471,
      "Ġreserved": 8472,
      "Ġreservations": 8473,
      "Ġcav": 8474,
      "Ġappliances": 8475,
      "Ġfeeding": 8476,
      "Ġconnected": 8477,
      "ĠGoing": 8478,
      "Ġmassage": 8479,
      "Gotta": 8480,
      "Ġresolution": 8481,
      "Ġfemin": 8482,
      "Ġfederal": 8483,
      "Ġfortune": 8484,
      "Ġpigs": 8485,
      "ĠCongrats": 8486,
      "Ġelectricity": 8487,
      "Ġsample": 8488,
      "Ġconsistently": 8489,
      "ĠOtherwise": 8490,
      "ĠFebruary": 8491,
      "Super": 8492,
      "Ġbastard": 8493,
      "Ġnonsense": 8494,
      "Ġstructure": 8495,
      "zhou": 8496,
      "Ġtutor": 8497,
      "Ġumbrella": 8498,
      "Ġnearest": 8499,
      "70": 8500,
      "Better": 8501,
      "Eh": 8502,
      "RO": 8503,
      "Saw": 8504,
      "TS": 8505,
      "YY": 8506,
      "]...": 8507,
      "bon": 8508,
      "bowl": 8509,
      "mart": 8510,
      "oe": 8511,
      "rol": 8512,
      "rics": 8513,
      "top": 8514,
      "ua": 8515,
      "west": 8516,
      "Ġthus": 8517,
      "Ġthirt": 8518,
      "Ġsin": 8519,
      "Ġsession": 8520,
      "ston": 8521,
      "Ġbreeze": 8522,
      "Ġtoler": 8523,
      "orse": 8524,
      "Ġnative": 8525,
      "Ġwhilst": 8526,
      "oming": 8527,
      "Ġjustice": 8528,
      "Ġinev": 8529,
      "Ġrail": 8530,
      "Ġsha": 8531,
      "ĠNorth": 8532,
      "adium": 8533,
      "Ġupper": 8534,
      "Ġisland": 8535,
      "Ġprank": 8536,
      "ĠThomas": 8537,
      "thern": 8538,
      "Ġmosqu": 8539,
      "cha": 8540,
      "Ġdonate": 8541,
      "Ġcha": 8542,
      "Ġchain": 8543,
      "Ġchased": 8544,
      "ares": 8545,
      "ander": 8546,
      "Ġunsu": 8547,
      "cials": 8548,
      "ĠWar": 8549,
      "Ġintend": 8550,
      "Ġoffensive": 8551,
      "Ġoffense": 8552,
      "Ġscold": 8553,
      "ptions": 8554,
      "Ġsuite": 8555,
      "ĠCup": 8556,
      "Ġjoining": 8557,
      "Ġhealing": 8558,
      "aped": 8559,
      "ĠPoor": 8560,
      "Ġours": 8561,
      "Weird": 8562,
      "Ġextent": 8563,
      "Ġtesting": 8564,
      "doors": 8565,
      "izer": 8566,
      "Ġdifficulties": 8567,
      "Ġslide": 8568,
      "sole": 8569,
      "acing": 8570,
      "acon": 8571,
      "acent": 8572,
      "Quite": 8573,
      "Ġblocked": 8574,
      "Ġlively": 8575,
      "Ġcope": 8576,
      "iped": 8577,
      "Ġsites": 8578,
      "Ġswallow": 8579,
      "Ġincorrect": 8580,
      "Ġfavorites": 8581,
      "Ġdefensive": 8582,
      "Ġcatalog": 8583,
      "ancer": 8584,
      "Ġtrainer": 8585,
      "Ġforecast": 8586,
      "Ġreferring": 8587,
      "Ġ75": 8588,
      "Ġpresented": 8589,
      "Ġanswered": 8590,
      "obic": 8591,
      "Ġburden": 8592,
      "Ġpractically": 8593,
      "Ġoverwhelming": 8594,
      "Ġmarkets": 8595,
      "Ġchoosing": 8596,
      "hahahaha": 8597,
      "Ġleads": 8598,
      "Ġcentral": 8599,
      "Ġmagn": 8600,
      "books": 8601,
      "Ġattacks": 8602,
      "Ġpenis": 8603,
      "Ġclaims": 8604,
      "Ġordering": 8605,
      "Ġbummer": 8606,
      "Ġemails": 8607,
      "nesses": 8608,
      "usioned": 8609,
      "Ġskydiving": 8610,
      "Ġmembership": 8611,
      "Ġpeeved": 8612,
      "Ġpaintings": 8613,
      "Ġbullet": 8614,
      "Ġspoiled": 8615,
      "Ġannounced": 8616,
      "Ġchallenges": 8617,
      "Ġracism": 8618,
      "Trying": 8619,
      "Ġflip": 8620,
      "Ġappearance": 8621,
      "Ġentertaining": 8622,
      "ĠJanuary": 8623,
      "Ġloads": 8624,
      "Ġceremony": 8625,
      "ĠOlympic": 8626,
      "Ġlux": 8627,
      "Ġcompassionate": 8628,
      "Ġfortunate": 8629,
      "Ġconfirmed": 8630,
      "Ġconclusion": 8631,
      "Ġquantity": 8632,
      "Ġphilos": 8633,
      "Ġentertained": 8634,
      "Ġcalendar": 8635,
      "Fr": 8636,
      "Fair": 8637,
      "Listen": 8638,
      "PS": 8639,
      "car": 8640,
      "corn": 8641,
      "fall": 8642,
      "smoking": 8643,
      "ties": 8644,
      "ĠUgh": 8645,
      "Ģï¸ı": 8646,
      "Ġtub": 8647,
      "Ġthunderst": 8648,
      "Ġwings": 8649,
      "Ġwipe": 8650,
      "Ġsou": 8651,
      "Ġsooo": 8652,
      "itis": 8653,
      "Ġbond": 8654,
      "Ġfig": 8655,
      "ĠIQ": 8656,
      "Ġdirt": 8657,
      "orious": 8658,
      "ena": 8659,
      "Ġinher": 8660,
      "Ġeh": 8661,
      "section": 8662,
      "amily": 8663,
      "Ġstone": 8664,
      "adv": 8665,
      "adian": 8666,
      "ĠThink": 8667,
      "ching": 8668,
      "Ġsofa": 8669,
      "eart": 8670,
      "ĠMid": 8671,
      "Ġchase": 8672,
      "onda": 8673,
      "ĠFest": 8674,
      "illusioned": 8675,
      "Ġpropose": 8676,
      "Ġneur": 8677,
      "Ġtherefore": 8678,
      "rib": 8679,
      "Ġdeals": 8680,
      "ĠBA": 8681,
      "ĠBet": 8682,
      "Ġresources": 8683,
      "Ġscri": 8684,
      "Ġscum": 8685,
      "Ġrealizing": 8686,
      "Ġsmiling": 8687,
      "istics": 8688,
      "Ġdiscover": 8689,
      "Ġrose": 8690,
      "Ġreviews": 8691,
      "Ġfoundation": 8692,
      "Ġfights": 8693,
      "Ġimplement": 8694,
      "ĠLab": 8695,
      "ĠLots": 8696,
      "laim": 8697,
      "ĠED": 8698,
      "ĠEach": 8699,
      "Ġwalks": 8700,
      "Ġ27": 8701,
      "Ġ28": 8702,
      "Ġ29": 8703,
      "rows": 8704,
      "Ġtwin": 8705,
      "Ġapartments": 8706,
      "Ġexpired": 8707,
      "Ġpermit": 8708,
      "Ġstays": 8709,
      "Ġ:-": 8710,
      "Ġaddict": 8711,
      "Ġreph": 8712,
      "Ġfactor": 8713,
      "Ġforest": 8714,
      "Ġ800": 8715,
      "Ġstandards": 8716,
      "Ġoblig": 8717,
      "Ġpositions": 8718,
      "Ġevenings": 8719,
      "Ġgreater": 8720,
      "ĠAmericans": 8721,
      "Almost": 8722,
      "Ġcontinues": 8723,
      "Ġcontinued": 8724,
      "Ġadvanced": 8725,
      "Ġarriving": 8726,
      "Ġtraveler": 8727,
      "Ġorganic": 8728,
      "ĠExc": 8729,
      "Ġvegetarian": 8730,
      "Ġinjuries": 8731,
      "Ġpipe": 8732,
      "EEEE": 8733,
      "ĠĠĠĠ": 8734,
      "Ġsources": 8735,
      "Ġdisturbing": 8736,
      "Ġflooded": 8737,
      "Ġvirus": 8738,
      "Ġtrailer": 8739,
      "ĠKorea": 8740,
      "Ġskiing": 8741,
      "Ġdemonst": 8742,
      "Ġprocedure": 8743,
      "Ġconsequences": 8744,
      "Ġclubs": 8745,
      "ĠBirthday": 8746,
      "Ġmosquit": 8747,
      "\",": 8748,
      "16": 8749,
      "Da": 8750,
      "Er": 8751,
      "IVE": 8752,
      "Morning": 8753,
      "Totally": 8754,
      "__": 8755,
      "bal": 8756,
      "iers": 8757,
      "Ġtent": 8758,
      "Ġtang": 8759,
      "Ġah": 8760,
      "Ġthirst": 8761,
      "ern": 8762,
      "erving": 8763,
      "Ġmat": 8764,
      "Ġmere": 8765,
      "Ġmush": 8766,
      "Ġmothers": 8767,
      "Ġsorrow": 8768,
      "itan": 8769,
      "Ġbone": 8770,
      "Ġbands": 8771,
      "rem": 8772,
      "Ġhood": 8773,
      "Ġnomin": 8774,
      "Ġcage": 8775,
      "anes": 8776,
      "Ġgang": 8777,
      "Ġbeers": 8778,
      "Ġabort": 8779,
      "Ġabusive": 8780,
      "aste": 8781,
      "Ġrating": 8782,
      "Ġkit": 8783,
      "Ġshred": 8784,
      "esla": 8785,
      "Ġstamps": 8786,
      "ooh": 8787,
      "ĠAg": 8788,
      "ĠMine": 8789,
      "ĠMade": 8790,
      "Ġdeck": 8791,
      "Ġgodd": 8792,
      "ulty": 8793,
      "Ġexists": 8794,
      "Ġnewborn": 8795,
      "ĠAnother": 8796,
      "arts": 8797,
      "ĠSqu": 8798,
      "Ġmornings": 8799,
      "umble": 8800,
      "Ġdisillusioned": 8801,
      "Ġintr": 8802,
      "ĠGerm": 8803,
      "ilson": 8804,
      "Ġrocks": 8805,
      "Ġarguing": 8806,
      "Ġgrouchy": 8807,
      "Ġpromote": 8808,
      "Ġsilk": 8809,
      "ĠCA": 8810,
      "Ġroommates": 8811,
      "Ġtrump": 8812,
      "ĠPal": 8813,
      "ĠPut": 8814,
      "Ġmommy": 8815,
      "ĠLos": 8816,
      "ĠLaw": 8817,
      "Ġlemon": 8818,
      "Ġinteraction": 8819,
      "ĠRest": 8820,
      "Ġmarked": 8821,
      "Ġmarvel": 8822,
      "ĠChen": 8823,
      "Ġattended": 8824,
      "Ġfuel": 8825,
      "Surely": 8826,
      "Ġinstall": 8827,
      "Ġinstinct": 8828,
      "ocate": 8829,
      "Ġmuscle": 8830,
      "Ġexplained": 8831,
      "Ġdrops": 8832,
      "Ġbarbec": 8833,
      "......": 8834,
      "Ġaccountant": 8835,
      "Ġpopcorn": 8836,
      "ĠDonald": 8837,
      "Haven": 8838,
      "Ġseller": 8839,
      "Ġachie": 8840,
      "Ġpotty": 8841,
      "Ġcentury": 8842,
      "Ġcaf": 8843,
      "Ġepic": 8844,
      "Ġkeyboard": 8845,
      "Ġdepending": 8846,
      "Ġbenefic": 8847,
      "Ġtradition": 8848,
      "Ġteenagers": 8849,
      "Ġsearching": 8850,
      "Ġlifting": 8851,
      "Ġcombined": 8852,
      "Ġcycle": 8853,
      "Ġsweaty": 8854,
      "Ġrobber": 8855,
      "Ġsteam": 8856,
      "Ġnightmares": 8857,
      "Ġrewarding": 8858,
      "Ġcrawling": 8859,
      "Ġcongratulations": 8860,
      "ĠOlympics": 8861,
      "ðŁı»": 8862,
      "Ġwaist": 8863,
      "Ġdunno": 8864,
      "Ġasshole": 8865,
      "Ġjewel": 8866,
      "ĠAfrica": 8867,
      "Ġgesture": 8868,
      "ĠColorado": 8869,
      "Ġdiamond": 8870,
      "Ġdomestic": 8871,
      "ĠFestival": 8872,
      "Con": 8873,
      "Gu": 8874,
      "Mmm": 8875,
      "Sc": 8876,
      "Ya": 8877,
      "dney": 8878,
      "ga": 8879,
      "gen": 8880,
      "iously": 8881,
      "pot": 8882,
      "pen": 8883,
      "rs": 8884,
      "sorry": 8885,
      "uals": 8886,
      "with": 8887,
      "xual": 8888,
      "Ġmp": 8889,
      "Ġseed": 8890,
      "star": 8891,
      "Ġbout": 8892,
      "Ġflaw": 8893,
      "Ġhers": 8894,
      "Ġdouch": 8895,
      "Ġnause": 8896,
      "Ġcave": 8897,
      "Ġomg": 8898,
      "Ġyea": 8899,
      "Ġinhibit": 8900,
      "Ġkidn": 8901,
      "Think": 8902,
      "arah": 8903,
      "Ġlivid": 8904,
      "Ġshed": 8905,
      "Ġshattered": 8906,
      "ams": 8907,
      "Ġstir": 8908,
      "Ġstab": 8909,
      "Ġstations": 8910,
      "Ġstove": 8911,
      "Ġsticking": 8912,
      "Ġoverly": 8913,
      "Ġknees": 8914,
      "Ġwhoever": 8915,
      "Ġchina": 8916,
      "Ġchunk": 8917,
      "lied": 8918,
      "ulance": 8919,
      "ĠDallas": 8920,
      "ĠFair": 8921,
      "Ġunion": 8922,
      "Ġunknown": 8923,
      "ĠSn": 8924,
      "cipl": 8925,
      "ĠBB": 8926,
      "ĠBM": 8927,
      "Ġdiapers": 8928,
      "Ġdizzy": 8929,
      "Ġbeforehand": 8930,
      "inton": 8931,
      "owned": 8932,
      "Ġlogo": 8933,
      "Ġrealised": 8934,
      "ĠHello": 8935,
      "ĠNovember": 8936,
      "Ġtro": 8937,
      "Ġhappily": 8938,
      "ĠPe": 8939,
      "ĠPan": 8940,
      "Ġimg": 8941,
      "venir": 8942,
      "venge": 8943,
      "Ġentitled": 8944,
      "Ġcareless": 8945,
      "Ġtrapped": 8946,
      "ĠEU": 8947,
      "Ġupdates": 8948,
      "ĠJenny": 8949,
      "Ġpicks": 8950,
      "acity": 8951,
      "assic": 8952,
      "about": 8953,
      "Ġincomp": 8954,
      "Ġexcl": 8955,
      "Ġdram": 8956,
      "ĠChan": 8957,
      "Ġpassword": 8958,
      "Ġreputation": 8959,
      "Ġheartbre": 8960,
      "ĠState": 8961,
      "Ġspeaker": 8962,
      "Ġexplains": 8963,
      "Ġrefresh": 8964,
      "Ġhorrifying": 8965,
      "Ġrainy": 8966,
      "Ġvalues": 8967,
      "Anyway": 8968,
      "Anytime": 8969,
      "Ġqualify": 8970,
      "Ġqualifications": 8971,
      "Ġforgetting": 8972,
      "Ġaffected": 8973,
      "works": 8974,
      "Ġweights": 8975,
      "Ġinfuri": 8976,
      "ĠUnless": 8977,
      "Ġsafely": 8978,
      "Ġgracious": 8979,
      "Ġdumbass": 8980,
      "hahaha": 8981,
      "ðŁĺŃ": 8982,
      "Ġhumanity": 8983,
      "Ġfreshman": 8984,
      "ĠJohnson": 8985,
      "Ġapproached": 8986,
      "Ġprotest": 8987,
      "Ġscenery": 8988,
      "Ġtrading": 8989,
      "ITH": 8990,
      "ĠMarch": 8991,
      "Ġbumper": 8992,
      "---": 8993,
      "Ġarranged": 8994,
      "Ġexpression": 8995,
      "Ġactivity": 8996,
      "Ġcollecting": 8997,
      "Ġtechnically": 8998,
      "Ġgambling": 8999,
      "Ġnewspapers": 9000,
      "Ġcocktail": 9001,
      "Check": 9002,
      "Ġsmoothly": 9003,
      "Ġautomatically": 9004,
      "Ġsurvived": 9005,
      "Ġlipstick": 9006,
      "Ġfrankly": 9007,
      "Ġinches": 9008,
      "Ġinfluence": 9009,
      "Ġfascinating": 9010,
      "Sadly": 9011,
      "ĠBraz": 9012,
      "Ġconcentrate": 9013,
      "mosphere": 9014,
      "Ġjogging": 9015,
      "ĠZhang": 9016,
      "ĠApple": 9017,
      "ĠÂ£": 9018,
      "Ġappeal": 9019,
      "Ġgossip": 9020,
      "Ġairplane": 9021,
      "Ġrephrase": 9022,
      "*.": 9023,
      "13": 9024,
      "Black": 9025,
      "DS": 9026,
      "GA": 9027,
      "Gr": 9028,
      "iency": 9029,
      "oons": 9030,
      "vin": 9031,
      "Ġtad": 9032,
      "inger": 9033,
      "stone": 9034,
      "Ġbake": 9035,
      "Ġbones": 9036,
      "Ġbung": 9037,
      "Ġdresses": 9038,
      "Ġpad": 9039,
      "ider": 9040,
      "sem": 9041,
      "Ġshamed": 9042,
      "Ġstamp": 9043,
      "oops": 9044,
      "oogle": 9045,
      "Ġoutgoing": 9046,
      "Ġups": 9047,
      "Ġprime": 9048,
      "ĠMA": 9049,
      "ĠMal": 9050,
      "ĠMed": 9051,
      "Ġcher": 9052,
      "Ġweekly": 9053,
      "Ġbrace": 9054,
      "ulated": 9055,
      "ĠFelt": 9056,
      "Ġarch": 9057,
      "artin": 9058,
      "rive": 9059,
      "Ġbeings": 9060,
      "aus": 9061,
      "Ġconsole": 9062,
      "Ġhardc": 9063,
      "ĠTur": 9064,
      "Their": 9065,
      "Ġwrit": 9066,
      "ĠHi": 9067,
      "Ġgrat": 9068,
      "Ġpointed": 9069,
      "Ġpointless": 9070,
      "Ġprompt": 9071,
      "Ġrepeated": 9072,
      "ĠCr": 9073,
      "Ġjoint": 9074,
      "plant": 9075,
      "Ġclerk": 9076,
      "Speaking": 9077,
      "ĠPO": 9078,
      "Ġemployed": 9079,
      "Ġcleared": 9080,
      "boys": 9081,
      "dos": 9082,
      "Ġfacing": 9083,
      "Ġslot": 9084,
      "Ġlearnt": 9085,
      "udy": 9086,
      "aughter": 9087,
      "ĠJones": 9088,
      "Ġrecy": 9089,
      "Ġdisappear": 9090,
      "Ġdisappointment": 9091,
      "Ġcoasters": 9092,
      "Ġdecades": 9093,
      "Ġrecipes": 9094,
      "ilton": 9095,
      "Ġsupplier": 9096,
      "ĠRep": 9097,
      "Ġcomplacent": 9098,
      "Ġmini": 9099,
      "Ġ\"[": 9100,
      "Ġfreezing": 9101,
      "ĠUp": 9102,
      "ĠThanksgiving": 9103,
      "Ġsnakes": 9104,
      "Ġacceptance": 9105,
      "Ġirony": 9106,
      "Ġsurface": 9107,
      "Ġpackages": 9108,
      "ĠBeing": 9109,
      "Ġaffair": 9110,
      "Ġappropriate": 9111,
      "Ġbelly": 9112,
      "Always": 9113,
      "Ġcalories": 9114,
      "selor": 9115,
      "Ġsystems": 9116,
      "Ġache": 9117,
      "Ġconscious": 9118,
      "Ġeyeb": 9119,
      "Ġspecies": 9120,
      "Ġinvested": 9121,
      "Ġscenes": 9122,
      "Ġinspiration": 9123,
      "Ġscores": 9124,
      "Ġsociable": 9125,
      "Ġlinks": 9126,
      "ĠHaven": 9127,
      "Ġintroduced": 9128,
      "Ġexcuses": 9129,
      "force": 9130,
      "Ġfianc": 9131,
      "Ġpersonnel": 9132,
      "Ġadopt": 9133,
      "Ġinterrupt": 9134,
      "Ġmiracle": 9135,
      "ĠQueen": 9136,
      "ĠIndian": 9137,
      "ĠMexican": 9138,
      "Ġanticipating": 9139,
      "ĠKorean": 9140,
      "Ġanalysis": 9141,
      "Ġmaximum": 9142,
      "Ġathletic": 9143,
      "Ġblah": 9144,
      "Ġfrozen": 9145,
      "Ġvague": 9146,
      "Ġhamburger": 9147,
      "Ġwisdom": 9148,
      "itamins": 9149,
      "Ġsouvenir": 9150,
      "Ġjewelry": 9151,
      ":)": 9152,
      "Amer": 9153,
      "Besides": 9154,
      "Hell": 9155,
      "Ive": 9156,
      "Mar": 9157,
      "Read": 9158,
      "Show": 9159,
      "UU": 9160,
      "Usually": 9161,
      "UST": 9162,
      "WE": 9163,
      "Women": 9164,
      "YOU": 9165,
      "YES": 9166,
      "ech": 9167,
[...]
